<unk>	0
<s>	0
</s>	0
,	-3.29175
।	-3.44295
▁ਵਿੱਚ	-3.56602
▁ਦੇ	-3.64279
▁ਅਤੇ	-3.88007
▁ਹੈ	-3.99576
▁ਨੂੰ	-3.99597
▁ਦੀ	-4.10897
.	-4.14291
▁ਸੀ	-4.2362
▁ਇੱਕ	-4.36562
▁ਨੇ	-4.57054
▁ਦਾ	-4.58376
▁ਤੋਂ	-4.63479
▁ਲਈ	-4.74556
-	-4.81752
▁ਨਾਲ	-4.9297
▁	-4.98107
▁""	-4.99924
▁ਗਿਆ	-5.00097
▁ਇਸ	-5.08358
▁ਕਿ	-5.09194
▁ਕੀਤਾ	-5.10278
▁ਉਸ	-5.1069
""	-5.12065
▁ਹਨ	-5.18211
▁ਜੋ	-5.33343
▁ਇਹ	-5.41434
▁ਉਹ	-5.41861
▁ਉੱਤੇ	-5.47211
▁ਕਰਨ	-5.54272
▁ਜਿਸ	-5.56986
▁(	-5.57018
▁ਕੀਤੀ	-5.63905
▁ਵੀ	-5.6539
▁ਸਨ	-5.67998
▁ਦੁਆਰਾ	-5.72502
▁ਨਹੀਂ	-5.7738
)	-5.79931
▁'	-5.8167
▁ਦਿੱਤਾ	-5.84375
▁ਆਪਣੇ	-5.95808
▁ਉਨ੍ਹਾਂ	-5.96976
▁ਬਾਅਦ	-5.98435
▁"	-6.0008
ਤੇ	-6.02076
▁ਤੱਕ	-6.04792
▁ਗਈ	-6.0499
▁ਵਜੋਂ	-6.08963
▁ਹੋ	-6.11232
▁ਜਾਂ	-6.11476
▁ਕਰ	-6.1488
▁ਜਾਂਦਾ	-6.17894
▁ਦੀਆਂ	-6.17967
ਾਂ	-6.18635
;	-6.30732
▁ਗਏ	-6.30748
▁ਜਦੋਂ	-6.33757
▁ਤੌਰ	-6.33948
▁ਸ਼ਾਮਲ	-6.36174
▁ਕੇ	-6.4
▁ਪਰ	-6.40084
ਾ	-6.43284
▁ਹੋਰ	-6.47425
ੀ	-6.50535
▁ਸਾਲ	-6.55458
▁ਬਹੁਤ	-6.56136
▁ਹੋਏ	-6.6013
▁ਆਪਣੀ	-6.60193
▁ਵਾਲੇ	-6.6151
▁ਕਰਦਾ	-6.67853
ਸ	-6.70149
▁ਤਾਂ	-6.71123
▁ਕੰਮ	-6.72232
▁ਸਭ	-6.74953
▁ਹੋਇਆ	-6.76453
▁ਕੀਤੇ	-6.76502
▁ਵਿੱਚੋਂ	-6.76613
▁ਦੋ	-6.78474
▁ਪਹਿਲਾਂ	-6.79889
▁ਉਹਨਾਂ	-6.80366
▁ਕੁਝ	-6.80412
▁ਕਰਦੇ	-6.84691
▁ਡੀ	-6.85136
▁ਰਾਜ	-6.85983
▁ਮੈਂ	-6.86046
▁ਹੀ	-6.86651
▁ਸਾਰੇ	-6.86804
ੇ	-6.87616
▁ਸਮੇਂ	-6.89528
▁ਸ਼ੁਰੂ	-6.90956
▁ਕਿਹਾ	-6.92953
ਜ਼	-6.93009
▁ਏ	-6.93615
▁ਜਾ	-6.93741
▁ਦੌਰਾਨ	-6.94338
▁ਦਿੱਤੀ	-6.97561
ਨ	-6.98481
▁ਸਕਦਾ	-6.98561
▁ਪ੍ਰਾਪਤ	-6.98992
▁ਕੋਈ	-6.99367
▁ਰੂਪ	-6.99995
▁ਕਿਸੇ	-7.00586
▁ਤਰ੍ਹਾਂ	-7.03968
▁ਵਰਤੋਂ	-7.04123
'	-7.04312
▁ਖੇਤਰ	-7.04561
▁ਰਿਹਾ	-7.04763
▁ਵੱਧ	-7.05264
▁ਕਈ	-7.07897
▁ਲਿਆ	-7.10712
▁ਨਾਮ	-7.11473
ਆਂ	-7.11697
▁ਘੱਟ	-7.11759
▁ਕਰਨਾ	-7.12124
▁ਜਿਨ੍ਹਾਂ	-7.13754
▁ਐੱਸ	-7.13812
▁ਜਿਵੇਂ	-7.14902
▁ਹੋਣ	-7.1553
▁ਫਿਰ	-7.16648
▁ਬੀ	-7.17078
▁ਕਿਉਂਕਿ	-7.1717
▁ਹਾਲਾਂਕਿ	-7.17251
▁ਆਈ	-7.18444
▁ਸ਼ਹਿਰ	-7.18835
▁ਬਾਰੇ	-7.19016
▁ਹੁੰਦਾ	-7.19791
▁ਆਮ	-7.20403
▁ਵਾਰ	-7.23133
ਲ	-7.24115
ਰ	-7.27054
▁ਕਾਰਨ	-7.27865
▁ਲੋਕਾਂ	-7.28075
▁ਹਾਂ	-7.28111
▁ਸਕੂਲ	-7.29902
▁ਪੀ	-7.31416
▁ਜਿੱਥੇ	-7.31446
▁ਉਸਨੇ	-7.32615
ਃ	-7.32616
▁ਰਹੇ	-7.35702
▁ਤਿੰਨ	-7.35886
▁ਹਿੱਸਾ	-7.36774
▁ਮੁੱਖ	-7.3713
▁ਜਾਣ	-7.37672
▁ਰੱਖਿਆ	-7.37786
▁ਜੇ	-7.40379
▁ਯੂ	-7.40682
▁ਪਹਿਲੀ	-7.40799
▁ਜਾਰੀ	-7.41365
▁ਹੋਈ	-7.42504
▁ਲਗਭਗ	-7.42614
▁ਲੈ	-7.42977
▁ਵੱਲ	-7.44799
▁ਇ	-7.45557
▁ਸਿਰਫ	-7.46166
▁ਜਾਂਦੀ	-7.46748
▁ਜੀ	-7.47084
▁ਆਰ	-7.47344
▁ਵਿਚਕਾਰ	-7.48374
▁ਸੇਵਾ	-7.48709
▁ਹੁੰਦੇ	-7.48772
▁ਟੀ	-7.49492
▁ਘਰ	-7.49916
▁ਸੰਯੁਕਤ	-7.5029
ਮ	-7.50638
▁ਨਾ	-7.51136
▁ਐੱਮ	-7.51342
▁ਸਥਾਨ	-7.53793
▁ਸੰਨ	-7.5422
▁1	-7.54434
▁ਯੂਨੀਵਰਸਿਟੀ	-7.54542
▁ਅਸੀਂ	-7.55223
▁ਵਾਪਸ	-7.56705
▁ਬਣ	-7.57189
▁ਪਹਿਲੇ	-7.5799
▁ਫਿਲਮ	-7.58227
▁ਮੌਤ	-7.58394
▁ਟੀਮ	-7.59435
▁ਦੂਜੇ	-7.59897
/	-7.61437
ਸੀ	-7.61536
▁ਆਫ਼	-7.61946
▁ਸੀਜ਼ਨ	-7.6267
"",	-7.62715
▁ਈ	-7.62754
▁ਐੱਫ	-7.62775
▁ਵੱਖ	-7.63268
▁ਬਣਾਇਆ	-7.6466
▁ਯੁੱਧ	-7.65396
ੋ	-7.6588
▁ਵਿਰੁੱਧ	-7.67795
▁ਵਿਸ਼ੇਸ਼	-7.69339
▁ਹੁਣ	-7.69501
▁ਵਾਲਾ	-7.6999
▁ਕੀ	-7.70177
▁ਦੇਣ	-7.70734
▁ਰਾਸ਼ਟਰੀ	-7.71165
ਕ	-7.71278
▁ਵਾਲੀ	-7.71438
▁ਕੰਪਨੀ	-7.72322
▁ਆਪਣਾ	-7.72427
▁ਪੇਸ਼	-7.72438
▁ਸ਼ੁਰੂਆਤ	-7.72455
।""	-7.73783
ਏ	-7.74793
▁ਤੇ	-7.74848
ਨ੍ਹਾਂ	-7.75234
▁ਸਕਦੇ	-7.75977
▁ਅਮਰੀਕੀ	-7.76126
▁2	-7.76782
▁ਕੋਲ	-7.77409
▁ਆਪ	-7.77929
▁ਇਤਿਹਾਸ	-7.78737
▁ਬਾਹਰ	-7.78997
▁ਜਾਂਦੇ	-7.79019
▁ਜੀਵਨ	-7.79135
▁ਅਨੁਸਾਰ	-7.79246
▁ਮੈਨੂੰ	-7.80279
▁ਸਮੂਹ	-7.80307
▁ਵਧੇਰੇ	-7.80581
▁ਮੈਂਬਰ	-7.8068
▁ਹਰ	-7.81507
▁ਦਹਾਕੇ	-7.81836
▁ਵੱਡੇ	-7.82693
▁ਚਾਰ	-7.83116
▁ਐੱਨ	-7.83433
▁ਤੁਸੀਂ	-7.83485
▁ਹੁੰਦੀ	-7.83742
▁ਦੱਖਣੀ	-7.83864
▁ਓ	-7.84056
▁ਪੂਰੀ	-7.84065
▁ਅੰਤ	-7.84245
ਿੰਗ	-7.84388
▁ਤਿਆਰ	-7.85133
▁ਦਿਨ	-7.85384
▁ਅਧਿਕਾਰ	-7.86059
▁ਦੇਸ਼	-7.86206
ਡ	-7.8624
▁ਬਣਾਉਣ	-7.86423
▁ਉਮਰ	-7.86703
▁ਵਿਸ਼ਵ	-7.86827
▁ਸੰਗੀਤ	-7.87101
ਵੱਖ	-7.873
▁ਕਾਨੂੰਨ	-7.879
▁ਕਰਦੀ	-7.88162
▁ਸਾਡੇ	-7.88368
▁ਸਥਿਤ	-7.88715
▁ਸਾਲਾਂ	-7.88731
▁ਖੇਡ	-7.89247
.)	-7.8926
▁ਕਰਕੇ	-7.89412
▁ਰਹੀ	-7.89483
▁ਵਿਅਕਤੀ	-7.89774
▁ਗਈਆਂ	-7.90297
▁3	-7.90682
▁ਹਿੱਸੇ	-7.90725
ਪ੍ਰਦਾਨ	-7.91215
▁ਅੰਦਰ	-7.9161
▁ਮਾਰਚ	-7.91728
▁ਆ	-7.91997
▁ਪਹਿਲਾ	-7.92174
▁ਪਿਤਾ	-7.92988
▁ਛੱਡ	-7.9321
▁ਲੀਗ	-7.9326
▁ਦਿੰਦਾ	-7.93533
▁ਅਸਲ	-7.93629
▁ਮਹੱਤਵਪੂਰਨ	-7.94027
▁ਪਰਿਵਾਰ	-7.94352
▁ਚਾਹੀਦਾ	-7.94854
▁ਵਿਖੇ	-7.95006
▁ਨਵੇਂ	-7.95406
▁ਉੱਤਰੀ	-7.95546
▁ਬਿਨਾਂ	-7.95755
▁ਕੋਸ਼ਿਸ਼	-7.95987
▁ਨਿਰਮਾਣ	-7.96407
ਟ	-7.96886
ਵੀਂ	-7.97471
▁ਕੈਰੀਅਰ	-7.97815
▁ਖਤਮ	-7.981
▁ਸਰਕਾਰ	-7.99059
▁ਖੋਜ	-7.99706
▁ਪ੍ਰਮੁੱਖ	-8.00383
▁ਸਥਿਤੀ	-8.00493
▁ਮੂਲ	-8.00674
▁ਵਿਕਾਸ	-8.00794
▁ਜੂਨ	-8.00926
▁ਚਰਚ	-8.0093
▁ਜ਼ਿਆਦਾਤਰ	-8.01137
▁ਲੋਕ	-8.01534
▁ਜਨਵਰੀ	-8.01866
▁ਸਹਾਇਤਾ	-8.01986
▁ਅਮਰੀਕਾ	-8.02526
▁ਮੰਨਿਆ	-8.02802
),	-8.02981
▁ਰਿਕਾਰਡ	-8.03246
▁ਕਲੱਬ	-8.03591
▁ਔਰਤਾਂ	-8.03745
▁ਨੇਡ਼ੇ	-8.03819
▁ਉੱਤਰ	-8.04039
ਨਾਲ	-8.0409
▁ਜਹਾਜ਼	-8.04255
▁ਦੁਬਾਰਾ	-8.04461
▁ਸਥਾਨਕ	-8.05171
▁ਅੰਤਰਰਾਸ਼ਟਰੀ	-8.0544
▁ਸਤੰਬਰ	-8.05772
▁ਗੱਲ	-8.05926
▁ਨਦੀ	-8.05977
▁10	-8.06033
▁ਇਲਾਵਾ	-8.06099
ਐਸ	-8.06316
ਈ	-8.06886
▁ਅਕਤੂਬਰ	-8.07091
ਿਆਂ	-8.07221
▁ਮਈ	-8.07287
▁ਦੱਖਣ	-8.08053
▁ਜਾਣਿਆ	-8.08156
▁ਪੈਦਾ	-8.08161
▁ਲਾਗੂ	-8.08387
▁ਰਾਹੀਂ	-8.08421
▁ਯੋਗ	-8.09116
▁4	-8.09319
▁ਕਾਲਜ	-8.09323
▁ਚੋਣ	-8.09332
▁ਦੋਵਾਂ	-8.09362
▁ਐੱਲ	-8.09413
▁ਸਿੱਖਿਆ	-8.0956
▁5	-8.09816
▁ਦਸੰਬਰ	-8.09922
▁ਪੱਛਮੀ	-8.10511
▁ਸਬੰਧਤ	-8.106
▁ਜੁਲਾਈ	-8.1094
▁ਪਹੁੰਚ	-8.121
▁ਸਟੇਸ਼ਨ	-8.1267
▁ਆਬਾਦੀ	-8.12935
▁ਪ੍ਰਭਾਵ	-8.12965
▁ਛੋਟੇ	-8.13361
▁ਸਕਦੀ	-8.13611
▁ਲਡ਼ੀ	-8.13709
▁ਸਾਰੀਆਂ	-8.13767
▁ਜਨਮ	-8.13951
▁ਜ਼ਰੂਰਤ	-8.13993
▁ਐਲ	-8.14337
▁ਅਗਸਤ	-8.14391
▁ਗੀਤ	-8.14671
▁ਹੇਠਾਂ	-8.15109
▁ਨਤੀਜੇ	-8.15386
▁ਉਪ	-8.15425
▁ਸਾਬਕਾ	-8.16307
▁ਬਦਲ	-8.16367
▁ਪਿੰਡ	-8.16428
▁ਸਦੀ	-8.1651
▁ਪ੍ਰੋਗਰਾਮ	-8.16953
▁ਅਪ੍ਰੈਲ	-8.17009
ਡੀ	-8.17015
▁ਨਵੰਬਰ	-8.17195
▁ਕੀਤੀਆਂ	-8.17359
▁ਐਲਬਮ	-8.17628
▁ਅਕਸਰ	-8.17788
ਦਾ	-8.18009
▁ਆਦਮੀ	-8.18532
ਤ	-8.18595
▁ਲੈਣ	-8.18644
▁ਪਾਸੇ	-8.18705
▁ਪ੍ਰਦਰਸ਼ਨ	-8.18938
▁_	-8.19015
▁ਪ੍ਰਤੀਸ਼ਤ	-8.19235
▁ਐਸ	-8.19329
▁ਵੱਡਾ	-8.19365
▁ਪੂਰਾ	-8.1946
▁12	-8.19521
▁ਪੱਧਰ	-8.19574
▁ਗੈਰ	-8.19899
▁ਕਦੇ	-8.2011
?	-8.20332
▁ਗਿਣਤੀ	-8.20447
▁ਪੰਜ	-8.20558
▁ਜਨਤਕ	-8.20599
▁ਪਾਰਟੀ	-8.20618
▁ਹੇਠ	-8.20854
▁ਹੈਃ	-8.21056
▁ਮੇਰੇ	-8.21795
▁ਬੰਦ	-8.21865
▁ਕਰੋ	-8.21958
ਬੀ	-8.22667
▁ਸਕੇ	-8.23091
▁ਦਿੱਤੇ	-8.23161
▁ਫਰਵਰੀ	-8.23271
▁ਮੈਚ	-8.23518
▁ਸਥਾਪਨਾ	-8.23571
▁ਅਧਾਰ	-8.23995
▁20	-8.2408
ਇੱਕ	-8.24408
ਦੇ	-8.2462
▁ਹਾਲ	-8.24696
▁ਦੂਰ	-8.24836
▁ਨਿਰਧਾਰਤ	-8.2486
▁ਵਿਗਿਆਨ	-8.25264
▁ਆਖਰੀ	-8.25371
▁ਤਹਿਤ	-8.25559
▁ਸ਼ੁਰੂਆਤੀ	-8.25566
▁ਅੱਗੇ	-8.25874
▁ਵਿਆਹ	-8.26066
▁6	-8.26149
▁ਇੱਥੇ	-8.26264
▁ਨਾਲੋਂ	-8.26439
▁ਹਰੇਕ	-8.26463
▁ਪ੍ਰਤੀ	-8.26649
▁ਹਵਾਈ	-8.26712
▁ਦੋਵੇਂ	-8.26764
▁ਦਿਖਾਈ	-8.27144
ਬ	-8.27739
▁ਪ੍ਰਕਾਸ਼ਿਤ	-8.27814
▁ਜਿੱਤ	-8.27831
▁ਪਾਣੀ	-8.28054
▁ਵੱਡੀ	-8.28157
▁15	-8.28519
▁ਸਮਰਥਨ	-8.28706
▁ਪ੍ਰਸਿੱਧ	-8.28902
▁ਸਾਨੂੰ	-8.28998
▁ਨਿਯੁਕਤ	-8.2927
▁ਐਲਾਨ	-8.29566
▁ਅਜਿਹ	-8.296
▁ਖੇਤਰਾਂ	-8.29688
▁ਆਗਿਆ	-8.29938
▁18	-8.30359
▁ਫੌਜ	-8.3044
▁ਡਬਲਯੂ	-8.3062
▁ਕਾਫ਼ੀ	-8.30764
▁ਲਾਈਨ	-8.3083
▁ਕੇਂਦਰ	-8.30933
▁ਉੱਥੇ	-8.30987
▁ਪੁੱਤਰ	-8.30989
▁ਮੁਡ਼	-8.31023
▁7	-8.31394
▁8	-8.31647
▁ਨਿਭਾਈ	-8.32373
▁ਦੱਸਿਆ	-8.32405
▁ਸਥਾਪਤ	-8.32619
▁ਪਤਾ	-8.329
▁ਉੱਚ	-8.32936
▁ਉਦੇਸ਼	-8.33983
ਰੀ	-8.34466
▁ਸ਼ੋਅ	-8.34876
▁ਅਜੇ	-8.3511
▁9	-8.35116
▁ਚੈਂਪੀਅਨਸ਼ਿਪ	-8.35166
▁ਆਉਣ	-8.35259
ਤਾ	-8.35851
▁ਪੁਰਸਕਾਰ	-8.36026
▁ਟਾਪੂ	-8.3634
▁ਐਕਟ	-8.36385
▁ਅਦਾਲਤ	-8.36441
▁ਭੂਮਿਕਾ	-8.36616
▁ਯਾਤਰਾ	-8.37026
▁ਕੁੱਲ	-8.37033
▁ਲਡ਼ਾਈ	-8.3726
▁ਡਿਜ਼ਾਈਨ	-8.37415
▁ਆਪਣੀਆਂ	-8.37523
▁ਸੈਨਾ	-8.37532
▁ਦੇਖਿਆ	-8.37708
▁ਸੇਂਟ	-8.38238
▁ਰਾਸ਼ਟਰਪਤੀ	-8.38289
▁ਵੋਟ	-8.38437
▁ਰੱਖਣ	-8.38514
▁ਜਾਵੇਗਾ	-8.39022
▁ਫੁੱਟਬਾਲ	-8.39052
▁ਬਣਾਈ	-8.39092
▁ਸਮਾਂ	-8.39226
ਿਕ	-8.39606
▁(""	-8.39607
▁ਦਿੰਦੇ	-8.39619
▁ਹੋਵੇਗਾ	-8.39687
ਓ	-8.39767
▁ਪਾਇਆ	-8.39977
▁ਸਮੁੰਦਰੀ	-8.40374
▁ਜ਼ਮੀਨ	-8.40567
▁ਸੁਰੱਖਿਆ	-8.40888
▁ਬੈਂਡ	-8.41316
▁ਫੈਸਲਾ	-8.41787
▁ਅਰਥ	-8.41966
▁ਧਿਆਨ	-8.42334
▁ਬ੍ਰਿਟਿਸ਼	-8.42357
ਲੇ	-8.42549
▁ਸਿਹਤ	-8.42827
▁ਸ਼ਬਦ	-8.43196
▁ਅਲ	-8.43307
▁16	-8.4354
▁ਪ੍ਰਣਾਲੀ	-8.43729
▁ਪੂਰਬੀ	-8.44208
▁ਰਾਤ	-8.44557
▁ਮਾਰ	-8.44567
▁ਕਾਊਂਟੀ	-8.44676
▁ਬੱਚਿਆਂ	-8.4475
▁2010	-8.44914
▁ਫਾਰਮੂਲਾ	-8.45004
▁ਲੰਬੇ	-8.45264
▁ਡਾਲਰ	-8.45568
▁ਰੰਗ	-8.45843
▁13	-8.46082
▁ਅਗਲੇ	-8.46263
"")	-8.47006
▁ਜਗ੍ਹਾ	-8.47213
▁ਉਸੇ	-8.47347
▁ਜਨਰਲ	-8.47552
▁ਵਿਆਪਕ	-8.47742
▁ਮੌਜੂਦਾ	-8.4787
ਵੇਂ	-8.4795
▁ਅਗਵਾਈ	-8.48051
▁ਪਿਛਲੇ	-8.48132
)।	-8.48466
▁ਚੋਣਾਂ	-8.48616
▁ਪਿੱਛੇ	-8.48866
▁11	-8.49389
▁ਪਾਰਕ	-8.49685
▁ਉਦੋਂ	-8.49882
ਨਾ	-8.50127
▁ਯੋਜਨਾ	-8.50319
ਲੀ	-8.50835
▁ਨਿਊਯਾਰਕ	-8.50842
▁ਨੁਕਸਾਨ	-8.50942
ਦ	-8.51037
ਟੀ	-8.51258
▁ਨਵੀਂ	-8.51359
▁ਅਧਿਐਨ	-8.52276
▁ਕੌਂਸਲ	-8.52466
▁ਸ਼ਕਤੀ	-8.52584
▁ਸ਼ਾਨਦਾਰ	-8.5259
▁ਤੁਰੰਤ	-8.52685
▁ਡਿਵੀਜ਼ਨ	-8.52841
▁ਹਾਰ	-8.53034
▁ਪੂਰੇ	-8.53443
▁ਜਾਣਾ	-8.53481
▁ਵਾਲੀਆਂ	-8.53481
▁ਸੂਚੀ	-8.53675
▁ਐਂਡ	-8.53746
▁ਜਵਾਬ	-8.53756
▁14	-8.54095
▁ਵਿਚਾਰ	-8.54221
▁ਅੰਗਰੇਜ਼ੀ	-8.54272
▁ਨਿੱਜੀ	-8.54462
!	-8.54679
▁ਲਿਖਿਆ	-8.54702
▁ਹਾਈ	-8.54725
▁ਤੁਹਾਨੂੰ	-8.55103
▁ਦਿਨਾਂ	-8.55214
▁ਚੰਗੀ	-8.5545
▁ਕੁੱਝ	-8.55594
▁ਜ਼ਿਆਦਾ	-8.55704
▁ਛੇ	-8.55756
▁ਜਾਂਚ	-8.56212
ਿਆ	-8.56349
▁ਕਲਾ	-8.56353
▁ਹੱਥ	-8.56428
▁ਜ਼ਿਲ੍ਹੇ	-8.56567
ਅ	-8.56707
▁ਐਨ	-8.57181
▁ਇਮਾਰਤ	-8.57405
ਪ	-8.57451
▁ਹਨਃ	-8.5764
▁ਉਤਪਾਦਨ	-8.5787
▁ਧਰਮ	-8.57932
▁ਉੱਪਰ	-8.58063
▁ਜਰਮਨ	-8.58275
▁ਅਖੀਰ	-8.58393
▁2012	-8.58421
▁ਪਾਸ	-8.58474
▁19	-8.58559
▁2011	-8.58587
▁ਮਾਮਲੇ	-8.58681
▁ਭਾਸ਼ਾ	-8.58729
▁ਵਿਭਾਗ	-8.59059
▁ਅਧੀਨ	-8.59258
▁ਦੂਜਾ	-8.59362
▁2008	-8.59438
▁ਪ੍ਰਧਾਨ	-8.59479
▁ਬਜਾਏ	-8.59548
▁ਘਰੇਲੂ	-8.5984
▁2016	-8.59925
▁ਲੰਡਨ	-8.59938
▁ਸਮਾਜਿਕ	-8.60069
▁2017	-8.60097
▁ਦਰਸਾਇਆ	-8.60276
▁ਮੈਂਬਰਾਂ	-8.60371
▁30	-8.6043
▁""""	-8.60688
▁ਕਿਸਮ	-8.60835
▁ਜੌਨ	-8.61172
▁ਪਿਆਰ	-8.61811
▁ਦਾਖਲ	-8.61852
▁ਸਿਰਫ਼	-8.61856
▁2015	-8.61988
▁ਰਹਿਣ	-8.62106
▁ਖਿਡਾਰੀ	-8.62414
▁ਮੀਲ	-8.6252
▁ਅਜਿਹੇ	-8.62651
▁ਇਤਿਹਾਸਕ	-8.62781
▁ਜਿੱਤਿਆ	-8.62893
ਨੀ	-8.62908
▁2018	-8.62925
▁2014	-8.63005
▁ਟੈਲੀਵਿਜ਼ਨ	-8.63031
▁ਨਿਊ	-8.63164
▁ਹੋਣਾ	-8.63237
▁ਸੁਰੱਖਿਅਤ	-8.6341
▁2019	-8.63712
▁ਆਇਆ	-8.64226
▁ਸਿਖਲਾਈ	-8.6423
▁ਵਿਕਸਤ	-8.64378
ਕੀ	-8.64537
▁17	-8.6488
▁ਪ੍ਰੋਜੈਕਟ	-8.64957
▁ਸੰਸਕਰਣ	-8.6517
ਜੀ	-8.65185
▁2020	-8.6524
▁ਐਚ	-8.65351
ਜ	-8.65361
▁ਸਨਮਾਨ	-8.65825
▁ਆਵਾਜ਼	-8.65882
▁ਅੰਕ	-8.65899
▁ਫੌਜੀ	-8.66065
▁2009	-8.66071
▁2013	-8.66091
▁ਬਾਕੀ	-8.66311
▁ਬੱਚੇ	-8.66393
ਵੀ	-8.66547
▁ਢੰਗ	-8.6661
▁ਪਿਆ	-8.66645
▁ਅਧਾਰਤ	-8.6763
ੀਆਂ	-8.67673
▁ਫਰਾਂਸ	-8.67918
▁ਦੇਸ਼ਾਂ	-8.67962
▁ਆਯੋਜਿਤ	-8.68104
▁ਸਿਰਲੇਖ	-8.68197
▁ਗੋਲ	-8.68397
▁ਸੰਘੀ	-8.68517
▁ਮਜ਼ਬੂਤ	-8.68563
▁ਸਮਾਨ	-8.68806
▁ਮੰਤਰੀ	-8.689
▁ਆਸਟ੍ਰੇਲੀਆ	-8.68991
▁25	-8.69095
▁ਸਮੇਤ	-8.69133
▁ਮਹਾਨ	-8.69202
▁ਜਾਣਕਾਰੀ	-8.693
▁ਇੱਕੋ	-8.69305
▁2007	-8.69312
▁ਪ੍ਰਕਿਰਿਆ	-8.69441
▁ਭਾਰਤੀ	-8.69588
ਮੈਨ	-8.69733
▁ਔਰਤ	-8.69998
ਇਸ	-8.70021
▁ਮੌਜੂਦ	-8.70023
▁ਸਿਰ	-8.70076
▁ਜਲ	-8.70377
▁ਮਿਲਿਆ	-8.70449
▁ਵਪਾਰਕ	-8.70628
▁ਮਜਬੂਰ	-8.70667
▁ਮੱਧ	-8.70674
▁ਭਰਾ	-8.7068
▁ਖੇਡਿਆ	-8.70948
▁ਵਿਰੋਧ	-8.7115
▁ਉਮੀਦ	-8.71351
▁ਐਮ	-8.71468
ਅਤੇ	-8.71561
▁ਕੱਪ	-8.71669
ਵਾਂ	-8.71767
▁ਔਸਤ	-8.71969
▁ਉਲਟ	-8.72258
▁ਥੀਏਟਰ	-8.72303
▁ਲਾ	-8.72358
▁ਪਾਰ	-8.72382
▁ਕਾਂਗਰਸ	-8.72391
▁ਸ਼ਾਇਦ	-8.72416
▁ਸਿੰਗਲ	-8.72477
▁ਹਮਲਾ	-8.72539
▁ਜਲਦੀ	-8.72569
▁ਪੇਸ਼ੇਵਰ	-8.72692
▁ਵਰਗ	-8.72863
▁ਮਾਮਲਿਆਂ	-8.72958
▁ਰਹਿੰਦੇ	-8.73136
▁ਵਰਗੇ	-8.73324
▁ਅੱਗ	-8.73536
ਜਨਮ	-8.73619
▁ਵੰਡ	-8.73656
ਪੀ	-8.73727
▁ਅਧਿਕਾਰਤ	-8.73796
▁ਦੂਜੀ	-8.73971
ਗ	-8.74326
▁ਸਪੱਸ਼ਟ	-8.74812
ਕੋ	-8.74902
▁ਨੰਬਰ	-8.75285
▁ਇਕੱਠੇ	-8.75347
▁ਅਜਿਹੀ	-8.75371
▁ਭਰ	-8.7547
▁ਨਵਾਂ	-8.75624
▁ਮਾਲਕ	-8.7564
▁ਦੁਨੀਆ	-8.75926
▁ਸੰਗਠਨ	-8.76048
▁ਇੰਨ	-8.7671
▁ਸਬੰਧ	-8.76874
▁ਲੇਖਕ	-8.76907
ਆ	-8.77149
▁ਲਗਾਇਆ	-8.77194
▁ਖੇਡਾਂ	-8.77225
▁ਉਦਾਹਰਣ	-8.77479
▁ਅਧਿਕਾਰੀ	-8.77486
▁ਉਪਲਬਧ	-8.77801
▁ਪੁਰਾਣੇ	-8.77829
▁ਵਿਰੋਧੀ	-8.77847
▁ਵਧੀਆ	-8.77984
ਲਾ	-8.78213
▁ਪਛਾਣ	-8.78319
▁ਅੰਦਰੂਨੀ	-8.78439
▁ਸ਼ਾਹੀ	-8.78478
▁ਸਵੀਕਾਰ	-8.78483
▁ਝੀਲ	-8.78566
▁ਛੋਟਾ	-8.78728
▁ਕਾਰਵਾਈ	-8.78861
▁ਬੋਰਡ	-8.78923
▁ਮੁਕਾਬਲੇ	-8.78945
▁ਮਹਿਲਾ	-8.78959
▁ਚੁਣਿਆ	-8.79028
▁ਆਦੇਸ਼	-8.79184
▁ਕਾਨੂੰਨੀ	-8.79215
▁ਫ੍ਰੈਂਚ	-8.79384
▁2006	-8.79589
▁24	-8.80004
▁ਧਾਰਾ	-8.80158
▁ਇੰਗਲੈਂਡ	-8.80287
▁ਕਹਾਣੀ	-8.8035
▁ਜਹਾਜ਼ਾਂ	-8.80352
▁ਸੰਖੇਪ	-8.80492
▁ਘੱਟੋ	-8.80553
▁ਹੋਵੇ	-8.80627
ਿਤ	-8.8065
▁ਦਫ਼ਤਰ	-8.80902
▁ਦ	-8.81095
▁ਸਰ	-8.81096
▁ਉਤਸ਼ਾਹਿਤ	-8.81103
▁ਸਹੀ	-8.81192
▁ਪਤਨੀ	-8.81207
▁ਰਿਪੋਰਟ	-8.81349
▁ਇਨਕਾਰ	-8.81712
▁ਕਾਰ	-8.82121
▁ਹਾਊਸ	-8.82251
▁ਸਾਹਮਣੇ	-8.82457
▁ਤਬਦੀਲ	-8.82542
▁ਵਿਦਿਆਰਥੀ	-8.82729
ਸ਼	-8.83123
▁ਨੁਮਾਇੰਦਗੀ	-8.83173
▁ਅੱਜ	-8.83324
▁ਸਰੀਰ	-8.83588
▁ਸਮੱਗਰੀ	-8.83643
▁ਕਮਿਸ਼ਨ	-8.83682
▁ਸਹਾਇਕ	-8.83732
▁2000	-8.84028
▁ਮੀਡੀਆ	-8.84028
▁ਯੂਰਪੀਅਨ	-8.84124
▁ਸਾਹਮਣਾ	-8.84183
▁ਵਰਣਨ	-8.84296
▁ਸੇਵਾਵਾਂ	-8.84525
▁ਕਰੇਗਾ	-8.84574
▁ਲਾਲ	-8.84623
▁ਨੌਜਵਾਨ	-8.84654
▁2021	-8.84777
ਯੂ	-8.84796
▁ਤੁਹਾਡੇ	-8.84878
▁ਵਾਤਾਵਰਣ	-8.84902
ਸਨ	-8.85127
▁ਮਿਲ	-8.85281
▁ਯੂਨੀਅਨ	-8.85317
▁ਦਾਅਵਾ	-8.85585
▁ਪ੍ਰਦਰਸ਼ਿਤ	-8.85682
▁ਸਿਖਰ	-8.85687
▁ਆਕਾਰ	-8.85751
▁ਪਾਉਣ	-8.85893
▁ਆਲੇ	-8.86168
▁ਹੁੰਦੀਆਂ	-8.86188
▁ਸੁਤੰਤਰ	-8.86252
▁ਵਿਲੀਅਮ	-8.86528
▁ਦਰਸਾਉਂਦਾ	-8.8653
▁ਸੁਧਾਰ	-8.86741
▁ਵਰਤਿਆ	-8.86818
▁ਵਿਅਕਤੀਆਂ	-8.87039
▁21	-8.87082
▁ਦਰਮਿਆਨ	-8.87102
▁ਪੱਛਮ	-8.8712
▁ਬੈਂਕ	-8.87182
▁ਨਾਗਰਿਕ	-8.87271
▁ਸ	-8.87417
▁ਪਡ਼੍ਹਾਈ	-8.87582
▁the	-8.87716
ਆਈ	-8.87738
▁ਟੀਮਾਂ	-8.87748
ਇਹ	-8.87847
▁ਚਾਹੁੰਦਾ	-8.87869
▁ਸੁਪਰ	-8.88173
▁ਮਾਨਤਾ	-8.88191
▁ਐਸੋਸੀਏਸ਼ਨ	-8.8844
▁ਛੋਟੀ	-8.88519
▁ਪ੍ਰਬੰਧਨ	-8.88537
▁ਪੂਰਬ	-8.88705
▁ਮਾਡਲ	-8.88734
▁ਚਲੇ	-8.88745
ਕਾ	-8.88857
▁ਰੇਲਵੇ	-8.89048
▁ਸੀਮਤ	-8.89141
▁ਅਧਿਕਾਰਾਂ	-8.89225
▁ਮਨੁੱਖੀ	-8.89248
▁ਭੁਗਤਾਨ	-8.89334
▁ਬਾਵਜੂਦ	-8.89716
▁ਹਿੱਸਿਆਂ	-8.89722
▁ਕਿਵੇਂ	-8.89773
▁ਲਿਖੇ	-8.89775
▁ਕੇਂਦਰੀ	-8.89804
▁ਦੌਡ਼	-8.90066
▁ਮਾਂ	-8.90101
ਮੈਂ	-8.9024
▁ਅੰਤਰ	-8.90321
▁ਰੇਡੀਓ	-8.90328
▁ਵਿਦਿਆਰਥੀਆਂ	-8.90394
▁ਘਾਟ	-8.90738
▁ਮੁਹਿੰਮ	-8.90992
ਰਾ	-8.91036
▁=	-8.91235
▁ਮਦਦ	-8.91496
▁ਸ਼ੈਲੀ	-8.91501
▁ਟਰੈਕ	-8.92025
▁ਮੁਕਾਬਲਾ	-8.92299
▁ਮੀਟਰ	-8.92564
▁ਕੈਲੀਫੋਰਨੀਆ	-8.92621
▁ਵਿਸ਼ਵਾਸ	-8.9277
▁ਸੰਭਵ	-8.93031
▁ਯਾਦ	-8.93087
▁ਪੱਥਰ	-8.93153
▁2005	-8.93222
▁ਤਰੀਕੇ	-8.93433
▁ਰੱਦ	-8.93516
ਦੀ	-8.93562
▁ਖਾਸ	-8.93832
▁ਭੋਜਨ	-8.93835
▁ਪੁਲਿਸ	-8.93903
▁ਸੱਤ	-8.93989
ਟਨ	-8.94009
▁ਦਸਤਖਤ	-8.94033
▁ਫਾਈਨਲ	-8.94352
▁ਕਿਤਾਬ	-8.94451
▁ਅਸਫਲ	-8.94515
▁ਨਾਮਜ਼ਦ	-8.9456
▁ਫੌਜਾਂ	-8.9462
▁ਮਿਲੀ	-8.94657
▁ਜਾਰਜ	-8.94835
▁ਲੱਕਡ਼	-8.95069
▁ਸਾਥੀ	-8.95406
▁ਜ਼ਰੂਰੀ	-8.95502
▁ਵੇਲੇ	-8.95592
ਥ	-8.95808
▁ਹਮਲੇ	-8.96727
▁100	-8.96761
▁22	-8.96763
ਚ	-8.96794
▁ਸੰਸਥਾ	-8.96824
▁ਮਹਿਸੂਸ	-8.96938
▁ਹਮੇਸ਼ਾ	-8.96946
▁ਕਾਲੇ	-8.96989
▁ਗਰਮੀਆਂ	-8.97088
▁ਮੰਗ	-8.97274
▁ਸਡ਼ਕ	-8.97384
ਮਾ	-8.97651
▁ਨੋਟ	-8.97685
▁ਸ੍ਰੀਮਾਨ	-8.97704
▁ਵਿੱਤੀ	-8.97741
▁ਦੁਆਲੇ	-8.97918
▁ਚੋਟੀ	-8.9825
▁ਅਧਿਕਾਰੀਆਂ	-8.98253
ਹ	-8.98295
▁ਅ	-8.98329
ਫ	-8.98502
▁ਕੋਚ	-8.98598
▁ਬਣਾ	-8.98777
▁ਬਿੰਦੂ	-8.98925
▁ਕਮੇਟੀ	-8.99011
▁ਪਡ਼ਾਅ	-8.99076
▁ਟੂਰਨਾਮੈਂਟ	-8.99181
▁ਡਿਗਰੀ	-8.99212
▁ਸਰੋਤ	-8.99243
▁ਸ਼ਬਦਾਵਲੀ	-8.99497
▁ਡਰ	-8.99599
▁ਆਏ	-8.99624
▁ਬਣਾਏ	-8.99634
▁ਆਧੁਨਿਕ	-8.99669
▁ਬਰਾਬਰ	-8.99691
▁ਸੈਨ	-8.99951
▁ਸਿਟੀ	-9.00016
▁ਹਾਸ	-9.00245
▁ਨੈਸ਼ਨਲ	-9.00287
ਿਸ	-9.00316
▁ਕਬਜ਼ਾ	-9.00367
▁ਕਿਨਾਰੇ	-9.00383
▁ਸਾਡੀ	-9.00403
▁ਹੋਵੇਗੀ	-9.00484
▁ਟੈਕਸ	-9.00596
▁ਰਾਸ਼ਟਰ	-9.0077
▁ਧੀ	-9.00992
▁ਬੇ	-9.01131
▁ਵਿਸਤਾਰ	-9.01133
▁ਚਿੱਟੇ	-9.01179
▁ਬਿੱਲ	-9.01239
2	-9.01492
▁ਹਵਾ	-9.0157
▁ਆਖਰਕਾਰ	-9.01587
▁ਸੰਗ੍ਰਹਿ	-9.01602
▁ਸਰਗਰਮ	-9.01712
ਵ	-9.01998
▁ਕਾਲ	-9.02072
▁ਸਹਿ	-9.02236
▁ਯੋਗਦਾਨ	-9.02243
▁ਸੰਕੇਤ	-9.02297
▁2022	-9.02465
▁ਵਾਧੂ	-9.02473
▁ਅਨੁਕੂਲ	-9.02616
▁ਵੀਡੀਓ	-9.02639
▁ਅਜਾਇਬ	-9.02689
▁[	-9.02909
▁ਜ਼ਿਲ੍ਹਾ	-9.02929
▁ਜਾਇਦਾਦ	-9.0293
▁ਵਾਸ਼ਿੰਗਟਨ	-9.03058
▁23	-9.03098
▁ਕਵਰ	-9.03323
▁ਸਵੈ	-9.03493
▁ਕੈਨੇਡਾ	-9.04176
▁ਸੰਭਾਵਨਾ	-9.04261
▁ਬਚਾਅ	-9.04278
▁ਰਿਲੀਜ਼	-9.04522
▁ਗਰੁੱਪ	-9.04642
▁ਜੇਤੂ	-9.04664
▁I	-9.04678
▁ਰੋਡ	-9.05144
▁ਈਸਾਈ	-9.05358
ਿਨ	-9.05419
▁ਜੇਮਜ਼	-9.05548
▁ਸ਼ਾਸਨ	-9.05553
ੂ	-9.05676
▁ਸਕੱਤਰ	-9.05763
▁ਦੌਰ	-9.05831
▁ਜੰਗਲ	-9.0602
▁ਚੀਜ਼ਾਂ	-9.06272
▁ਪਹਾਡ਼ੀ	-9.06291
▁ਸੰਬੰਧ	-9.06304
ਉਸ	-9.06412
▁ਤੇਜ਼ੀ	-9.06486
▁ਸੰਚਾਲਨ	-9.06564
▁ਸਜ਼ਾ	-9.06678
▁ਕੋਰਟ	-9.06874
▁ਕੁਦਰਤੀ	-9.0689
▁ਥਾਂ	-9.07045
▁ਕਿਲੋਮੀਟਰ	-9.07145
▁ਇਲਾਜ	-9.0719
▁26	-9.07263
▁ਪ੍ਰਬੰਧ	-9.07344
▁ਆਜ਼ਾਦੀ	-9.07347
▁ਦਸ	-9.07572
▁ਸਰਬੋਤਮ	-9.07646
▁ਪੇਸ਼ਕਸ਼	-9.07871
▁ਦੋਸ਼	-9.07876
▁28	-9.08126
▁ਦਿਲ	-9.08133
▁ਪੱਖ	-9.08398
▁ਮਹੀਨ	-9.08518
▁ਸਿਸਟਮ	-9.08649
ਵਾ	-9.08728
▁ਪਾਲਣਾ	-9.08934
▁ਸਟ੍ਰੀਟ	-9.09046
▁ਪ੍ਰੇਰਿਤ	-9.09052
▁ਰਵਾਇਤੀ	-9.09181
▁ਨੈੱਟਵਰਕ	-9.09349
ੀਅਨ	-9.09361
▁ਫੰਡ	-9.09519
▁ਇਸੇ	-9.09534
▁II	-9.09705
▁ਸਬੂਤ	-9.09746
▁ਸੋਧ	-9.09859
▁ਵਾਂਗ	-9.09913
▁2004	-9.10139
ਜੇ	-9.10153
ਕੇ	-9.10361
▁ਅਭਿਆਸ	-9.10386
▁ਜੌਹਨ	-9.10783
ਜੋ	-9.10787
ਪਰ	-9.11103
▁ਰੇਲ	-9.11156
▁ਅੱਠ	-9.11273
▁ਸਫਲ	-9.11355
▁ਪ੍ਰਭਾਵਿਤ	-9.11364
]	-9.11485
▁ਮਿੰਟ	-9.11496
▁ਕਾਰੋਬਾਰ	-9.11574
1	-9.11673
▁ਦਿੰਦੀ	-9.11839
ੀਆ	-9.11987
▁ਲਗਾਤਾਰ	-9.12057
▁ਮੈਰੀ	-9.12237
▁ਯੂਰਪ	-9.1231
▁ਮਿਸ਼ਨ	-9.12347
▁ਸ਼ਾਂਤੀ	-9.12624
▁ਯੁੱਗ	-9.12689
▁ਅੱਖਾਂ	-9.12842
▁ਸਮਾਜ	-9.12856
▁ਸਫਲਤਾ	-9.12881
▁ਸਥਾਨਾਂ	-9.12923
▁ਰਸਤੇ	-9.13068
▁ਭਾਰਤ	-9.1312
▁ਤਬਦੀਲੀ	-9.13164
▁1980	-9.13197
▁ਤੀਜੇ	-9.13287
▁ਮੁਸ਼ਕਲ	-9.13401
▁ਸੈਂਟਰ	-9.13419
▁ਰਾਜਨੀਤਿਕ	-9.13437
▁ਡਾਇਰੈਕਟਰ	-9.13613
▁ਇੰਨੀ	-9.13643
▁ਗੱਲਬਾਤ	-9.13671
▁ਰਾਜਾ	-9.13742
▁ਗੰਭੀਰ	-9.1377
▁ਬਲਕਿ	-9.13776
▁ਜੁਡ਼ੇ	-9.1383
▁ਅਹੁਦੇ	-9.13895
▁ਤੇਜ਼	-9.14158
ਟਰ	-9.14287
▁ਖੇਤਰੀ	-9.14499
▁ਜਿਊਰੀ	-9.14588
▁ਬਣਿਆ	-9.14618
ਜਾਂ	-9.14632
▁ਮਰਦਮਸ਼ੁਮਾਰੀ	-9.14651
▁50	-9.14744
▁ਸਰਕਾਰੀ	-9.14821
▁ਪ੍ਰਗਟ	-9.14904
▁ਪ੍ਰਭਾਵਸ਼ਾਲੀ	-9.15048
▁ਪ੍ਰਜਾਤੀ	-9.15112
▁1990	-9.15307
▁ਸਮੂਹਾਂ	-9.15329
s	-9.15404
▁ਉਲੰਘਣਾ	-9.15536
▁ਤੁਲਨਾ	-9.15551
5	-9.15659
▁ਕੱਪਡ਼ੇ	-9.1568
▁ਧਰਤੀ	-9.15688
▁ਬ	-9.15707
▁ਰਹਿੰਦਾ	-9.15821
▁ਪ੍ਰੋਫੈਸਰ	-9.16178
▁ਬਿਹਤਰ	-9.16184
▁ਐੱਚ	-9.16296
▁ਮੁਖੀ	-9.16438
▁ਕਾਇ	-9.16691
▁ਵਾਲਿਆਂ	-9.16706
▁ਬਣੇ	-9.16799
▁ਆਵਾਜਾਈ	-9.16819
▁ਮੈਡੀਕਲ	-9.1684
▁ਚਾਹੀਦੀ	-9.1699
▁ਜੂਨੀਅਰ	-9.17519
▁ਸਭਾ	-9.17727
▁ਪੁਸ਼ਟੀ	-9.17727
▁ਸਟੂਡੀਓ	-9.17758
▁ਸਰਹੱਦ	-9.17787
▁27	-9.17798
▁ਚੱਕਰ	-9.17805
▁ਲਗਾਉਣ	-9.17816
▁ਸਿੱਧੇ	-9.17867
▁ਬਾਹਰੀ	-9.1799
▁ਕਲਾਕਾਰ	-9.18059
▁ਫਿਲਮਾਂ	-9.18335
▁ਸੰਵਿਧਾਨ	-9.1847
▁ਰੱਖਦੇ	-9.18525
▁ਹੋਈਆਂ	-9.18581
▁ਮਾਲ	-9.18777
▁ਰੱਖਦਾ	-9.1892
▁ਹੱਲ	-9.18971
▁ਅਰੰਭ	-9.1942
▁ਵਿਸ਼ੇਸ਼ਤਾ	-9.19508
▁ਕਤਲ	-9.19637
▁ਵਪਾਰ	-9.19785
▁ਸਿਧਾਂਤ	-9.19786
▁ਸ਼ਿਕਾਰ	-9.19798
▁ਨਿਯੰਤਰਣ	-9.19833
▁ਫਰਾਂਸੀਸੀ	-9.20013
▁ਕਰਦੀਆਂ	-9.20048
▁ਕਮਾਂਡ	-9.20195
▁ਸਪੈਨਿਸ਼	-9.20255
▁29	-9.20354
▁ਪ੍ਰਸ਼ੰਸਾ	-9.2049
▁ਮਲਕੀਅਤ	-9.20506
▁ਹਵਾਲਾ	-9.20648
▁ਐਪੀਸੋਡ	-9.20689
▁ਮੁੱਲ	-9.20718
▁ਕਾਉਂਟੀ	-9.20808
▁ਅਕੈਡਮੀ	-9.20882
▁31	-9.20891
▁ਮੁਕੱਦਮਾ	-9.21026
▁ਫੈਸਲੇ	-9.21162
▁ਦੋਸਤ	-9.21191
▁ਕੈਥੋਲਿਕ	-9.21584
ਲੈਂਡ	-9.21682
▁ਹੌਲੀ	-9.21703
▁ਨਿਯਮ	-9.21722
▁ਲੁਈਸ	-9.21728
▁ਸਮੁੰਦਰ	-9.21765
▁ਧਾਰਮਿਕ	-9.21992
▁ਜਰਮਨੀ	-9.22121
▁ਸੀਨੀਅਰ	-9.22209
▁ਗਤੀਵਿਧੀਆਂ	-9.22265
▁ਪ੍ਰੋਗਰਾਮਾਂ	-9.22277
▁ਸੰਚਾਰ	-9.22315
:	-9.22344
▁ਵਧ	-9.22424
▁ਠੀਕ	-9.22445
▁ਲਾਭ	-9.22454
ਜਿਸ	-9.22511
ਰੋ	-9.22511
▁ਸੰਪਰਕ	-9.22649
▁2002	-9.22689
▁1970	-9.22745
▁ਕੋਰ	-9.22775
-19	-9.22892
▁ਚਾਹੁੰਦੇ	-9.22913
▁ਜ਼ਿਕਰ	-9.2305
▁ਜ਼ੋਰ	-9.23326
▁ਤੱਟ	-9.23416
▁ਉਮੀਦਵਾਰ	-9.23521
▁ਪਾ	-9.23617
▁2003	-9.23635
▁ਘਰਾਂ	-9.23704
▁ਚਲਾ	-9.23728
▁ਕਹਿੰਦੇ	-9.2388
▁ਮੇਰੀ	-9.24007
ਉਹ	-9.24172
ਡਾ	-9.2422
ਟੋ	-9.24289
▁ਭਾਵੇਂ	-9.2433
▁ਹਸਪਤਾਲ	-9.24383
▁ਪਲ	-9.24547
▁ਆਰਥਿਕ	-9.24621
ਪੱਛਮੀ	-9.24687
▁ਸਵਾਲ	-9.24721
▁ਦਰਜ	-9.24964
ਟਾ	-9.25003
▁ਰੱਖ	-9.25099
▁ਚੀਜ਼	-9.25217
▁ਪ੍ਰਜਾਤੀਆਂ	-9.25274
▁ਕਾਰਜਕਾਰੀ	-9.25299
▁ਪੁਨਰ	-9.25445
▁ਸੀਮਾ	-9.25494
ਣ	-9.25526
▁ਸਮੀਖਿਆ	-9.25683
▁ਗਠਨ	-9.25685
▁ਖੇਤੀਬਾਡ਼ੀ	-9.25705
ਐੱਨ	-9.25731
▁ਰੂਸੀ	-9.25829
▁ਪ੍ਰਸਾਰਿਤ	-9.25969
▁ਦੂਰੀ	-9.26174
▁ਸੁਝਾਅ	-9.2625
▁ਮੱਛੀ	-9.26319
▁ਗਵਰਨਰ	-9.26408
▁ਗਤੀ	-9.26477
ਕਸ	-9.26564
▁ਵਿਰਾਸਤ	-9.26677
▁ਗਲਤ	-9.26678
▁ਰਾਜਾਂ	-9.26829
▁ਪਿਛੋਕਡ਼	-9.27154
▁ਮਿਤੀ	-9.27398
▁ਹਫ਼ਤੇ	-9.27398
▁ਜਪਾਨ	-9.27401
▁ਤਰੱਕੀ	-9.27447
▁ਸੂਚੀਬੱਧ	-9.27545
▁ਡੇਵਿਡ	-9.27699
▁ਮੁਕੱਦਮੇ	-9.27757
▁ਭਾਰੀ	-9.27805
▁ਲਾਸ	-9.27937
▁ਵਿਦੇਸ਼ੀ	-9.27968
▁ਸੁਸਾਇਟੀ	-9.28026
▁()	-9.28066
▁ਦਿਲਚਸਪੀ	-9.28122
▁ਰੋਮਨ	-9.28185
▁ਅਫ਼ਰੀਕੀ	-9.28274
▁ਵਿਸ਼ਾਲ	-9.283
▁ਵਿਸ਼ੇਸ਼ਤਾਵਾਂ	-9.28414
▁ਛੱਡਣ	-9.28573
▁ਇਨ	-9.28605
▁ਕੈਨੇਡੀਅਨ	-9.28742
▁ਪ੍ਰਵੇਸ਼	-9.28839
▁ਵੱਖਰੇ	-9.28868
▁ਆਮਦਨ	-9.28884
▁ਪੁਲ	-9.29044
▁ਮਿਆਦ	-9.29142
▁ਸਮਾਰੋਹ	-9.29201
▁ਜਾਂਦੀਆਂ	-9.29252
▁ਇਮਾਰਤਾਂ	-9.2926
ਮੀ	-9.29326
?""	-9.29418
▁ਬਿਜਲੀ	-9.29596
▁ਚਿੱਤਰ	-9.29671
▁ਚਾਰਲਸ	-9.2972
▁ਰਾਜਨੀਤਕ	-9.29723
▁ਕੋਰਸ	-9.29868
▁ਸੱਭਿਆਚਾਰ	-9.29929
▁ਰੋਕਣ	-9.29986
▁ਮਿਲੀਅਨ	-9.30039
▁ਨਿਯਮਤ	-9.30181
▁ਭਾਈਚਾਰੇ	-9.30287
▁ਚੰਗਾ	-9.30328
▁ਜੀਨ	-9.30555
▁ਵੰਡਿਆ	-9.30615
▁ਭਾਸ਼ਣ	-9.30661
▁ਪਾਲਣ	-9.30872
▁ਵੱਖਰਾ	-9.30949
▁ਖੁਦ	-9.31039
▁ਭੈਣ	-9.31282
▁ਕਿਤਾਬਾਂ	-9.31339
▁ਮਿੱਟੀ	-9.31349
▁ਸਮਰੱਥਾ	-9.31389
▁ਲੱਖ	-9.31415
▁ਹੈਨਰੀ	-9.31652
▁ਜੱਜ	-9.31738
▁ਇੱਥੋਂ	-9.31788
▁ਸਹਿਯੋਗੀ	-9.31837
▁ਸਲਾਹਕਾਰ	-9.31961
▁ਉਦਯੋਗ	-9.32599
▁2001	-9.3262
▁ਗੁਆ	-9.32754
▁ਦੌਰਾ	-9.32755
▁ਜ਼ਿੰਮੇਵਾਰ	-9.32962
▁ਪਾਲ	-9.32975
।”	-9.33004
▁ਸਟਾਰ	-9.33037
▁ਵਧਾਉਣ	-9.33112
▁ਇਰੋਕੋਇਸ	-9.33125
▁ਦਰ	-9.33125
ਜਿਵੇਂ	-9.33193
▁ਖਿਤਾਬ	-9.33274
▁ਦਿਖਾਇਆ	-9.33274
▁ਲਿੰਗ	-9.33387
▁ਸੰਸਦ	-9.33442
▁ਮਹੀਨੇ	-9.3356
▁ਸੈੱਟ	-9.33649
▁ਦੇਣਾ	-9.33764
▁ਅੰਦੋਲਨ	-9.3384
▁ਵਰਤੇ	-9.33847
▁ਤੀਜੀ	-9.33898
▁ਸ਼ਬਦਾਂ	-9.33934
▁ਮੈਦਾਨ	-9.33998
▁ਮੈਗਜ਼ੀਨ	-9.34049
▁ਜਾਣੇ	-9.34177
▁ਗੇਮ	-9.34204
▁ਟੈਕਨੋਲੋਜੀ	-9.34435
▁ਭਾਗ	-9.34442
▁ਕੰਪਨੀਆਂ	-9.34446
▁ਰ	-9.34452
▁ਰੋਕ	-9.34512
▁ਯੂਨਾਈਟਿਡ	-9.34519
▁ਮੇਲ	-9.34608
▁ਟੈਸਟ	-9.34653
▁40	-9.34715
▁ਰਜਿਸਟਰ	-9.34766
▁ਪਵਿੱਤਰ	-9.34824
▁ਬਨਾਮ	-9.34831
▁ਦਰਜਾ	-9.34833
▁ਖਾਡ਼ੀ	-9.35055
▁ਸੈਨੇਟਰ	-9.3506
▁1960	-9.35061
▁ਇੱਛਾ	-9.35113
▁ਐਕਸ	-9.35123
▁ਜਿਨਸੀ	-9.3514
▁ਚੀਨ	-9.35295
!""	-9.35357
▁ਨਾਵਲ	-9.35365
▁ਸੌ	-9.35531
▁ਅਪਰਾਧ	-9.35541
▁ਪਹੁੰਚਣ	-9.35596
3	-9.35632
▁ਕਿਸ਼ਤੀ	-9.35695
▁ਫਡ਼	-9.35765
▁ਵਾਧਾ	-9.35886
▁ਚੁਣੇ	-9.35923
▁ਚੰਗੇ	-9.35927
▁ਇਕਾਈਆਂ	-9.35953
▁ਵਿਵਹਾਰ	-9.35954
▁ਪ੍ਰਸ਼ਾਸਨ	-9.36042
▁ਦ੍ਰਿਸ਼	-9.36144
▁ਆਦਮੀਆਂ	-9.36481
▁ਸਾਬਤ	-9.36674
▁ਨਿਰੰਤਰ	-9.36814
▁ਲੇਖ	-9.36911
▁ਕੋਡ	-9.36968
▁ਖੋਲ੍ਹਿਆ	-9.36983
▁ਵਰਤਮਾਨ	-9.37127
▁ਸੀਰੀਜ਼	-9.37185
▁ਬਦਲਿਆ	-9.37203
▁ਪ੍ਰਸਤਾਵ	-9.37217
▁ਜੇਲ੍ਹ	-9.37257
▁ਪੀਟਰ	-9.37271
▁ਘੰਟੇ	-9.37316
▁ਜਿਹੀ	-9.37455
▁ਹੇਠਲੇ	-9.37546
▁ਵੈਨ	-9.37712
▁ਕਲਾਸ	-9.37746
ੇਟ	-9.37746
▁ਮਰਦ	-9.37776
▁ਸਟੇਟ	-9.37878
▁ਕਿਸਮਾਂ	-9.37914
▁ਪੋਸਟ	-9.38042
▁ਮਿਲਾ	-9.38052
▁ਪ੍ਰਸਾਰਣ	-9.38097
▁ਵਿਕਰੀ	-9.38143
▁ਬੇਨਤੀ	-9.38327
▁ਸਥਿਤੀਆਂ	-9.38328
▁ਨਜ਼ਰ	-9.3836
▁ਭਵਿੱਖ	-9.38597
▁ਖੂਨ	-9.38598
▁ਜਾਣੀ	-9.38655
ਨੋ	-9.38679
▁ਪਾਈ	-9.38712
▁ਸਥਾਪਿਤ	-9.38747
▁ਅੰਤਿਮ	-9.38765
▁ਚੈਂਪੀਅਨ	-9.38814
▁ਕਮਿਊਨਿਟੀ	-9.38896
▁ਦੋਸ਼ੀ	-9.39161
▁to	-9.39238
ਦੁਆਲੇ	-9.39325
▁ਕਹਿੰਦਾ	-9.39375
▁ਦਲੀਲ	-9.39487
▁ਨਿਆਂ	-9.39749
▁ਲੀ	-9.39857
▁ਖਿਡਾਰੀਆਂ	-9.39884
▁ਬਣਨ	-9.40054
▁ਨੀਤੀ	-9.40116
▁ਜਾਵੇ	-9.40149
▁ਕਾਨਫਰੰਸ	-9.40178
ਨੇ	-9.40215
▁ਅਰਬ	-9.40333
▁ਗਣਰਾਜ	-9.40342
▁ਪ੍ਰਣਾਲੀਆਂ	-9.40569
▁ਪੱਤਰ	-9.40647
▁ਪਰਿਭਾਸ਼ਿਤ	-9.40674
i	-9.40676
▁1999	-9.40773
▁ਇੰਜਣ	-9.41
▁ਦੇਖਭਾਲ	-9.41001
▁ਲੰਬਾਈ	-9.41076
▁ਚਿਹਰੇ	-9.41172
▁ਅਣਜਾਣ	-9.41173
▁ਕਮਰੇ	-9.4118
ਲੋ	-9.41183
▁ਘਟਨਾ	-9.41319
▁ਪ੍ਰੀਮੀਅਰ	-9.41329
ੀਮ	-9.41336
▁ਰਹਿ	-9.41459
▁ਅਪੀਲ	-9.41581
▁(2)	-9.41775
ਰੇ	-9.418
▁ਹਟਾ	-9.41802
▁ਰੌਬਰਟ	-9.41851
▁ਫੀਲਡ	-9.41923
▁ਲੰਬੀ	-9.41943
▁ਨਿਗਰਾਨੀ	-9.41991
▁ਪਸੰਦ	-9.41996
▁ਖੇਡਣ	-9.42046
▁ਨਿਰਮਾਤਾ	-9.42164
▁ਭੇਜਿਆ	-9.42323
ਵਰ	-9.4236
ਗਾ	-9.42443
▁ਸੀਨੇਟ	-9.4253
▁ਹੱਦ	-9.4262
▁ਓਲੰਪਿਕ	-9.42646
▁ਕ੍ਰਮ	-9.42803
▁ਚੈਨਲ	-9.43013
ਆਰ	-9.43085
▁ਇਕਰਾਰਨਾਮੇ	-9.43157
▁ਵਿਲੱਖਣ	-9.43281
▁ਡਾ	-9.43404
▁ਵਿਅਕਤੀਗਤ	-9.43481
▁ਨਿਯਮਾਂ	-9.43582
▁ਸ਼ੱਕ	-9.43668
▁ਸਲਾਹ	-9.43809
▁ਟੈਕਸਾਸ	-9.43856
▁ਪਾਏ	-9.43864
▁ਮਾਤਰਾ	-9.43916
▁ਜਪਾਨੀ	-9.44189
▁ਮਿਲੇ	-9.44245
▁of	-9.44301
▁ਮੰਦਰ	-9.44314
▁ਕਪਤਾਨ	-9.44503
▁ਸਹਿਯੋਗ	-9.44675
▁ਸੱਦਾ	-9.44838
▁ਕੀਮਤ	-9.44839
▁ਮਾਰੇ	-9.44959
▁ਬਾਰ	-9.45023
ਇਨ	-9.45037
▁ਉੱਚੀ	-9.45074
▁ਸੁੰਦਰ	-9.45095
▁ਢਾਂਚੇ	-9.45176
▁ਮ	-9.45312
▁ਕੈਂਪ	-9.45319
▁ਦੇਖੋ	-9.45411
▁ਕਦਮ	-9.45532
▁ਸਮਝੌਤੇ	-9.45862
▁and	-9.45886
▁ਸਨਮਾਨਿਤ	-9.45895
▁ਪ੍ਰੈੱਸ	-9.45898
▁ਕਲਾਕਾਰਾਂ	-9.45963
▁ਕੰਪਿਊਟਰ	-9.46085
▁ਮਾਸਟਰ	-9.46093
▁ਕਮਜ਼ੋਰ	-9.46249
▁ਗ੍ਰੈਜੂਏਟ	-9.46388
▁ਬੁਨਿਆਦੀ	-9.46561
▁ਸਰਦੀਆਂ	-9.46575
ਬਾ	-9.46718
▁ਸੰਭਾਲ	-9.46744
▁ਲਾਈਵ	-9.46784
▁ਰਸਮੀ	-9.46805
▁ਬਦਲਣ	-9.46806
▁ਵੀਂ	-9.46888
▁ਸਟਾਫ	-9.46943
▁ਜੰਗਲੀ	-9.46994
▁ਦਿਓ	-9.47023
▁ਸ਼੍ਰੇਣੀ	-9.47048
▁ਸੋਨੇ	-9.47054
▁ਸਪਸ਼ਟ	-9.47085
▁ਰਾਏ	-9.47123
▁ਉਤਪਾਦ	-9.47294
▁ਜ਼ਿੰਦਗੀ	-9.47421
▁1998	-9.4744
▁ਭਾਰਤੀਆਂ	-9.47448
▁ਸਕੂਲਾਂ	-9.47482
▁ਜਿੱਤਣ	-9.47647
▁ਅਸਾਨ	-9.47716
▁ਸਪਲਾਈ	-9.47772
▁ਜਾਪਦਾ	-9.47774
▁ਵਜੇ	-9.47782
▁ਮਰ	-9.47821
▁ਮਾਈਕਲ	-9.47935
।"	-9.47963
▁ਸੈਨਿਕਾਂ	-9.47986
8	-9.48228
।..	-9.4824
▁ਸਕਦੀਆਂ	-9.48259
▁ਖੁਸ਼ੀ	-9.48363
ਪੂਰਬੀ	-9.48436
▁ਪੈਰਿਸ	-9.48634
▁ਰੂਸ	-9.48683
▁ਚੀਨੀ	-9.48771
▁ਰਚਨਾਵਾਂ	-9.48841
▁ਆਲ	-9.48846
▁ਇਟਲੀ	-9.48859
▁ਡਾਕਟਰ	-9.48889
▁ਹਰਾਇਆ	-9.49019
▁ਯਹੂਦੀ	-9.49046
▁ਕੁ	-9.49118
▁ਪਤੀ	-9.49275
▁ਸ਼੍ਰੀਮਾਨ	-9.49306
▁ਲਿਖੀ	-9.49331
▁ਸਹੂਲਤ	-9.49522
▁ਸੁ	-9.49648
▁ਨਾਟਕ	-9.50008
▁ਵਿਸ਼ਲੇਸ਼ਣ	-9.5002
▁ਬਿਸ਼ਪ	-9.50078
▁ਇਤਾਲਵੀ	-9.50092
ਡੋ	-9.50311
▁ਮੁਢਲ	-9.50331
ਵੇ	-9.50338
▁ਚਲਾਇਆ	-9.50436
▁ਚਲਾਉਣ	-9.50453
▁ਪਰਿਵਰਤਨ	-9.50464
▁ਸ਼ਾਸਤਰ	-9.50638
▁ਦ੍ਰਿਸ਼ਟੀਕੋਣ	-9.5064
▁ਸਮਿਥ	-9.50677
▁ਏਜੰਸੀ	-9.50733
▁ਜੋਡ਼ਿਆ	-9.50808
ਗੋ	-9.509
▁ਸੰਸਾਰ	-9.50975
▁ਸਖ਼ਤ	-9.51183
▁ਚਾਰਟ	-9.5129
▁ਫਾਰਮ	-9.51316
▁ਦਰਸਾਉਂਦੀ	-9.5134
▁ਬਣਾਉਂਦਾ	-9.51343
▁ਵਿਧਾਨ	-9.51506
▁ਥਾਮਸ	-9.51548
▁ਨੌਂ	-9.51617
▁ਨਸਲੀ	-9.51722
▁ਸਿਵਲ	-9.51903
ਪੱਛਮ	-9.52147
▁1997	-9.52344
▁ਮੇਰਾ	-9.52392
▁ਇੰਜੀਨੀਅਰਿੰਗ	-9.52456
▁ਬਿਮਾਰੀ	-9.5246
▁ਸੱਜੇ	-9.52499
▁ਸਬੰਧਾਂ	-9.52506
▁ਭਾਲ	-9.52625
▁ਜੇਕਰ	-9.52692
▁ਕੇਸ	-9.52769
▁ਪ੍ਰਾਚੀਨ	-9.52839
▁ਪੁਰਸ਼ਾਂ	-9.53017
ਸਾ	-9.53076
▁ਆਤਮਾ	-9.53082
▁ਦਿੱਤੀਆਂ	-9.5311
▁ਨਿਰਦੇਸ਼ਕ	-9.53421
ਟਸ	-9.53471
▁ਪੇਸ਼ਕਾਰੀ	-9.53495
▁ਸੱਭਿਆਚਾਰਕ	-9.53496
▁(1)	-9.5355
ਬਰ	-9.53566
▁ਗੁਪਤ	-9.53582
▁ਵਾਪਸੀ	-9.53613
▁ਕਿਲ੍ਹੇ	-9.53739
▁ਨੇਤਾ	-9.53868
▁ਸਰੋਤਾਂ	-9.53898
▁ਵਿਗਿਆਨੀ	-9.53904
▁ਨਿਰਭਰ	-9.53939
▁ਸਪੇਨ	-9.53995
▁ਅਕਾਦਮਿਕ	-9.54114
▁ਲਾਗਤ	-9.5428
▁ਮੌਸਮ	-9.54341
▁ਖੱਬੇ	-9.5474
6	-9.54826
▁ਬਾਸਕਟਬਾਲ	-9.54862
▁ਤੁਰਕੀ	-9.54933
▁ਨਿਵਾਸ	-9.55015
▁ਜ਼ਖਮੀ	-9.55239
▁ਮੇਅਰ	-9.55291
▁ਬਣਤਰ	-9.5541
▁ਅਮੀਰ	-9.55464
▁ਸਮਝ	-9.55615
▁ਤੂਫਾਨ	-9.55629
▁ਫੁੱਟ	-9.55643
ੇਨ	-9.55711
▁ਮੈਕ	-9.55962
▁ਤੱਥ	-9.55973
▁ਸੰਸਥਾਵਾਂ	-9.56017
▁ਲਾਤੀਨੀ	-9.56029
▁ਆਰਟਸ	-9.56196
▁ਮੈਕਸੀਕੋ	-9.56196
▁ਪੈਸੇ	-9.56198
▁ਤਬਦੀਲੀਆਂ	-9.56339
▁ਵਸਨੀਕਾਂ	-9.5634
▁ਸੀਟ	-9.56343
▁ਸੰਮੇਲਨ	-9.56378
▁ਗ੍ਰੀਨ	-9.56404
ਵਾਦ	-9.56605
▁ਡਿੱਗ	-9.56777
▁ਪੈਰ	-9.56869
▁ਜੀਵਨੀ	-9.57063
▁ਸਮਰਪਿਤ	-9.57136
▁ਲਿਖਣ	-9.57185
▁ਵਿ	-9.57227
▁ਪੇਂਡੂ	-9.5734
▁ਪ੍ਰਾਇਮਰੀ	-9.57351
ਸਟ	-9.57419
▁ਸ਼	-9.57421
▁ਮਾਰਕ	-9.5755
▁ਮਨੋਰੰਜਨ	-9.57553
▁ਨਿਯੰਤਰਿਤ	-9.57579
▁ਕਰਨੀ	-9.5775
▁ਜਾਣਦੇ	-9.57759
▁ਰਹੀਆਂ	-9.57765
▁ਜਿਹਾ	-9.5791
ਗੀ	-9.58051
▁ਦਿਸ਼ਾ	-9.58093
▁ਘਟਨਾਵਾਂ	-9.58122
▁ਕੰਮਾਂ	-9.58181
▁ਲਗਦਾ	-9.58299
▁ਹਾਕੀ	-9.58326
▁ਨਿਰਦੇਸ਼	-9.58366
▁ਲਾਇਬ੍ਰੇਰੀ	-9.58398
▁ਚਰਚਾ	-9.58493
▁ਕਲਪਨਾ	-9.58513
▁1994	-9.58556
▁ਕੈਦ	-9.58728
▁ਨਦੀਆਂ	-9.59064
▁ਪੈਰੀਸ਼	-9.59084
▁ਸਮੱਸਿਆਵਾਂ	-9.59094
▁ਤੀਜਾ	-9.59121
▁ਯੂਨਾਨੀ	-9.59139
▁ਖੁਸ਼	-9.59282
▁ਭੱਜ	-9.59289
▁ਡੱਚ	-9.59338
▁ਹੋਣਗੇ	-9.59353
▁ਚੱਲ	-9.59535
▁ਇਕੱਠਾ	-9.59629
▁ਪ੍ਰੋ	-9.59688
ਗੇ	-9.59688
▁ਬ੍ਰਾਜ਼ੀਲ	-9.59693
▁ਬਲ	-9.59778
▁ਮਿਊਂਸਪੈਲਿਟੀ	-9.59879
▁ਅਨੁਮਾਨ	-9.5988
▁ਭਾਰ	-9.59906
▁ਸਟੋਰ	-9.5991
▁ਸਾਈਟ	-9.59962
▁ਗਰਮ	-9.60069
▁ਬਸੰਤ	-9.60083
▁ਰੂਟ	-9.60184
▁ਮਿਲਣ	-9.60231
ਵਾਰ	-9.60431
ਰਵਾਨਾ	-9.60536
▁ਵਾਲ	-9.60583
▁ਕਰਵਾਇਆ	-9.60663
▁ਗੱਠਜੋਡ਼	-9.60671
▁ਕਮਾਂਡਰ	-9.60867
▁ਬਿਲਕੁਲ	-9.60894
▁ਪਰਿਵਾਰਕ	-9.6095
▁ਹੈਰਾਨ	-9.61009
▁ਸਡ਼ਕਾਂ	-9.6105
▁ਸਮਕਾਲੀ	-9.61088
▁1950	-9.61098
▁1992	-9.61101
▁ਪਹੁੰਚਿਆ	-9.61147
▁ਆਇਰਲੈਂਡ	-9.61172
▁ਟਿੱਪਣੀ	-9.61188
ਅਰ	-9.61273
▁ਪ੍ਰਜਨਨ	-9.61291
▁ਵੇਚ	-9.61295
▁ਜਾਨਵਰਾਂ	-9.6137
▁ਦਰਸਾਉਣ	-9.615
▁ਸੂਰਜ	-9.61586
▁ਪ੍ਰਾਰਥਨਾ	-9.61671
▁ਨਾਮਕ	-9.6168
▁ਮੂੰਹ	-9.61685
ਐੱਫ	-9.61694
▁ਅੱਧ	-9.61763
ਕਾਰ	-9.61886
▁ਮਾਰਗ	-9.62
ਡਰ	-9.62087
▁ਭਾਵਨਾ	-9.62107
▁ਚੇਅਰਮੈਨ	-9.62107
▁ਸ਼ਾਮ	-9.6215
▁ਸਾਰੀ	-9.62254
▁ਸੰਪੂਰਨ	-9.62323
ਬੋ	-9.62466
▁ਮੌਕਾ	-9.62476
ਅਨ	-9.62493
▁ਜਿੱਤੀ	-9.62562
▁ਰਾਜਧਾਨੀ	-9.62601
▁ਰੈਜੀਮੈਂਟ	-9.62606
▁ਗੁੱਸੇ	-9.62705
▁ਉੱਚਾ	-9.62833
▁ਫਾਰਮੈਟ	-9.62879
▁ਗਾਰਡ	-9.6317
▁ਆਰਟ	-9.63349
▁ਸਾਮਰਾਜ	-9.63421
▁ਉਚਾਈ	-9.63436
▁ਸੈਕਸ਼ਨ	-9.63469
▁ਸ਼ਿਕਾਗੋ	-9.63541
▁ਰਾਹ	-9.63663
▁ਪ੍ਰਕਾਸ਼ਨ	-9.63742
▁ਪੈਰਾ	-9.63775
▁ਟੀਵੀ	-9.63866
▁ਕਰਨਗੇ	-9.63896
▁ਯੋਗਤਾ	-9.64058
▁ਮੇਜ਼ਬਾਨੀ	-9.64251
▁ਵਿਸ਼ੇ	-9.64304
▁ਦਰਸਾਉਂਦੇ	-9.64318
▁ਰੁਕਾਵਟ	-9.64325
ਬਲ	-9.6433
▁ਰਿਚਰਡ	-9.64443
▁ਦੇਵੇਗਾ	-9.64458
▁ਇੰਟਰਵਿਊ	-9.64525
▁ਸ਼ਹਿਰਾਂ	-9.64639
ਲਿੰਗ	-9.64657
▁ਪ੍ਰਦਰਸ਼ਨੀ	-9.64671
▁ਸੰਘਰਸ਼	-9.64733
▁ਮਾਰਕੀਟ	-9.64759
▁1995	-9.64825
ਕਰ	-9.64966
▁ਜ਼ਿੰਮੇਵਾਰੀ	-9.65065
▁ਉਦੇਸ਼ਾਂ	-9.65077
▁ਰੱਖੀ	-9.65082
▁ਵਕੀਲ	-9.65166
▁ਦਿਮਾਗ	-9.65406
▁ਵੇਖ	-9.6544
▁ਸਹਿਮਤੀ	-9.65513
▁ਲੇ	-9.65559
▁ਭਰੋਸਾ	-9.65569
▁ਵੇਖਿਆ	-9.65586
▁ਖਾਲੀ	-9.65603
▁ਯਕੀਨੀ	-9.65888
▁ਸਤਹ	-9.65926
▁ਦਰਵਾਜ਼ੇ	-9.6601
▁ਲਾਈਨਾਂ	-9.66151
▁ਸੰਸਥਾਪਕ	-9.66311
▁ਅਗਲੀ	-9.66411
▁ਸੰਭਾਵਿਤ	-9.66425
▁ਤਕਨੀਕੀ	-9.66546
ਡੇ	-9.66549
▁ਲੈਂਦਾ	-9.66627
▁ਸੁੱਟ	-9.66765
▁ਸੁਆਗਤ	-9.66831
▁ਕਾਰਜਕਾਲ	-9.66837
▁ਏਅਰ	-9.66862
▁1993	-9.67238
▁ਸ਼ਾਖਾ	-9.6724
ਨਾਂ	-9.67255
▁ਸਾਰਾ	-9.67272
▁ਲੱਗਦਾ	-9.6728
▁ਸੋਵੀਅਤ	-9.67295
▁ਪੁਸਤਕ	-9.67297
▁1996	-9.67399
▁ਲੈਂਦੇ	-9.67471
ਜਾ	-9.67651
▁ਆਲੋਚਨਾ	-9.67664
▁ਪੁਰਸ਼	-9.67713
▁ਅਧਿਆਪਕ	-9.67727
▁ਗੀਤਾਂ	-9.67776
▁ਨੌਕਰੀ	-9.67837
a	-9.67863
▁ਦੇਰ	-9.67999
▁1991	-9.68005
ਮੋ	-9.68058
▁ਯਾਤਰੀ	-9.68065
▁ਸਟਾਕ	-9.68144
ਜ਼ੀ	-9.683
▁ਆਇਰਿਸ਼	-9.68371
▁ਜੋਡ਼	-9.68381
▁ਮਨ	-9.684
▁ਲੰਬਾ	-9.68533
▁ਦੁਸ਼ਮਣ	-9.6856
▁ਲਡ਼ੀਵਾਰ	-9.68598
▁ਥੋਡ਼੍ਹੀ	-9.6863
▁ਕੰਢੇ	-9.68758
▁ਮੀਟਿੰਗ	-9.68788
▁ਸਿਰੇ	-9.68826
ਪੂਰਬ	-9.69003
▁ਰੋਜ਼ਾਨਾ	-9.69035
▁2023	-9.69082
▁ਜਾਵੇਗੀ	-9.692
▁ਸਾਰ	-9.69217
▁ਕਿਊ	-9.69399
▁ਚੌਥੇ	-9.69419
▁ਰਕਮ	-9.69422
▁ਵੋਟਰ	-9.69437
▁ਅਦਾਕਾਰ	-9.69525
ਕਲ	-9.69598
▁ਘਾਟੀ	-9.69656
▁ਗ੍ਰੈਂਡ	-9.69688
ਨਰ	-9.69807
▁ਮੈਨੇਜਰ	-9.69845
▁ਫੈਸਟੀਵਲ	-9.69856
▁ਮਨਜ਼ੂਰੀ	-9.69883
▁ਸਹਿਮਤ	-9.69914
▁ਸਮੱਸਿਆ	-9.70059
▁ਅਨੁਵਾਦ	-9.70158
▁ਵਿਆਖਿਆ	-9.70277
▁ਵਿਚਾਰਾਂ	-9.70334
▁ਭੌਤਿਕ	-9.70362
▁a	-9.70376
▁ਤਾਕਤ	-9.70517
▁ਅਧਿਆਇ	-9.70641
▁ਕੋ	-9.70725
▁ਚੈਪਲ	-9.70731
▁ਚੇਤਾਵਨੀ	-9.70874
▁ਕਰਾਸ	-9.71049
▁ਬਰਕਰਾਰ	-9.71165
▁ਮੁੱਦਿਆਂ	-9.71165
▁ਸਮਝੌਤਾ	-9.71175
▁ਰੁੱਖ	-9.71205
▁ਪਹੁੰਚੇ	-9.7134
▁ਤੰਗ	-9.71492
▁ਮਨੁੱਖ	-9.71501
▁ਸੈੱਲ	-9.71523
▁ਵਧਾ	-9.71727
▁ਕਰਮਚਾਰੀ	-9.71761
▁ਥਾਵਾਂ	-9.71833
▁ਕ	-9.71922
▁ਖੇਡੇ	-9.71962
▁ਧਾਰਨਾ	-9.72039
▁ਕੋਲੰਬੀਆ	-9.72071
▁ਚੱਟਾਨ	-9.72099
▁ਸੀਃ	-9.72146
▁ਫਾਊਂਡੇਸ਼ਨ	-9.72332
▁ਬੋ	-9.72413
▁ਮੈਨ	-9.72573
▁ਨਿਰਦੇਸ਼ਨ	-9.72638
▁ਹਰਾ	-9.72678
▁ਔਨਲਾਈਨ	-9.72744
▁ਘੋਡ਼ੇ	-9.72749
▁ਸਹੂਲਤਾਂ	-9.72762
ਗਰ	-9.72772
ਖ	-9.72947
▁ਗ੍ਰੈਜੂਏਸ਼ਨ	-9.72953
▁ਬਣਾਉਂਦੇ	-9.72962
▁ਵਾਈ	-9.7299
▁ਅਲੱਗ	-9.73002
▁ਕੰਧ	-9.73016
ਲਰ	-9.73016
▁ਸਟੇਡੀਅਮ	-9.73179
▁ਕਰਮਚਾਰੀਆਂ	-9.73287
▁ਰਿਹਾਇਸ਼ੀ	-9.73302
▁ਇਕਾਈ	-9.73347
▁ਪੰਛੀ	-9.73354
▁ਸਥਿਰ	-9.7341
▁ਕਵਿਤਾ	-9.73425
▁ਲੱਭਣ	-9.73486
▁ਟਾਪੂਆਂ	-9.73499
▁ਲਗਾ	-9.73518
▁ਯੂਕੇ	-9.73541
▁ਜੈਕ	-9.7366
▁ਉਹੀ	-9.73879
▁ਕਰਵਾ	-9.73897
▁ਅੱਧੇ	-9.7399
▁ਮਾਰਨ	-9.73994
4	-9.74024
▁ਸਵੇਰ	-9.74031
▁ਦੌਰੇ	-9.74065
ਹੌਲੀ	-9.74084
▁ਉਪਕਰਣ	-9.74111
▁(18	-9.74239
▁ਪਾਦਰੀ	-9.74285
▁ਪਹਾਡ਼	-9.74295
▁ਮਿਸ	-9.74305
▁ਲਿਜਾਇਆ	-9.74315
▁ਚਰਿੱਤਰ	-9.74319
▁ਭੀਡ਼	-9.74343
▁ਫੰਡਾਂ	-9.74479
▁ਕੈਰੋਲੀਨਾ	-9.74484
▁ਕਾਨੂੰਨਾਂ	-9.74497
▁ਰੇਖਾ	-9.74568
ਗਨ	-9.74569
▁ਵਿਵਾਦ	-9.74585
▁ਜੀਵ	-9.74718
▁ਤੇਲ	-9.74732
▁ਆਫ	-9.7475
▁ਦਲ	-9.74759
ਕਥਿਤ	-9.74773
▁ਕਾਰਜ	-9.74856
ਸ਼ਨ	-9.74885
9	-9.74936
▁he	-9.74949
▁ਕਾਰਕ	-9.75
▁ਛੋਟੀਆਂ	-9.75015
▁ਪੈ	-9.75017
▁ਟਕਰਾਅ	-9.75022
▁ਸ਼ਕਤੀਸ਼ਾਲੀ	-9.75026
▁ਤਬਾਹ	-9.75029
▁ਗਿਆਨ	-9.75267
▁ਦਰਸ਼ਕਾਂ	-9.75321
▁ਬੇਸਬਾਲ	-9.75487
▁ਕੈਂਪਸ	-9.75497
▁ਬੰਦਰਗਾਹ	-9.75504
▁ਡੇਟਾ	-9.75544
▁ਕਰੀਅਰ	-9.75601
▁ਬਾਲ	-9.7565
▁ਜੁਡ਼	-9.75702
▁1989	-9.75811
▁ਬਰਾਊਨ	-9.7585
▁ਚਲਦਾ	-9.75941
▁ਜੋਡ਼ੇ	-9.76123
▁ਨਿਸ਼ਾਨ	-9.76127
ਨਸ਼ਟ	-9.76201
▁ਲਾਜ਼ਮੀ	-9.76207
▁ਜ਼ਰੂਰਤਾਂ	-9.76269
▁ਉਡੀਕ	-9.76394
▁ਜਿਹੇ	-9.76394
▁ਮਿਸ਼ੀਗਨ	-9.76409
▁ਕਿਊਬੈਕ	-9.76413
▁ਅਫਰੀਕਾ	-9.7642
▁ਗਲੀ	-9.76422
▁ਕੈਬਿਨ	-9.76446
▁ਅੰਤਮ	-9.76549
▁ਹਜ਼ਾਰ	-9.76674
▁ਕ੍ਰਮਵਾਰ	-9.76678
▁ਪ੍ਰਚਾਰ	-9.76833
▁ਲਏ	-9.76883
▁ਨਿਊਜ਼ੀਲੈਂਡ	-9.76892
▁ਨਾਗਰਿਕਾਂ	-9.76896
▁ਸਕਾਟਿਸ਼	-9.76907
▁ਵਰਗੀ	-9.77061
▁ਫਲੋਰਿਡਾ	-9.77096
▁ਮੰਨਣਾ	-9.77129
▁ਮਾਊਂਟ	-9.77237
▁ਬਸਤੀ	-9.77238
ਐੱਸ	-9.77265
▁ਭੰਗ	-9.77345
▁ਜਿੰਨਾ	-9.77378
▁ਛੱਤ	-9.77381
ਮਰ	-9.77423
▁ਸੰਗਠਨਾਂ	-9.77426
▁ਕੱਟਣ	-9.77437
▁ਗ਼ੈਰ	-9.77523
▁ਲੇਬਲ	-9.77618
▁ਹਵਾਲੇ	-9.77629
▁1945	-9.77654
ਸਟਰ	-9.77698
▁65	-9.77718
▁ਮੂਰਤੀ	-9.77744
▁ਪੁਰਾਣੀ	-9.77765
▁ਸੰਤ	-9.77772
▁ਉਡਾਣ	-9.77849
▁ਪਿੱਛਾ	-9.78047
▁ਪੈਦਲ	-9.78047
▁ਰਾਜਨੀਤੀ	-9.78068
▁ਖਰਾਬ	-9.7807
▁ਕਿਉਂ	-9.7807
▁ਪ੍ਰੀ	-9.78129
ਹੁਣ	-9.78198
▁ਬ੍ਰਾਂਡ	-9.78215
ਬੇ	-9.78223
▁ਆਸਟਰੇਲੀਆਈ	-9.78312
ਫਰ	-9.78517
▁ਅਲੈਗਜ਼ੈਂਡਰ	-9.78533
▁ਪੌਂਡ	-9.78556
▁ਰਚਨਾ	-9.78559
▁ਮਿਲਦਾ	-9.78588
▁200	-9.78693
▁ਗਰੀਬ	-9.78698
▁ਦਿੱਖ	-9.78773
ਸਕੀ	-9.78777
▁ਐਡਵਰਡ	-9.78917
▁ਤਰੀਕਿਆਂ	-9.79009
▁ਅਸਥਾਈ	-9.79011
▁ਰੋਮ	-9.79047
ਐਲ	-9.79077
▁ਨਿਵੇਸ਼	-9.79206
▁ਅਹੁਦਾ	-9.79234
▁ਅੱਡੇ	-9.79235
▁ਬਚਣ	-9.7933
ਵਿਨ	-9.79336
▁ਫਰਾਂਸਿਸਕੋ	-9.79483
▁ਤੁਹਾਡੀ	-9.79494
▁1940	-9.79509
▁ਸੇਵਾਮੁਕਤ	-9.79539
▁ਗਲਤੀ	-9.79648
▁ਸਥਾਈ	-9.79755
▁ਜਿੱਤੇ	-9.79773
ਰਸ	-9.79852
▁ਮਾਰਟਿਨ	-9.79871
▁ਇੰਸਟੀਚਿਊਟ	-9.79961
▁ਵਸਨੀਕ	-9.80003
▁ਲਿਖੀਆਂ	-9.80072
▁ਬਾਲਗ	-9.8018
▁ਮੁਲਾਂਕਣ	-9.80218
ਐਮ	-9.80227
▁ਸਕਾਰਾਤਮਕ	-9.80227
▁ਫੌਕਸ	-9.80241
▁ਸ਼ਕਤੀਆਂ	-9.80248
▁ਰੇਲਮਾਰਗ	-9.80443
▁ਕ੍ਰੀਕ	-9.80449
▁ਵਿਸਤ੍ਰਿਤ	-9.80456
ਧਾਰਾ	-9.80492
▁ਪਾਠ	-9.80533
▁ਅਨੁਭਵ	-9.8055
▁ਟੁੱਟ	-9.80721
▁ਸੰਘ	-9.80749
▁ਟਾਵਰ	-9.80755
▁ਵੱਖਰੀ	-9.8081
m	-9.80852
▁ਫਡ਼ਨ	-9.80912
▁ਭੂਰੇ	-9.81009
);	-9.81024
▁ਵ੍ਹਾਈਟ	-9.81069
▁ਸੱਟ	-9.81207
▁ਭਿਆਨਕ	-9.81441
▁ਅਪਰਾਧਿਕ	-9.81478
▁ਪੇਂਟਿੰਗ	-9.81519
ਐੱਮ	-9.81546
▁ਲੱਗ	-9.81555
▁ਆਰਕੀਟੈਕਚਰ	-9.81596
▁60	-9.81703
▁ਅਖ਼ਬਾਰ	-9.81722
▁ਸਟੇਜ	-9.81748
▁ਮਸ਼ੀਨ	-9.81749
ed	-9.81786
▁ਰਾਜੇ	-9.81844
▁ਟੂਰ	-9.81937
▁1972	-9.82171
▁ਜਮਹੂਰੀ	-9.82179
▁ਅਪਣਾਇਆ	-9.82405
▁ਦੂਜਿਆਂ	-9.82416
I	-9.82456
▁ਨੰ	-9.82471
▁ਮਾਪ	-9.82525
▁ਬਣਾਉਣਾ	-9.82568
ਵਿਲ	-9.82608
▁ਬਹਾਲ	-9.8261
▁ਨਜ਼ਦੀਕੀ	-9.82661
ਬਰਗ	-9.82736
▁ਰਾਣੀ	-9.8288
▁ਮੌਕੇ	-9.82905
▁ਹਲਕੇ	-9.82938
7	-9.83058
▁ਗਾਇਕ	-9.83184
▁ਸਟੈਂਡਰਡ	-9.83429
▁ਕੇਪ	-9.8347
ਅਲ	-9.83571
▁ਵਿਸ਼ਿਆਂ	-9.83652
▁ਅਚਾਨਕ	-9.83663
▁ਸਾਂਝਾ	-9.83675
▁ਕਿਸ਼ਤੀਆਂ	-9.83804
ੇਲ	-9.83816
ਪੋਰਟ	-9.83838
▁ਪਾਵਰ	-9.83957
▁ਸੰਗੀਤਕਾਰ	-9.84133
▁ਵਿਦਰੋਹ	-9.84171
▁ਜਾਓ	-9.84316
▁ਖੇਡਦਾ	-9.84352
▁ਖਰੀਦ	-9.84384
▁ਮੰਨਦੇ	-9.84426
▁ਪੂਰਵ	-9.84651
▁ਵਰਜੀਨੀਆ	-9.84679
▁ਅੰਸ਼ਕ	-9.84699
▁ਹਿੱਟ	-9.84785
▁ਸਰੀਰਕ	-9.84803
▁ਜੋਸੇਫ	-9.84938
ਐਨ	-9.84943
▁ਤਾਜ਼ਾ	-9.84959
▁ਤਰੀਕਾ	-9.84989
▁ਬੋਲਣ	-9.85026
▁ਪ੍ਰਾਈਵੇਟ	-9.85196
▁0	-9.8529
▁ਸੰਪਾਦਕ	-9.85319
▁ਗੁੰਝਲਦਾਰ	-9.85441
▁2.	-9.85467
▁ਨਿਰਪੱਖ	-9.85688
▁ਨਵੀਆਂ	-9.85688
▁ਦਬਾਅ	-9.85704
▁ਕਾਲਾ	-9.85747
▁ਫਰ	-9.85763
▁ਬਣੀ	-9.8579
▁ਪੁਰਾਣਾ	-9.85825
▁ਸਿਆਸਤਦਾਨ	-9.8602
▁ਸਨਃ	-9.86115
▁ਵਾਅਦਾ	-9.86205
▁ਸੀਟਾਂ	-9.86207
▁ਲਾਂਚ	-9.86214
▁ਯੋਜਨਾਵਾਂ	-9.86257
▁ਪਾਬੰਦੀ	-9.86392
ਚੀ	-9.86396
▁ਗੋਲੀ	-9.86505
▁ਗ੍ਰਿਫਤਾਰ	-9.86542
ਰਾਂ	-9.86673
▁ਰਾਹਤ	-9.86679
▁ਭੱਜਣ	-9.86687
▁ਕ੍ਰੈਡਿਟ	-9.86716
▁ਪੈਨਸਿਲਵੇਨੀਆ	-9.86725
▁ਖੁਲਾਸਾ	-9.86729
▁1930	-9.86731
▁ਨਿਰਦੇਸ਼ਿਤ	-9.86763
▁ਕਾਰਜਾਂ	-9.86972
▁ਬਿਆਨ	-9.86997
▁ਆਤਮ	-9.87117
▁ਭਾਈਵਾਲੀ	-9.87221
ਸੋ	-9.87257
▁ਤੱਤ	-9.87304
▁ਭਰਤੀ	-9.87415
▁ਏਂਜਲਸ	-9.87489
▁ਜੌਹਨਸਨ	-9.8752
▁ਸਾਲਾ	-9.87639
▁ਪਲੇਟਫਾਰਮ	-9.87824
▁ਆਸ	-9.87946
▁ਸੂਬੇ	-9.88014
▁ਸਵੇਰੇ	-9.88154
▁ਚੋਰੀ	-9.88166
▁ਪੈਨ	-9.882
▁ਕਿੰਗ	-9.88236
▁ਹਫ਼ਤਿਆਂ	-9.88282
▁1988	-9.88294
▁ਸਕੁਐਡਰਨ	-9.8833
▁III	-9.88359
n	-9.8836
▁ਰੱਖਣਾ	-9.88481
▁ਸੰਕਲਪ	-9.88514
ਂਗ	-9.88538
▁ਏਕੀਕ੍ਰਿਤ	-9.88549
▁ਏਜੰਟ	-9.88601
▁ਰਾਕ	-9.88618
▁ਆਦਿ	-9.88645
e	-9.88675
ਪਾ	-9.88676
▁ਨਸਲ	-9.88696
▁ਤਸਵੀਰਾਂ	-9.88732
▁ਕਹਾਣੀਆਂ	-9.88777
▁ਬਦਲੇ	-9.88779
▁ਵੈੱਬਸਾਈਟ	-9.88802
▁ਅਸਟੇਟ	-9.88803
▁ਅੰਕਡ਼ੇ	-9.88804
ਫੋਰਡ	-9.88814
▁ਸੋਚਿਆ	-9.88814
▁ਰਗਬੀ	-9.88823
ਿਸਟ	-9.88825
▁ਸਾਲਾਨਾ	-9.88944
▁ਹੱਥਾਂ	-9.89045
▁ਨਤੀਜਾ	-9.89066
▁ਚਾਂਦੀ	-9.89083
▁ਜੰਗੀ	-9.89085
▁ਇਕੱਲੇ	-9.8909
▁ਪੋਪ	-9.89189
ਂ	-9.89204
▁ਪੁੱਛਿਆ	-9.89334
▁ਬਚ	-9.89355
▁ਡੇਲ	-9.89525
▁ਫਲ	-9.89612
▁ਨਿਸ਼ਚਿਤ	-9.89775
▁ਪੌਦੇ	-9.89886
▁ਡਿਜੀਟਲ	-9.89887
▁ਕਾਰਡ	-9.89927
d	-9.90158
▁ਗ	-9.90187
▁ਬਣਾਈਆਂ	-9.90231
▁1984	-9.90304
▁ਏਸ਼ੀਆ	-9.90412
▁ਕਲਾਰਕ	-9.90473
▁ਵਿਸ਼ਾ	-9.90628
▁ਪੇਂਟ	-9.90645
▁ਸਾਹਿਤ	-9.90717
▁ਸ਼ਖਸੀਅਤ	-9.90744
▁ਗੇਮਾਂ	-9.90792
ਡਨ	-9.90797
ੈਂਟ	-9.90985
▁ਏਸ਼ੀਆਈ	-9.91002
▁1979	-9.91059
▁ਟਾਊਨ	-9.91156
▁ਬਚੇ	-9.91171
▁ਆਉਂਦੀ	-9.91398
▁ਪੈਂਦਾ	-9.91479
▁ਸ਼ੁੱਧ	-9.91507
▁ਸਮਰਾਟ	-9.91515
ਜ਼ਾ	-9.91583
▁ਸੁਣਿਆ	-9.91759
▁ਮੈਰੀਲੈਂਡ	-9.91791
▁(19	-9.91899
▁1974	-9.91954
▁ਜੰਗਲਾਂ	-9.91964
▁ਉਪਨਾਮ	-9.92052
▁ਕਬਜ਼ੇ	-9.92056
▁1920	-9.92066
▁ਪ੍ਰਸ਼ਾਸਕੀ	-9.92112
▁ਅਜੀਬ	-9.92162
▁ਰਿਕਾਰਡਿੰਗ	-9.9235
ਰੀਆ	-9.92387
▁1983	-9.9242
▁1968	-9.92472
▁ਅੰਡਰ	-9.92508
▁ਆਉਂਦਾ	-9.92572
▁ਕਹਿਣਾ	-9.92652
▁1.	-9.92699
▁1986	-9.92713
ਾਈ	-9.92762
▁1973	-9.92832
▁ਮੋਡ਼	-9.92863
▁ਪਾਤਰ	-9.9292
▁ਜਾਣਗੇ	-9.92931
▁ਚਾਲਕ	-9.92956
▁ਸੰਦਰਭ	-9.93129
▁ਕੈਂਸਰ	-9.93131
▁ਰਿਜ਼ਰਵ	-9.93142
▁ਰੀ	-9.93142
▁ਸੈਕੰਡਰੀ	-9.93147
▁ਸਕਾਟਲੈਂਡ	-9.93151
▁ਇਕਲੌਤਾ	-9.93238
▁ਦਸਤਾਵੇਜ਼	-9.93336
▁ਮੌਜੂਦਗੀ	-9.9344
▁ਤਿਉਹਾਰ	-9.93474
▁i	-9.93598
▁ਮੁੰਡੇ	-9.93709
▁ਤਸਵੀਰ	-9.93772
ਅਧਾਰਤ	-9.93819
▁ਫਿਲਿਪ	-9.93825
▁in	-9.93866
▁ਵਰਗੀਕਰਣ	-9.93952
▁ਜਰਸੀ	-9.93961
▁ਵੇਲਜ਼	-9.93972
▁ਸਿੰਗਲਜ਼	-9.94005
ਿਲ	-9.9403
▁ਅਪਰੇਸ਼ਨ	-9.94078
▁ਕੱਟ	-9.94159
▁ਸਕਣ	-9.94232
▁ਐਵੇਨਿਊ	-9.94248
▁ਪ੍ਰਸਤਾਵਿਤ	-9.94256
▁ਗੁਣਵੱਤਾ	-9.94277
▁ਤਰਜੀਹ	-9.94328
▁ਪਾਕਿਸਤਾਨ	-9.94357
▁ਗੈਲਰੀ	-9.9445
▁ਕੋਟ	-9.94504
▁ਜਨਤਾ	-9.94512
▁ਖਿੱਚਿਆ	-9.94516
▁ਦੇਖਣ	-9.94516
▁ਯਕੀਨ	-9.94545
ਐੱਲ	-9.9465
▁ਕੱਢ	-9.94658
▁ਦਵਾਈ	-9.94715
▁ਸੈੱਲਾਂ	-9.94768
▁ਫਾਰ	-9.94959
▁ਪ੍ਰਤੀਯੋਗੀ	-9.95009
ਰਜ਼	-9.9502
▁ਡਬਲਿਊ	-9.95162
ਬੈਕ	-9.95176
ਇ	-9.95231
▁ਲੱਗਾ	-9.95257
▁1982	-9.9527
ਵਾਦੀ	-9.95314
▁ਵਿਵਸਥਾ	-9.95396
,--	-9.9553
▁ਤਾਪਮਾਨ	-9.95645
▁ਚਿੱਟਾ	-9.9569
▁ਕਿਸਮਤ	-9.95751
▁ਦੇਖ	-9.95806
▁ਹੋਟਲ	-9.95826
▁ਇਜ਼ਰਾਈਲ	-9.96039
▁ਗੁਆਂਢ	-9.96065
▁ਕੋਨ	-9.96082
▁ਆਕਰਸ਼ਿਤ	-9.9621
-1	-9.96212
▁ਸੂਚਨਾ	-9.96246
▁ਵਿਕਲਪ	-9.96258
▁ਮੇਜਰ	-9.96259
▁ਪਲੇਆਫ	-9.96316
▁ਲੇਬਰ	-9.96326
▁ਐ	-9.96404
▁ਉੱਤਰਾਧਿਕਾਰੀ	-9.96414
▁ਤਗਮਾ	-9.96496
▁ਦੁਪਹਿਰ	-9.96501
▁ਅਨੰਦ	-9.96506
▁ਓਪੇਰਾ	-9.96508
▁ਬ੍ਰਿਟੇਨ	-9.96516
▁ਕਰੇਗੀ	-9.96547
▁ਕੈਦੀਆਂ	-9.96571
▁1985	-9.96686
▁ਕਾਰਵਾਈਆਂ	-9.96751
▁ਮੁਰੰਮਤ	-9.96781
▁ਹੇ	-9.96826
▁ਵਾਹਨ	-9.96866
▁ਰੋਸ਼ਨੀ	-9.97077
▁ਜੈਵਿਕ	-9.97088
▁ਗੁੰਮ	-9.97137
▁ਹਮਲਾਵਰ	-9.9719
▁ਫੈਲ	-9.9731
▁ਕਬੀਲੇ	-9.97367
▁ਲਿਜਾਣ	-9.97469
▁ਚੱਲਣ	-9.97503
▁ਫੁੱਲ	-9.97507
x	-9.97524
▁ਚਿੰਤਾ	-9.97581
▁ਜ਼	-9.97642
▁ਤਿਆਰੀ	-9.9765
▁ਰੇ	-9.97731
▁ਡੈਮ	-9.97873
▁ਜਲਵਾਯੂ	-9.97932
▁ਪੁਲਾਡ਼	-9.97944
▁ਬੋਸਟਨ	-9.97972
ਅਮਰੀਕੀ	-9.9802
▁ਆਰਡਰ	-9.98049
▁ਸਮਰੱਥ	-9.9809
▁ਵਧਣ	-9.9809
▁ਡੋ	-9.98125
▁ਚੁੱਕੇ	-9.98143
▁1977	-9.98145
▁ਉੱਚੇ	-9.98177
▁ਭਾਸ਼ਾਵਾਂ	-9.98279
▁1987	-9.98285
ਯੋਗ	-9.9832
▁ਜ਼ਮੀਨੀ	-9.98384
▁ਬਿਮਾਰ	-9.98421
▁ਖੁੱਲ੍ਹੇ	-9.98438
▁ਕੱਢਿਆ	-9.98524
ਸੇ	-9.9862
▁ਸਮਾਰਕ	-9.98628
▁ਵਿਧੀ	-9.98681
▁500	-9.9872
▁ਮੁਕਤ	-9.98861
▁ਅੰਦਾਜ਼ਾ	-9.98861
▁ਜਰਨਲ	-9.98862
▁35	-9.98904
▁ਖਾਣ	-9.98948
▁ਟਰੱਸਟ	-9.9899
▁ਥਿਊਰੀ	-9.99023
▁ਖਾਨ	-9.99043
▁ਮੁਹੰਮਦ	-9.99107
▁ਆਰਾਮ	-9.99129
ਸ਼ਾ	-9.99179
▁ਆਈਸ	-9.99286
▁ਮਜ਼ਦੂਰ	-9.99358
▁ਹਸਤਾਖਰ	-9.99406
▁ਨਫ਼ਰਤ	-9.99407
▁ਚਮਕਦਾਰ	-9.99429
▁ਜਾਣੂ	-9.99543
ਲਿਨ	-9.99544
ਫੀਲਡ	-9.99562
▁ਤੋਡ਼	-9.99709
▁ਘੋਸ਼ਿਤ	-9.99713
▁ਉਤਪਾਦਾਂ	-9.99728
ਸਰ	-9.99738
▁ਗਣਿਤ	-9.99751
▁1978	-9.99847
▁ਉ	-9.99867
▁ਬੱਸ	-10.002
▁ਬੋਲ	-10.0022
▁ਕਬਰਸਤਾਨ	-10.0027
▁ਮੰਨਦਾ	-10.0029
▁ਓਪਨ	-10.0035
▁ਐਲਬਮਾਂ	-10.0036
▁ਵੇਖਣ	-10.0041
▁ਗਜ਼	-10.0048
▁45	-10.0058
▁ਪ੍ਰਕਿਰਿਆਵਾਂ	-10.0062
▁ਕਾਰਨਾਂ	-10.0075
▁ਪਡ਼੍ਹਨ	-10.0076
▁ਉਪਕਰਣਾਂ	-10.0083
▁ਤਾਜ	-10.0086
▁ਖਡ਼੍ਹਾ	-10.0087
▁ਨਿਰੀਖਣ	-10.0088
▁ਸਕਾਟ	-10.0105
▁ਚੁੱਪ	-10.0107
▁ਦਰਦ	-10.0108
▁!	-10.0115
▁ਵਾਧੇ	-10.0117
▁ਚਲੀ	-10.0117
ਕਨ	-10.0128
ਮਨ	-10.0129
▁ਸਟੀਲ	-10.0135
▁ਮੇਜ਼ਬਾਨ	-10.0136
▁ਡੂ	-10.0137
▁ਮਜ਼ਦੂਰਾਂ	-10.0137
▁ਹੱਕ	-10.0146
▁ਇਲੀਨੋਇਸ	-10.0147
▁ਸਧਾਰਨ	-10.015
▁ਵਧਿਆ	-10.015
▁ਸਾਹ	-10.0153
▁ਵਿੰਗ	-10.0163
▁ਸਵਾਰ	-10.0173
▁ਸਿੱਧਾ	-10.0177
▁ਗੁਆਂਢੀ	-10.0184
▁ਕੇਂਦਰਿਤ	-10.0189
▁ਪਰਿਵਾਰਾਂ	-10.0189
▁ਬਲੈਕ	-10.02
▁ਸੰਸਕਾਰ	-10.0207
▁ਸਾਫ਼	-10.021
▁ਜੀਨਸ	-10.0219
▁ਸ਼ਹਿਰੀ	-10.0222
▁ਪ੍ਰੋਜੈਕਟਾਂ	-10.0227
▁1967	-10.0232
▁ਮਨੁੱਖਾਂ	-10.0234
▁ਤਲ	-10.0238
▁ਖਰੀਦਿਆ	-10.0238
▁ਓਹੀਓ	-10.024
▁1966	-10.0241
▁ਬਾਰਾਂ	-10.0243
▁ਰੋ	-10.0252
▁ਵੱਡੀਆਂ	-10.0252
▁ਭੂਗੋਲ	-10.0259
l	-10.0261
▁ਜੋਖਮ	-10.0268
▁ਚਮਡ਼ੀ	-10.0276
▁ਸਾਧਨ	-10.0279
▁ਮਾਸ	-10.0282
▁ਮਸ਼ਹੂਰ	-10.0297
ਹੋ	-10.0297
▁ਉਧਾਰ	-10.0298
▁ਜਿਮ	-10.0321
▁ਮਸੀਹ	-10.0332
▁ਖਾਣਾ	-10.0344
▁ਵਿਗਿਆਨਕ	-10.0346
▁ਹਿਲ	-10.035
▁ਕੁਦਰਤ	-10.0355
▁ਡਰਾਮਾ	-10.0356
ਰਨ	-10.0356
▁ਜਾਇਜ਼	-10.0358
▁ਹੈੱਡਕੁਆਰਟਰ	-10.0358
▁ਲਿਆਉਣ	-10.0373
▁ਰਣਨੀਤੀ	-10.0377
▁1948	-10.0379
▁ਰੱਖੇ	-10.0379
▁ਬਰਲਿਨ	-10.0393
▁ਸਰਵੇਖਣ	-10.0399
▁ਹਥਿਆਰ	-10.0401
▁ਕਿਹਾਃ	-10.0413
▁ਅਫ਼ਰੀਕਾ	-10.0419
▁ਸੈਲਾਨੀ	-10.042
▁ਕਿੰਗਡਮ	-10.042
▁ਆਰਕੀਟੈਕਟ	-10.042
ਾਨਾ	-10.042
▁ਦਫ਼ਨਾਇਆ	-10.042
▁ਖਤਰੇ	-10.0422
▁ਸੰਭਾਲਿਆ	-10.0423
▁ਟੁਕਡ਼ੇ	-10.0424
ਹਰ	-10.043
▁ਹੋਰਾਂ	-10.0432
▁ਗੇਟ	-10.0433
▁ਯਤਨਾਂ	-10.0437
▁ਖੰਡ	-10.0443
▁ਵਰਤੀ	-10.045
▁ਲੈਫਟੀਨੈਂਟ	-10.0453
▁ਲਾਇਸੈਂਸ	-10.0482
▁ਮੈਟ	-10.0484
▁ਗੋ	-10.0495
▁ਅਮੈਰੀਕਨ	-10.0496
▁ਪਾਰਟੀਆਂ	-10.0502
▁ਜੰਗ	-10.0507
▁ਹਥਿਆਰਬੰਦ	-10.0513
▁ਭੂਮੀ	-10.0516
ਿਕਾ	-10.0524
▁ਹੱਤਿਆ	-10.0543
▁ਮਤਲਬ	-10.0543
ਟੇ	-10.0544
▁ਬਲਾਂ	-10.0545
▁ਸਮੁੱਚੇ	-10.0547
▁ਐਡੀਸ਼ਨ	-10.0547
▁ਕਿਰਾਏ	-10.0551
▁ਧਮਕੀ	-10.056
▁ਬਲਾਕ	-10.0562
▁1964	-10.0567
▁ਚੁਣੌਤੀ	-10.0568
▁1971	-10.0578
▁ਵੱਲੋਂ	-10.058
▁ਭੰਡਾਰ	-10.058
▁ਉਦਾਹਰਣਾਂ	-10.0586
▁ਬਾਕਸ	-10.0589
▁ਪੀਲੇ	-10.059
▁ਸੁਆਦ	-10.0594
▁ਸੰਵਿਧਾਨਕ	-10.0598
▁ਪ੍ਰਾਪਤੀ	-10.0606
▁ਅਸਤੀਫਾ	-10.0606
▁ਜੋਨਸ	-10.0614
▁ਮਾਰਿਆ	-10.0616
▁ਸੱਚ	-10.0616
▁ਐਂਟੀ	-10.0618
▁ਮਾਰਸ਼ਲ	-10.0627
▁ਵਪਾਰੀ	-10.0627
▁ਅਰਜ਼ੀ	-10.063
▁32	-10.0631
▁ਸਾਇੰਸ	-10.0633
ੰਗ	-10.0635
▁ਕੋਰੀਆ	-10.0638
▁ਮਿੱਲ	-10.064
▁ਪ੍ਰਸ਼ਾਂਤ	-10.0643
▁ਐਲਨ	-10.0656
▁ਭਵਿੱਖਬਾਣੀ	-10.0662
▁ਭੂ	-10.0668
▁ਅਰਥਵਿਵਸਥਾ	-10.0669
▁ਪ੍ਰੋਟੀਨ	-10.0671
ਊ	-10.0678
▁ਨੇਡ਼ਲ	-10.0681
▁ਅਸਮਰੱਥ	-10.0684
▁1944	-10.0699
▁ਪੱਤਰਕਾਰ	-10.0701
▁ਹਿੰਸਾ	-10.0702
▁ਸਾਊਥ	-10.0703
▁ਪੀਡ਼ਤ	-10.0714
▁ਪਰੰਪਰਾ	-10.0714
▁ਕੰਪਲੈਕਸ	-10.0714
▁ਡਿ	-10.0724
▁ਸੰਧੀ	-10.0724
▁ਭਾਈਚਾਰਿਆਂ	-10.0732
▁ਟਾਊਨਸ਼ਿਪ	-10.0733
▁ਆਉਂਦੇ	-10.0733
▁ਕਾਮੇਡੀ	-10.0735
▁ਸਾਈਡ	-10.0746
▁ਸਵਰਗ	-10.0758
▁ਮੋਟਰ	-10.076
▁ਸੇ	-10.0778
▁ਵੇਖੀ	-10.0779
▁1981	-10.0791
▁ਕੁਲੀਨ	-10.0797
▁ਮਾਣ	-10.0798
ਟਿਕ	-10.0812
ਵਨ	-10.0818
▁ਐਨੀ	-10.0828
▁ਆਲੋਚਨਾਤਮਕ	-10.083
▁ਲੋਹੇ	-10.0831
▁ਫੋਨ	-10.0833
▁ਖ਼ਾਸਕਰ	-10.0834
▁ਡਾਂਸ	-10.0841
▁ਪੁਰਾਤੱਤਵ	-10.0863
▁ਸਿਡਨੀ	-10.0863
▁ਧੰਨਵਾਦ	-10.0865
▁ਚਿੰਨ੍ਹ	-10.0875
▁ਮਿਸ਼ੇਲ	-10.0875
▁ਰੋਸ	-10.088
▁ਕਮੀ	-10.088
▁ਅੰਕਾਂ	-10.0882
▁x	-10.0882
▁1961	-10.0887
▁ਐਡੀ	-10.0887
▁1969	-10.089
▁ਕੰਟਰੋਲ	-10.0893
▁ਹਿੰਮਤ	-10.0893
▁ਈਵੈਂਟ	-10.0894
▁ਓਨੋਂਡਾਗਾ	-10.0894
▁ਲਡ਼ਕੀਆਂ	-10.0903
ਚੇ	-10.0904
▁ਪਿੰਡਾਂ	-10.0904
▁ਰਹਿੰਦੀ	-10.0924
▁ਠਹਿਰਾਇਆ	-10.0925
▁ਮੀ	-10.0925
▁ਬਰਫ	-10.0928
▁ਵੇਖਦਾ	-10.0929
▁ਬੇਰਹਿਮੀ	-10.0934
▁ਦੌਡ਼ਾਂ	-10.0937
▁ਟੌਮ	-10.0947
▁ਮਹਾਮਾਰੀ	-10.0959
▁ਇੰਟਰਨੈੱਟ	-10.096
▁ਡਰਾਅ	-10.0961
▁ਬਹਿਸ	-10.097
▁ਲੇਖਕਾਂ	-10.097
▁ਸੂਚ	-10.0971
▁ਅਲੀ	-10.0973
ੇਸ਼ਨ	-10.0978
▁ਜੋਡ਼ੀ	-10.0984
▁1975	-10.099
▁ਸਲਾਨਾ	-10.0992
▁ਰਿੰਗ	-10.0993
▁ਜਾਰਜੀਆ	-10.0998
▁ਕਿਮ	-10.1007
▁ਪਲਾਟ	-10.1007
▁ਉੱਦਮ	-10.1017
▁ਗ੍ਰੇਡ	-10.1019
-18	-10.1021
▁ਮੋਡ	-10.1024
▁ਪਰਮਾਤਮਾ	-10.1026
▁ਮੋ	-10.1032
▁ਅਦਾਲਤਾਂ	-10.1041
ੋਨ	-10.1047
▁ਇਰਾਦਾ	-10.1056
▁1942	-10.1058
▁ਪ੍ਰਸਿੱਧੀ	-10.1072
▁ਰਾਜਕੁਮਾਰ	-10.1072
▁ਦੋਸਤਾਂ	-10.1073
▁v	-10.1075
▁ਟ੍ਰਾਂਸ	-10.108
ਹਾ	-10.1081
19	-10.1082
▁ਅੰਗ	-10.1083
ਦਾਰ	-10.1088
▁ਐਤਵਾਰ	-10.11
▁ਬਚਾਉਣ	-10.1105
▁ਜਾਨ	-10.1106
▁ਰਿਹਾਇਸ਼	-10.112
f	-10.1121
▁ਸਕਿੰਟ	-10.1129
▁ਕਮਿਊਨਿਸਟ	-10.1136
▁ਨੋ	-10.1138
▁ਗਤੀਵਿਧੀ	-10.1148
▁ਨਿਵਾਸੀ	-10.1171
ੀਅਸ	-10.1176
ਵੁੱਡ	-10.1182
▁ਫਿਲਡੇਲ੍ਫਿਯਾ	-10.119
▁ਰਿਹਾਅ	-10.1195
ਕਰਨ	-10.1204
ਚਰ	-10.1206
▁ਸੰਬੋਧਨ	-10.1221
▁ਪਬਲਿਕ	-10.1221
▁ਪਲਾਂਟ	-10.1224
▁ਸਲੇਟੀ	-10.1229
▁80	-10.123
▁ਫਰੰਟ	-10.1245
▁1965	-10.1251
▁ਬਰ	-10.1252
▁ਮੁੱਦੇ	-10.1255
▁ਬਰਫ਼	-10.1256
▁ਮਿਸ਼ਰਤ	-10.1258
▁ਉਲਝਣ	-10.1259
▁ਸੱਚਮੁੱਚ	-10.126
▁ਭੂਮਿਕਾਵਾਂ	-10.1264
▁ਸੰਚਾਲਿਤ	-10.1266
▁ਭਰੇ	-10.1267
ਜਨ	-10.1275
▁ਦੋਸ਼ਾਂ	-10.128
▁ਪੀਡ਼੍ਹੀ	-10.1284
ੇਸ	-10.1288
▁ਡਰਾਫਟ	-10.1291
▁ਲੀਡ	-10.1295
▁ਵਾਨ	-10.1298
▁ਮਾਹਰ	-10.1301
▁ਕਾ	-10.131
▁ਇਤਿਹਾਸਕਾਰ	-10.1311
ਪੋ	-10.1316
▁ਅਨੁਪਾਤ	-10.1317
ੋਸ	-10.132
▁ਰਾਜਦੂਤ	-10.1322
▁ਪੋਲੈਂਡ	-10.1323
▁ਜੈ	-10.1331
▁ਯਾਤਰੀਆਂ	-10.1335
▁ਰਾਜਮਾਰਗ	-10.1336
▁ਪੋਰਟ	-10.1336
▁ਭਰਾਵਾਂ	-10.1338
▁ਇੰਕ	-10.1338
▁ਲੈਣਾ	-10.1339
▁ਗੈਸ	-10.1341
▁ਫਰਾਂਸੀਸੀਆਂ	-10.1342
ਟਾਈਮ	-10.1345
▁ਕਰਨਲ	-10.1357
▁ਮਿਊਂਸਪਲ	-10.1358
▁ਪਤਝਡ਼	-10.1359
▁ਜਿੱਥੋਂ	-10.136
ਕੂ	-10.1375
▁ਹਥਿਆਰਾਂ	-10.1378
▁ਮਾਰੀਆ	-10.1379
▁ਪਿਛਲੀ	-10.1385
ਤੁਸੀਂ	-10.1388
▁ਸਾਂਝੇ	-10.1392
▁ਮੈਕਸ	-10.1393
▁ਖ਼ਤਰਾ	-10.1395
▁ਮਰਦਾਂ	-10.14
▁ਵਿੱਤ	-10.1411
ਵਿਕ	-10.1419
▁ਰੋਜ਼	-10.1422
▁ਬ੍ਰਿਜ	-10.1436
▁ਦੁੱਖ	-10.1437
▁ਐਫ	-10.144
▁ਫ੍ਰੀ	-10.144
▁1957	-10.1443
▁ਆਯੋਜ	-10.1456
▁ਅਣ	-10.1459
▁ਘਣਤਾ	-10.1459
▁ਗ੍ਰਹਿ	-10.1462
▁ਹੋਂਦ	-10.1463
▁ਵੀਹ	-10.1463
▁ਪੇਟੈਂਟ	-10.1492
▁ਵਧਾਇਆ	-10.1492
▁ਸਰਕਟ	-10.1493
▁ਲਿੰਕ	-10.1493
▁ਸਿਰਜਣਾ	-10.1493
▁ਮਾਡ਼ੀ	-10.1494
▁ਰੇਟਿੰਗ	-10.1496
▁ਉੱਪਰਲੇ	-10.1502
▁ਚੈੱਕ	-10.1509
▁ਵਾਰਡ	-10.1523
▁ਚੱਟਾਨਾਂ	-10.1523
▁ਪੌਦਿਆਂ	-10.1526
▁ਸੁਭਾਅ	-10.1526
▁ਫਾਂਸੀ	-10.1528
▁ਡੂੰਘਾਈ	-10.153
▁ਬੈਲਟ	-10.1532
▁ਰਿਪੋਰਟਾਂ	-10.1536
▁ਗਣਤੰਤਰ	-10.1545
▁ਨਿਯੁਕਤੀ	-10.1546
▁ਫੈਕਲਟੀ	-10.1561
▁ਮੁਹਾਰਤ	-10.1561
▁ਵਿਕਟੋਰੀਆ	-10.1563
▁ਸੈਰ	-10.1565
▁ਥੋਡ਼੍ਹ	-10.1579
▁ਸ਼ਾਂਤ	-10.158
▁ਕਬਰ	-10.158
▁ਮਾਮਲਾ	-10.1595
▁ਸੋਧਿਆ	-10.1601
▁70	-10.1605
▁ਹੁਨਰ	-10.1609
▁ਦਾਨ	-10.1614
▁ਨੇਤਾਵਾਂ	-10.1619
▁1976	-10.1624
▁ਸਵੀਡਿਸ਼	-10.1632
▁ਦੁਆਰ	-10.1637
▁""(	-10.1645
▁ਪ	-10.1646
▁ਮਹਿਮਾਨ	-10.1647
▁ਸਹਿਯੋਗੀਆਂ	-10.1652
▁ਮਿਹਨਤ	-10.1653
▁ਰੈੱਡ	-10.1661
▁ਤਬਾਹੀ	-10.1662
ਕੋਨ	-10.1666
ਰੂ	-10.1672
ਯ	-10.1675
ਵੋ	-10.1679
▁ਗਵਾਹੀ	-10.1684
▁ਟਾਈਮ	-10.1686
▁ਬੰਦੂਕ	-10.1689
▁ਭੇਜ	-10.1691
▁ਅਭਿਨੇਤਰੀ	-10.1693
▁ਪਹਾਡ਼ਾਂ	-10.1696
▁ਤਣਾਅ	-10.17
▁ਰੁੱਤ	-10.17
▁(3)	-10.1702
ਵਿਸ਼ਵਵਿਆਪੀ	-10.1709
▁ਰਾਇਲ	-10.1715
ਅਪ	-10.1718
▁ਮਿਸਰ	-10.172
▁ਨਿ	-10.1724
▁ਡ	-10.173
▁ਲੇਨ	-10.173
▁ਅੱਧਾ	-10.1731
▁ਸਬ	-10.1733
▁ਸਮਰਪਣ	-10.1735
▁ਘਾਹ	-10.1737
▁ਕਿਸ	-10.1754
▁ਸਿੱਖਣ	-10.1754
▁ਭਾਵ	-10.1755
▁ਅਜ਼ਰਬਾਈਜਾਨ	-10.176
▁ਰੋਲ	-10.176
▁ਫੁੱਲਾਂ	-10.176
▁ਕਾਰਾਂ	-10.1763
▁ਤੱਤਾਂ	-10.1763
▁ਕੈ	-10.1763
▁ਰੱਬ	-10.1768
▁ਬਹੁ	-10.1769
▁ਭਰਪੂਰ	-10.177
▁ਹਮਲਿਆਂ	-10.177
▁ਸੰਕਟ	-10.1772
▁ਇਨਾਮ	-10.1772
▁ਸਿਧਾਂਤਾਂ	-10.179
▁ਕ੍ਰਿਸ	-10.1794
ਮੈਨੂੰ	-10.1808
▁ਸਮਲਿੰਗੀ	-10.1808
▁ਮੰਨ	-10.1818
▁ਇਤਰਾਜ਼	-10.182
▁ਕਲਾਸਿਕ	-10.1829
▁ਮੰਡਲ	-10.1838
▁ਪੂ	-10.1839
▁ਸਿੱਟਾ	-10.1841
▁ਬ੍ਰਿਗੇਡ	-10.1842
▁ਮੈ	-10.1845
▁ਕਰਦਿਆਂ	-10.1846
▁ਸਵਾਰੀ	-10.1851
▁ਬੰਬ	-10.1855
▁ਦੰਦਾਂ	-10.1858
▁ਰੂਪਾਂ	-10.1874
▁ਫੁੱਟਬਾਲਰ	-10.1875
▁ਪੋਲ	-10.1876
▁ਕਰੋਡ਼	-10.1878
▁ਸਮੀਖਿਆਵਾਂ	-10.1881
▁ਮਾਪਿਆਂ	-10.1881
▁ਮਿਆਰ	-10.1897
▁ਚਾਰਜ	-10.1899
▁ਰੱਖਦੀ	-10.1907
▁ਗਿਰਾਵਟ	-10.1912
▁ਸੁੰਦਰਤਾ	-10.192
▁ਨਿਊਜ਼	-10.1929
▁ਜ਼ਿੰਮੇਵਾਰੀਆਂ	-10.193
▁ਪੈਟਰਨ	-10.1932
ਿਡ	-10.1943
▁ਲੁਕ	-10.1946
▁ਸਵੀਡਨ	-10.1948
▁ਪੁੰਜ	-10.1948
▁90	-10.1954
▁ਸਾਡਾ	-10.1956
▁ਮਾਲਕਾਂ	-10.1963
▁ਵੀਅਤਨਾਮ	-10.1971
▁ਹ	-10.1973
▁ਅੱਖਰ	-10.1976
▁ਸ਼ਿਕਾਇਤ	-10.1987
▁ਚੰਦਰਮਾ	-10.1989
▁ਇੰਜੀਨੀਅਰ	-10.1989
▁ਅਵਾਰਡ	-10.2
ਹੈ	-10.2
▁ਖ਼ਬਰਾਂ	-10.2002
▁ਅਥਲੈਟਿਕ	-10.2008
▁ਸਕ੍ਰੀਨ	-10.2008
▁ਮਾਈਕ	-10.2013
▁ਆਕਸਫੋਰਡ	-10.2022
▁ਨੌਜਵਾਨਾਂ	-10.2028
▁ਡਬਲ	-10.2035
▁ਜੈਕਸਨ	-10.2054
▁ਢਾਂਚਾ	-10.2056
▁ਤੋਹਫ਼ੇ	-10.2056
▁ਜੰਗਲਾਤ	-10.2057
▁ਟੈਨਿਸ	-10.2059
▁ਗੱਡੀਆਂ	-10.2062
▁ਸਮਾਨਤਾ	-10.2066
▁ਪੱਖੀ	-10.2068
▁ਕ੍ਰਿਕਟ	-10.207
▁ਤਨਖਾਹ	-10.2074
▁ਲਡ਼ਕੀ	-10.2087
▁ਕਾਂਸੀ	-10.2094
▁ਸਖਤ	-10.2097
▁ਸਿ	-10.2103
ਆਮ	-10.2105
▁ਯਤਨ	-10.2109
▁ਘੋਡ਼ਸਵਾਰ	-10.2115
▁ਲਾਰਡ	-10.2116
▁ਵਾਟਰ	-10.2126
▁ਅਸਧਾਰਨ	-10.2129
▁1962	-10.2129
▁ਅਲੋਪ	-10.213
▁ਬਿਲ	-10.213
▁ਡਿਉਕ	-10.2133
▁1946	-10.2134
ਟੂ	-10.2151
▁ਬੰਦੂਕਾਂ	-10.2156
▁ਅਨੁ	-10.2157
▁that	-10.2166
▁ਖੰਭਾਂ	-10.2181
▁ਵਾਈਨ	-10.2182
▁1952	-10.2199
▁ਲੈਸ	-10.2201
▁ਇਰਾਦੇ	-10.2203
▁ਪੱਤੇ	-10.2205
▁ਵਿਲੀਅਮਜ਼	-10.2206
▁ਵਿਕਲਪਿਕ	-10.221
ੋਂ	-10.2219
▁ਸਾਈਕਲ	-10.222
ੀਨ	-10.2221
▁ਪੌਪ	-10.2225
▁ਟੀਚੇ	-10.2246
▁ਪ੍ਰਿੰਸ	-10.2246
▁ਯੂਰੋ	-10.2251
▁ਗ੍ਰਾਂਟ	-10.2259
▁ਪਦਾਰਥਾਂ	-10.2259
▁ਸੰਗਠਿਤ	-10.2266
t	-10.227
▁ਕਮਿਸ਼ਨਰ	-10.2275
▁ਮਿਲੀਆਂ	-10.2275
ਮੁਕਾਬਲਤਨ	-10.2277
▁ਭਾਫ਼	-10.2277
▁ਐਲਿਜ਼ਾਬੈਥ	-10.2278
▁ਫਿਲੀਪੀਨਜ਼	-10.228
▁37	-10.2281
ਜਦੋਂ	-10.2282
▁ਆਓ	-10.2292
ਆਨ	-10.2312
▁ਸਹੁੰ	-10.2314
▁ਕੁਸ਼ਤੀ	-10.2314
▁ਬੇਡ਼ੇ	-10.2314
▁ਮੁਕੰਮਲ	-10.2315
ੀਅਰ	-10.2318
ਾਨ	-10.2324
ਉ	-10.234
▁ਭੂਤ	-10.2344
▁ਡੂੰਘੀ	-10.2346
ਸ਼ੀ	-10.2352
▁ਖੁਦਾਈ	-10.2352
▁ਸ਼ੀਸ਼ੇ	-10.2354
▁ਸੋਚ	-10.2372
▁ਕਾਲੀ	-10.2375
▁ਘਟਾ	-10.2379
▁ਸ਼ੂਟਿੰਗ	-10.239
▁ਮੈਸੇਚਿਉਸੇਟਸ	-10.239
▁ਸਦਨ	-10.2391
▁ਵੈੱਬ	-10.2391
▁ਅਰਧ	-10.2391
▁1956	-10.2392
▁ਦੇਖਦੇ	-10.2392
▁ਪੈਸਾ	-10.2393
▁ਬੋਲੀ	-10.2394
▁ਕਲਾਸੀਕਲ	-10.2397
▁ਸੰਤੁਸ਼ਟ	-10.2412
▁ਟਾਈਮਜ਼	-10.2414
▁ਡੇ	-10.2414
▁ਲੋ	-10.2425
▁ਜੋਡ਼ਨ	-10.2426
▁ਉਚਿਤ	-10.2426
▁ਪਰਮੇਸ਼ੁਰ	-10.2428
▁ਨਾਈਟ	-10.243
▁ਪੋ	-10.2432
▁ਕਿੱਥੇ	-10.2433
ਬਰੀ	-10.2442
▁ਕੁਆਰਟਰ	-10.2446
▁ਫਰੈਡਰਿਕ	-10.2447
▁ਫੋਰਟ	-10.2448
▁ਲਡ਼ਨ	-10.2454
▁ਤ	-10.2458
▁ਬੇਸ	-10.246
▁ਜਾਣਦਾ	-10.2476
▁ਸਿਪਾਹੀ	-10.2497
▁ਕਹਿ	-10.25
▁ਕੇਂਦਰਤ	-10.2502
c	-10.2503
▁ਮਿਲੀਮੀਟਰ	-10.2504
▁ਸੀਮਾਵਾਂ	-10.2506
▁ਮੋਰ	-10.2507
▁ਲਿਓਨ	-10.2512
▁ਫੰਕਸ਼ਨ	-10.2519
▁ਬਜਟ	-10.254
▁1941	-10.2542
▁ਪੀਣ	-10.2547
▁ਹਾਰਨ	-10.2562
▁ਹਟਾਉਣ	-10.2563
▁ਨਿਸ਼ਾਨਾ	-10.2565
▁ਸ਼ਾਸਤਰੀ	-10.2566
▁ਗਣਨਾ	-10.2576
▁ਨਿਗਮ	-10.2578
▁ਬਿਓਰੋ	-10.2578
▁ਹਿੱਤਾਂ	-10.2591
▁ਧਿਰ	-10.2596
▁ਪਦਾਰਥ	-10.2598
▁ਸੁੱਟਣ	-10.2602
▁ਜਾਨਵਰ	-10.2603
▁33	-10.2612
▁ਸ਼੍ਰੇਣੀਬੱਧ	-10.2616
ਅੰਦਾਜ਼	-10.2624
▁ਸਪੋਰਟਸ	-10.2626
▁ਮੱਛੀਆਂ	-10.2638
▁ਸੰਪਤੀ	-10.2647
▁ਛਾਤੀ	-10.2649
▁ਸੁਣਨ	-10.2651
▁ਨਤੀਜਿਆਂ	-10.2655
▁ਸਾਡ਼	-10.2656
▁ਚੌਥੀ	-10.2657
▁ਬਿਰਤਾਂਤ	-10.2668
▁ਰੈਸਟੋਰੈਂਟ	-10.2676
ੱਕ	-10.2684
▁ਸਾਂਝੀ	-10.2686
▁1959	-10.2686
ਦਰ	-10.2688
▁ਘੋਸ਼ਣਾ	-10.2694
▁ਮਹਿਲ	-10.2695
▁ਬੱਚਾ	-10.2698
▁ਤੁਹਾਡਾ	-10.2701
▁ਕੋਰੀਆਈ	-10.2702
▁ਉਦਯੋਗਿਕ	-10.2704
▁ਪਾਪ	-10.2708
ੀਓ	-10.272
▁ਗ੍ਰੇ	-10.2732
▁ਰੁਕਾਵਟਾਂ	-10.2732
▁ਲਿਮਟਿਡ	-10.2732
▁ਸਾਹਿਤਕ	-10.2733
▁ਰਣਨੀਤਕ	-10.2735
▁ਮਾਨਸਿਕ	-10.2736
▁ਯਿਸੂ	-10.2736
▁ਰਾਊਂਡ	-10.2745
▁1963	-10.2753
▁ਅਸਮਾਨ	-10.2772
▁ਅਟਾਰਨੀ	-10.2772
ਅਸੀਂ	-10.278
▁ਮੰਜ਼ਲ	-10.2791
ਮੈਂਟ	-10.28
ਲਾਈਨ	-10.2808
▁ਰੂਮ	-10.2809
▁ਅਹਿਸਾਸ	-10.281
▁ਸੁਣਵਾਈ	-10.281
▁ਹੱਕਦਾਰ	-10.2811
▁ਅਸੈਂਬਲੀ	-10.2812
▁ਬਾਈਬਲ	-10.2814
▁ਅਰਥਾਤ	-10.2815
▁ਗੁਣਾ	-10.282
▁ਪਲੇ	-10.2833
▁ਵਸਤੂ	-10.2846
▁ਘੰਟਿਆਂ	-10.2851
▁ਰਸਾਇਣਕ	-10.2854
▁ਨਿਕਾਸ	-10.2857
▁ਗਲਪ	-10.2862
▁ਲਹਿਰ	-10.2867
▁ਸਟੇਸ਼ਨਾਂ	-10.287
▁44	-10.2874
ਸਟਾਰ	-10.2891
▁1936	-10.2892
-3	-10.2894
▁ਆਲੋਚਕਾਂ	-10.2902
b	-10.2904
▁ਨਹਿਰ	-10.2906
▁1958	-10.2924
▁ਟਿ	-10.2927
▁ਸੁਪਨਾ	-10.2931
▁ਆਰਥਰ	-10.2932
-2	-10.2938
▁ਬੰਨ੍ਹ	-10.2939
▁ਬ੍ਰਾਇਨ	-10.2944
▁ਕਾਂਗ	-10.2957
▁ਸਰਬ	-10.2959
▁1918	-10.2968
▁ਹਰੇ	-10.299
▁64	-10.2999
▁ਕੰਨ	-10.2999
ਡੇਲ	-10.3003
▁ਵ	-10.3006
▁ਜਨਸੰਖਿਆ	-10.3008
▁ਬਹੁਗਿਣਤੀ	-10.3008
▁is	-10.3027
▁ਅਰਲ	-10.3028
▁ਵਿਗਿਆਨੀਆਂ	-10.3038
▁1943	-10.3041
▁ਓਨਟਾਰੀਓ	-10.3048
▁ਮੰਤਰਾਲੇ	-10.3048
▁ਫੈਡਰੇਸ਼ਨ	-10.3048
▁ਅਧਿਐਨਾਂ	-10.305
▁ਹਿੰਸਕ	-10.3055
▁ਖਰਚ	-10.3058
▁ਨੀਂਹ	-10.3067
▁ਕੈਦੀ	-10.3072
▁ਦਸਤਾਵੇਜ਼ੀ	-10.3072
ਬਸ	-10.3086
▁ਮੌਕਿਆਂ	-10.3088
▁ਲੰਮਾ	-10.3088
▁ਨਿੰਦਾ	-10.3089
▁ਬੁ	-10.3089
▁ਨਕਾਰਾਤਮਕ	-10.309
ਐਚ	-10.3092
▁ਹਾਂਗ	-10.3095
▁ਰੇਂਜ	-10.3103
▁ਪਿਆਰੇ	-10.3113
▁ਨਕਲ	-10.3114
▁ਡੇਸ	-10.3122
ਪਛਾਣ	-10.3128
▁1947	-10.3129
▁ਬਲੂ	-10.3129
▁ਆਸਟ੍ਰੀਆ	-10.313
▁ਮਿਸੌਰੀ	-10.3131
▁ਐਮਰਜੈਂਸੀ	-10.3131
▁ਗਿਟਾਰ	-10.3137
▁ਇਕਲੌਤ	-10.3142
▁ਅਸਪਸ਼ਟ	-10.3143
▁ਵਰ	-10.3152
▁ਕੰਧਾਂ	-10.3165
▁ਰੇਨ	-10.3166
▁ਗੋਲੀਬਾਰੀ	-10.3169
▁ਪੀਰੀਅਡ	-10.317
▁ਖਾਰ	-10.3177
▁ਛੋਟ	-10.3186
▁ਸ਼ਰਾਬ	-10.3186
▁ਪ੍ਰਾਂਤ	-10.3188
▁ਪ੍ਰਭਾਵਾਂ	-10.319
▁ਰੀਅਲ	-10.3198
12	-10.32
ਮੇ	-10.3202
▁ਕਲੱਬਾਂ	-10.3208
▁ਚੇਨ	-10.321
▁ਰਿਟਾਇਰਮੈਂਟ	-10.321
▁3.	-10.3215
▁ਸ਼ਰਤਾਂ	-10.3218
▁ਫੋਟੋ	-10.3218
▁ਅਟਲਾਂਟਿਕ	-10.3219
▁300	-10.322
▁ਅੰਡੇ	-10.3225
▁ਜਾਪਾਨੀ	-10.3227
▁ਪੰਜਵੇਂ	-10.3227
▁ਬਾਜ਼ਾਰ	-10.3232
▁ਕਵੀ	-10.3233
▁ਭਰੀ	-10.3233
▁ਕੱਢਣ	-10.3237
▁ਸਪਾਂਸਰ	-10.325
▁ਬ੍ਰਾਉਨ	-10.3251
▁ਲਡ਼ਾਕੂ	-10.3252
▁ਕਰੇ	-10.3253
▁1955	-10.3253
▁1954	-10.3254
▁ਨੈਤਿਕ	-10.3255
▁ਨੋਟਸ	-10.3258
▁ਓਰ	-10.3262
▁ਖਰੀਦਣ	-10.3278
▁ਸੌਂਪ	-10.3284
▁34	-10.329
▁ਬਾਹਾਂ	-10.3301
ਮੋਰ	-10.3306
▁ਕੈਪ	-10.3306
▁ਐਡ	-10.3306
▁ਲਾਈਟ	-10.3307
▁ਡਿਪਟੀ	-10.3323
▁ਕੋਲਾ	-10.3329
▁ਬਿਤਾਇਆ	-10.3332
▁ਪੂਜਾ	-10.3333
▁ਚੁੱਕਿਆ	-10.3333
▁ਬੈਚਲਰ	-10.3334
▁1900	-10.3335
▁ਫਿੱਟ	-10.334
▁ਹਾਰਵਰਡ	-10.3342
▁ਅਭਿਆਸਾਂ	-10.3361
▁m	-10.3362
▁ਹੱਡੀ	-10.3365
▁ਬਰਖਾਸਤ	-10.3373
▁ਐਲਬਰਟ	-10.3377
▁ਵਿਲਸਨ	-10.3378
▁ਪੰਛੀਆਂ	-10.3388
▁ਫ	-10.339
▁ਆਜ਼ਾਦ	-10.3402
▁ਸਟੀਫਨ	-10.3407
30	-10.3412
▁ਫਾਇਦਾ	-10.3415
▁ਅੰਕਡ਼ਾ	-10.3416
▁ਬਸਤੀਵਾਦੀ	-10.3417
▁ਠੰਡੇ	-10.3417
▁1953	-10.3419
▁ਕੋਨੇ	-10.3424
▁ਬਜ਼ੁਰਗਾਂ	-10.3429
▁ਸਿੱਧੀ	-10.3435
▁ਚੁੱਕਣ	-10.3443
▁ਬੈਕ	-10.3444
▁ਪੁਰਤਗਾਲੀ	-10.3451
-20	-10.3452
▁ਕੀਮਤੀ	-10.3452
r	-10.3456
▁ਸੈਮੀਫਾਈਨਲ	-10.3457
▁ਥਰਮੰਡ	-10.3457
▁ਅੰਕਡ਼ਿਆਂ	-10.3457
▁ਫਰਮ	-10.3458
▁ਪ੍ਰੇਰਣਾ	-10.3459
▁ਵਿਗਾਡ਼	-10.3459
▁ਨਿਯਮਿਤ	-10.3461
▁ਵਰਗਾ	-10.3461
▁ਇੰ	-10.3462
▁ਅਭਿਨੈ	-10.3465
▁ਮੁਕਤੀ	-10.3472
▁ਰੁਝਾਨ	-10.3479
▁ਲੱਭ	-10.348
▁ਸ਼੍ਰੀ	-10.3483
▁ਵਾ	-10.3485
▁ਜਿੰਨੀ	-10.3489
▁ਪੱਧਰੀ	-10.3489
▁ਮਿਲਦੀ	-10.3496
▁ਜੋਡ਼ਦਾ	-10.3504
▁ਮੋਬਾਈਲ	-10.3509
▁ਚੈਂਬਰ	-10.3515
▁ਬਦਲਾ	-10.3521
▁ਅਮਰੀਕੀਆਂ	-10.3527
▁ਪਹਾਡ਼ੀਆਂ	-10.3531
▁ਉੱਤਮ	-10.3535
v	-10.3535
▁ਜੈਜ਼	-10.3535
ਸਟਨ	-10.3542
▁ਮੈਕਸੀਕਨ	-10.3542
▁ਭੂਗੋਲਿਕ	-10.3544
▁ਅਸਾਧਾਰਣ	-10.3544
▁ਰੋਕਿਆ	-10.3546
ਤੀ	-10.3555
▁ਟੂ	-10.3573
▁ਰੁੱਖਾਂ	-10.358
▁ਕੋਵਿਡ	-10.3583
▁ਘਿਰਿਆ	-10.3583
▁ਕਵਰੇਜ	-10.3584
▁ਜਾਣਦੀ	-10.3585
▁ਨੈਤਿਕਤਾ	-10.3588
▁ਜਿੱਤਾਂ	-10.3593
▁ਚਿੱਤਰਕਾਰ	-10.3595
ਬੂ	-10.3597
▁ਚਿੱਤਰਾਂ	-10.36
▁ਨਰਮ	-10.3607
▁ਕੋਲੀਨ	-10.3607
▁ਪਾਇਲਟ	-10.361
▁ਅਰ	-10.3614
▁ਇੰਡੋਨੇਸ਼ੀਆ	-10.3625
ਰਖਾਅ	-10.3625
▁ਅੱਡਾ	-10.3625
▁ਯੋਜਨਾਬੰਦੀ	-10.3626
▁ਗਿਰਜਾਘਰ	-10.3626
▁ਅਪੰਗਤਾ	-10.3628
▁ਲੰਬਕਾਰੀ	-10.3628
▁ਬਚਿਆ	-10.3628
▁ਕੰਸਾਸ	-10.3629
▁ਮਾਮੂਲੀ	-10.3629
▁ਅਰਬੀ	-10.3632
▁ਕ੍ਰਿਸਮਸ	-10.3632
ਪੂਰਨ	-10.3632
▁ਪ੍ਰਬੰਧਕ	-10.3632
ਪੁਰ	-10.3644
▁ਸਿਫਾਰਸ਼	-10.3648
੍	-10.3656
▁ਫੈਕਟਰੀ	-10.3661
▁ਐਂਡਰਸਨ	-10.3668
▁ਇੰਡੀਆਨਾ	-10.3669
▁ਨੀਂਦ	-10.3669
▁ਅਯੋਗ	-10.3675
▁ਸੋ	-10.3681
ੰ	-10.3681
▁ਸੁਤੰਤਰਤਾ	-10.3682
▁ਨੀਲੇ	-10.3686
▁ਵੋਟਿੰਗ	-10.3703
ਮੇਰੇ	-10.3705
▁ਪ੍ਰਤੀਕਿਰਿਆ	-10.3712
▁ਸੰਤੁਲਨ	-10.3712
▁1912	-10.3715
▁ਨ	-10.3718
▁ਲੱਗਣ	-10.3723
▁ਮਿਸ਼ਰਣ	-10.3732
ਦਿ	-10.3733
▁ਬੇਕਰ	-10.3736
▁ਦੱਸਣ	-10.3738
▁ਬਾਸ	-10.374
▁ਡਰਾਈਵਰ	-10.3742
▁ਕਾਰਲ	-10.3744
▁ਸਫਲਤਾਪੂਰਵਕ	-10.3753
▁ਉਦਾਰਵਾਦੀ	-10.3772
▁p	-10.3778
▁ਮੁਅੱਤਲ	-10.3782
▁ਯਾਰਕ	-10.3788
▁ਅਪਾਰਟਮੈਂਟ	-10.3796
▁ਪਨਾਹ	-10.3796
▁ਡੂੰਘੇ	-10.3798
▁ਗੇ	-10.3798
▁ਬੇਨ	-10.3805
ਫੀ	-10.3811
ਸਿਸ	-10.3812
▁ਸੈਸ਼ਨ	-10.382
▁ਫ੍ਰੈਂਕ	-10.382
▁ਟੁੱਟਣ	-10.3828
▁ਸੰਸਦੀ	-10.3839
▁ਉਪਭੋਗਤਾ	-10.3842
▁ਹੱਡੀਆਂ	-10.3848
▁ਡਰਸਟ	-10.3851
▁ਬੋਰੋ	-10.3851
▁ਮੁ	-10.3864
▁ਲਾਅ	-10.3876
▁ਪ੍ਰ	-10.3896
ਪਲ	-10.3898
▁ਬੈਲੇ	-10.39
▁ਪੈਨਲ	-10.3904
▁ਘਟਾਉਣ	-10.3911
ਫ਼	-10.3913
▁ਵਾਹਨਾਂ	-10.3915
ਲਸ	-10.3916
▁ਡੁੱਬ	-10.3923
▁ਐਨਰਜੀ	-10.3928
▁ਕਮਾਈ	-10.3928
▁1939	-10.393
):	-10.3933
▁ਭਰਿਆ	-10.3937
ਐਕਸ	-10.3941
▁ਦੁਕਾਨ	-10.395
ing	-10.3951
▁ਕਾਰਪੋਰੇਸ਼ਨ	-10.3951
▁ਮਰਨ	-10.396
▁ਮੱਕੀ	-10.3978
ਕੁ	-10.3978
▁1949	-10.3985
▁ਬੁੱਕ	-10.3993
▁ਦਿੰਦੀਆਂ	-10.4
ਕਿਨ	-10.401
▁ਪਈ	-10.4019
▁ਐਂਟਰੀ	-10.402
▁ਦਾਇਰ	-10.402
▁ਅਪ	-10.402
▁ਕਿਊਬਾ	-10.4021
▁ਬੀਚ	-10.4023
▁ਅਸਫਲਤਾ	-10.4023
▁1919	-10.4024
ਸਕ	-10.4028
▁ਮਜ਼ਾਕ	-10.4032
ਆਪਣੇ	-10.4034
▁ਉਦਘਾਟਨ	-10.4044
ਸੂ	-10.4055
ਲੂ	-10.4061
▁ਚਾਰਟਰ	-10.4062
▁ਆਸਟਰੀਆ	-10.4062
▁ਅਵਸਥਾ	-10.4062
▁ਚਰਚਾਂ	-10.4064
▁ਯੂਐਸ	-10.4068
▁ਸਿਨੇਮਾ	-10.4073
▁(1	-10.4075
18	-10.4082
▁ਸਾ	-10.409
ਡਬਲਯੂ	-10.41
▁ਚੌਥਾ	-10.4102
▁ਕੁਆਲੀਫਾਈ	-10.4103
▁ਮੁਫ਼ਤ	-10.4106
▁ਪੱਟੀ	-10.4107
▁ਫ਼ਿਲਮ	-10.4109
▁ਇਟਾਲੀਅਨ	-10.4111
▁ਕੌਣ	-10.4114
ਯਾ	-10.4123
▁ਕਾਸਟ	-10.4127
▁ਮੁਲਾਕਾਤ	-10.4127
ਲੇਨ	-10.413
10	-10.4131
▁ਬਾਇਓ	-10.4132
u	-10.4132
▁ਕੀਤਾਃ	-10.4133
▁ਕੈਲੀ	-10.4133
▁ਪੇਪਰ	-10.4134
▁ਐਂਡਰਿਊ	-10.4141
▁ਸੁਪਨਿਆਂ	-10.4148
▁ਆਰਕੈਸਟਰਾ	-10.4149
▁ਕਰਾਂਗਾ	-10.4155
▁ਜ਼ਮੀਨਾਂ	-10.4167
ਹਾਲਾਂਕਿ	-10.4169
ੌ	-10.419
▁ਸੈ	-10.4192
▁ਮਹੱਤਵ	-10.4193
▁ਜੁਰਮਾਨਾ	-10.4193
ਨੂੰ	-10.4202
▁ਜੁਡ਼ੀ	-10.4214
▁ਖ	-10.4214
▁ਉਸਾਰੀ	-10.422
▁ਭੁੱਖ	-10.4227
▁ਘਡ਼ੀ	-10.4234
▁ਵਕਾਲਤ	-10.4238
▁ਸਮੁੱਚੀ	-10.4238
▁ਇੰਟਰਨੈਸ਼ਨਲ	-10.4238
▁ਚਾਕੂ	-10.4238
▁ਸੂਬਾਈ	-10.4242
▁ਸਥਿਰਤਾ	-10.4247
▁ਜ਼ੀਰੋ	-10.425
▁it	-10.4257
▁ਵਿਦਵਾਨ	-10.4263
▁ਫੋਰਸ	-10.4264
▁ਗੇਂਦ	-10.4266
▁ਡਿੱਗਣ	-10.4269
▁ਮਾਈ	-10.4281
▁ਬਿਤਾਏ	-10.4284
▁ਮੁਆਵਜ਼ੇ	-10.4284
ਪਸ	-10.4288
ਾਹ	-10.4288
▁ਮੂਰ	-10.4288
ਲੇਟ	-10.429
▁ਦਾਖਲਾ	-10.4292
▁ਮਾ	-10.4292
▁51	-10.4295
ਘੱਟ	-10.4301
▁ਲੱਗੀ	-10.4303
▁ਪ੍ਰੋਡਕਸ਼ਨ	-10.4308
▁ਲਗਾਈ	-10.4327
▁ਨੇਡ਼ਿਓਂ	-10.4329
▁ਮਿਨੇਸੋਟਾ	-10.433
▁ਮੈਂਬਰਸ਼ਿਪ	-10.4332
▁ਯੋਜਨਾਬੱਧ	-10.4332
▁1916	-10.4333
▁ਵਿਭਿੰਨਤਾ	-10.4338
▁ਖੁੱਲ੍ਹਾ	-10.434
20	-10.4343
p	-10.4348
▁ਟਾਈ	-10.4351
▁ਖੁਰਾਕ	-10.4356
ਸੀਆ	-10.4373
▁ਰਾਜਵੰਸ਼	-10.4375
▁ਅਸੰਭਵ	-10.4377
▁ਮਾਣਹਾਨੀ	-10.4378
▁ਮਿਲਟਰੀ	-10.4381
▁ਹੈਰਾਨੀ	-10.4382
▁ਬਾਈ	-10.4384
▁ਮਰੀਜ਼ਾਂ	-10.4392
▁ਤਕਨੀਕਾਂ	-10.4393
h	-10.4402
▁ਫੈਲੋ	-10.4402
▁ਓਵਰ	-10.4414
▁ਚਾਹੀਦੇ	-10.442
▁ਤਾਲਮੇਲ	-10.442
▁ਡਾਇਓਸਿਸ	-10.442
▁1937	-10.4423
▁ਨਮੂਨੇ	-10.4425
▁ਮਾਰਕੀਟਿੰਗ	-10.4429
▁ਹੋਣੀ	-10.4433
▁ਵਾਕ	-10.4435
▁ਹੰਗਰੀ	-10.4445
ਣਾ	-10.4452
▁ਚਡ਼੍ਹਨ	-10.4457
▁ਵੇਰਵਾ	-10.4466
ਡੂ	-10.4466
▁ਨੱਕ	-10.4468
▁ਫ਼ਲਸਫ਼ੇ	-10.4468
▁ਟੋਰਾਂਟੋ	-10.4468
ਦੀਆਂ	-10.4475
▁ਡਾਟਾ	-10.4477
▁ਦੇਰੀ	-10.4478
▁ਵੱਖਰੀਆਂ	-10.4483
▁ਜਸ਼ਨ	-10.4492
▁ਬੀਜ	-10.4493
▁ਕਿਤੇ	-10.4494
▁ਸੰਦੇਸ਼	-10.4494
▁ਫਰੇਮ	-10.4499
▁ਛਾਲ	-10.4507
ਦਹਾਕਿਆਂ	-10.4513
▁ਕੈਂਬ੍ਰਿਜ	-10.4515
▁ਬਚਪਨ	-10.4515
▁ਪੋਲਿਸ਼	-10.4518
▁ਸੋਨ	-10.452
ੈਂਸ	-10.4522
ਵਾਲ	-10.4525
▁ਬਸਤੀਆਂ	-10.4529
▁ਭੈਣਾਂ	-10.453
▁ਚਿੱਟੀ	-10.4535
▁ਬੌਬ	-10.4542
▁ਪਡ਼ਾਵਾਂ	-10.4559
▁ਪ੍ਰਵਾਹ	-10.4559
▁ਮਨਾਉਣ	-10.4559
▁ਸੰਕੁਚਨ	-10.456
▁ਧੋਖਾਧਡ਼ੀ	-10.456
▁36	-10.4563
-17	-10.4569
▁ਵਧਦਾ	-10.4569
▁ਚਿੱਤਰਕਾਰੀ	-10.4576
▁ਹੁਕਮ	-10.4585
▁c	-10.4588
▁ਗਾਇਕਾ	-10.4589
▁ਇਰਾਕ	-10.46
ਗੇਟ	-10.4612
▁ਕਿੰਨੀ	-10.4613
▁ਚ	-10.4614
▁ਵਿਦੇਸ਼	-10.462
ਸਲ	-10.4622
▁ਯੂਕਰੇਨ	-10.4624
▁ਮੀਟ	-10.463
▁38	-10.463
ਥਾ	-10.4632
▁ਪੀਅਰ	-10.4639
▁1914	-10.464
ੇਂ	-10.4648
▁ਲੂਸੀਆਨਾ	-10.4653
▁ਬਨਸਪਤੀ	-10.4656
▁ਖੇਡਣਾ	-10.4656
▁ਡੈਨੀਅਲ	-10.4657
ਜਲ	-10.4657
ਗਲ	-10.4663
▁ਓਕ	-10.4676
ੁੱਝ	-10.4683
▁ਕਮੇਟੀਆਂ	-10.4688
▁ਕੈਰੀ	-10.4692
▁ਹੈਰੀ	-10.4694
▁ਇਕਰਾਰਨਾਮਾ	-10.47
▁ਮੀਂਹ	-10.47
▁ਪੂਲ	-10.47
▁ਦੁਰਲੱਭ	-10.4703
▁ਨਸ਼ੀ	-10.4703
▁ਗਲੇ	-10.4706
▁ਜੀਵਤ	-10.4707
▁ਲਗਾਏ	-10.4708
▁ਕਾਲਮ	-10.4711
▁ਰਹਿਤ	-10.4712
▁ਹੋਮ	-10.4715
▁ਉੱਦਮਾਂ	-10.473
▁ਮੱਧਮ	-10.4737
▁ਸਕਿਆ	-10.4748
ਆਫ	-10.4749
▁ਦਖਲਅੰਦਾਜ਼ੀ	-10.4749
ਮੇਲ	-10.475
▁ਰੇਸਿੰਗ	-10.4751
▁ਰਿਪਬਲਿਕਨ	-10.4752
ਾਸ	-10.4752
▁ਡਿਸਕ	-10.4755
▁ਬੁੱਧੀਮਾਨ	-10.4756
▁ਸੀਜ਼ਨਾਂ	-10.477
ੀਜ਼	-10.478
▁ਗ੍ਰੇਟ	-10.4782
▁ਪ੍ਰਭੂ	-10.4791
▁ਕਾਮਯਾ	-10.4795
▁ਟਰੇਲ	-10.4796
▁ਮੈਡੀਸਨ	-10.4797
▁(17	-10.4802
▁ਵਿੰਡੋਜ਼	-10.4805
ਕਾਮ	-10.4808
▁ਹਡ਼੍ਹ	-10.4822
▁ਖ਼ਬਰ	-10.4822
▁ਨਸਲਾਂ	-10.4832
▁ਜ	-10.4834
▁ਜਮ੍ਹਾਂ	-10.4843
▁ਨੁਮਾਇੰਦੇ	-10.4843
▁ਓਟਾਵਾ	-10.4843
▁ਖਗੋਲ	-10.4843
▁ਬਾਗ਼	-10.4843
▁ਕਬੀਲਿਆਂ	-10.4844
▁ਸੀਰੀਆਈ	-10.4845
▁ਨੀਦਰਲੈਂਡਜ਼	-10.4846
▁ਪ੍ਰਮਾਣਿਤ	-10.4848
▁ਕਲਾਸਾਂ	-10.4857
▁ਨਾਈਜੀਰੀਆ	-10.486
ਹੀ	-10.4869
▁ਯੂਨਿਟ	-10.487
ਬਹੁਤ	-10.487
▁ਫਾਈਲ	-10.4878
▁ਪਾਤਰਾਂ	-10.4879
▁ਬਣਾਉਂਦੀ	-10.4883
▁ਜ਼ਿਲ੍ਹਿਆਂ	-10.4891
▁ਮੈਟਰੋਪੋਲੀਟਨ	-10.4891
▁ਪ੍ਰਤਿਭਾ	-10.4892
▁ਸਾਇਮਨ	-10.4894
▁ਸੁੱਟਿਆ	-10.4895
▁ਫਰਾਂਸਿਸ	-10.4897
▁ਵਿਨਾਸ਼ਕਾਰੀ	-10.4899
ਜ਼ਰ	-10.4905
▁ਝੀਲਾਂ	-10.4908
▁ਪਟੀਸ਼ਨ	-10.4912
ਦੋ	-10.4914
▁48	-10.4933
▁ਦਿਲਚਸਪ	-10.4938
▁ਵਰ੍ਹੇਗੰਢ	-10.4939
▁ਸਾੱਫਟਵੇਅਰ	-10.4939
▁ਦੇਵਤਾ	-10.494
▁ਸ਼ਿਵਾਜੀ	-10.4941
▁ਲੰਘਦਾ	-10.4942
▁ਫਰਸ਼	-10.4942
▁ਲਿਬਰਲ	-10.4947
▁ਦੁੱਧ	-10.4948
▁ਫਲੈਟ	-10.495
▁ਸੰਗਤ	-10.4951
ਕਦੇ	-10.4957
ਛੇਦ	-10.4958
▁ਇਕੱਠੀ	-10.4961
▁ਖੰਭ	-10.4962
▁ਬੁਰੀ	-10.497
ੇਡ	-10.4982
▁ਹਜ਼ਾਰਾਂ	-10.4982
ਨਸ	-10.4983
▁ਇਸਦਾ	-10.4985
▁ਰਿਕਾਰਡਾਂ	-10.4987
ਹਾਊਸ	-10.4987
▁ਅਖੌਤੀ	-10.499
ਾਈਨ	-10.499
▁1910	-10.499
▁ਲੰਗਰ	-10.4992
▁ਸੰਤਰੀ	-10.5
ਕਿ	-10.5001
▁ਪੁਰਾਣੀਆਂ	-10.5005
▁ਕਿੰਨਾ	-10.5006
▁ਰੌਕ	-10.5008
▁ਟ	-10.5016
▁ਖਾਣਾਂ	-10.5023
▁ਪ੍ਰੋਗਰਾਮਿੰਗ	-10.5028
▁ਕੇਬਲ	-10.5035
▁not	-10.5037
▁ਸ਼ੱਕੀ	-10.5037
▁ਦੱਸਦਾ	-10.5038
▁ਹਾ	-10.5038
▁ਟੁਕਡ਼ਿਆਂ	-10.5038
▁ਸਮਾਨਾਂਤਰ	-10.5038
▁ਪੰਜਾਹ	-10.5043
▁ਖਿਡ਼ਕੀਆਂ	-10.5043
▁ਸੌਦੇ	-10.5045
----------------	-10.5047
▁ਮੈਡਲ	-10.5051
▁ਕੋਸ਼ਿਸ਼ਾਂ	-10.5054
▁ਥੋਡ਼ਾ	-10.5055
▁ਸੰਸਕਰਣਾਂ	-10.507
▁ਤਾਇਨਾਤ	-10.5071
▁ਇਜ਼ਰਾਈਲੀ	-10.5077
▁ਮੁਦਈ	-10.5077
▁1928	-10.5078
▁ਪਸ਼ੂ	-10.5081
▁ਡਰਾਈਵ	-10.5084
▁ਤੋਪਖਾਨੇ	-10.5086
-12	-10.5088
▁ਬਿਲੀਅਨ	-10.5088
▁ਸ਼ੈੱਲ	-10.5089
▁ਡੇਵਿਸ	-10.5091
▁ਸਟਾਲਿਨ	-10.5091
▁ਖੇਡੀ	-10.5092
▁1913	-10.5093
▁ਬਹਾਲੀ	-10.5095
▁ਪਾਗਲ	-10.5098
▁ਵਿਗਿਆਪਨ	-10.5115
▁ਮੇਜ਼	-10.5116
▁ਗਰੀਬੀ	-10.5117
▁ਪੇਟ	-10.5118
▁ਬਾਲਣ	-10.5119
▁ਡੈਮੋਕਰੇਟਿਕ	-10.5135
▁ਬਿਲਡਿੰਗ	-10.5135
▁ਉਪਭੋਗਤਾਵਾਂ	-10.5137
▁ਇਕੱਲਾ	-10.5137
▁ਏਕਤਾ	-10.5137
▁ਪੇਰੂ	-10.5138
▁ਨਿਰਮਾਤਾਵਾਂ	-10.514
▁ਤਪੱਸਿਆ	-10.5141
▁1917	-10.5142
▁ਤਕਨੀਕ	-10.5149
▁75	-10.5158
-4	-10.5162
▁ਗਰਮੀ	-10.5165
▁ਵੇਚਣ	-10.5172
▁ਓਹ	-10.5175
▁ਪੁਰਾਲੇਖ	-10.5184
▁ਪ੍ਰਾਇਦੀਪ	-10.5184
▁ਹਾਦਸੇ	-10.5184
▁ਪਰਸਪਰ	-10.5184
▁ਸਕਾਲਰਸ਼ਿਪ	-10.5184
▁ਭਰੋਸੇਯੋਗ	-10.5186
▁ਕਾਰਪੋਰੇਟ	-10.5186
▁ਮਾਡਲਾਂ	-10.519
"	-10.5191
▁ਔਸਤਨ	-10.5191
▁ਇੰਟਰ	-10.522
▁ਦਰਜੇ	-10.5228
▁ਬਿਸਤਰੇ	-10.5234
▁ਵਸਤਾਂ	-10.5234
▁ਸੁਮੇਲ	-10.5235
▁ਟਨ	-10.5235
▁1922	-10.5236
▁ਬਿਜ਼ਨਸ	-10.5237
▁ਕਾਪੀਆਂ	-10.5239
▁ਜ਼ੋਨ	-10.5243
▁ਪੀਐਚ	-10.5244
▁ਗਾਈਡ	-10.5249
▁1951	-10.525
▁49	-10.5259
▁150	-10.5263
▁ਇਸਲਾਮੀ	-10.5268
▁ਸਮਝਣ	-10.527
▁ਕਮਾਨ	-10.5272
▁ਆਸਾਨ	-10.5276
▁ਸ਼ਾਟ	-10.5277
▁ਢਾਹ	-10.5284
▁ਓਕਲਾਹੋਮਾ	-10.5287
▁ਨਾਰਵੇਜੀਅਨ	-10.5289
▁ਮਾਤਾ	-10.5293
▁ਇਨਕਲਾਬੀ	-10.5295
▁ਅਪਰਾਧਾਂ	-10.53
ਵਿਗਿਆਨ	-10.5306
▁ਹਡ਼ਤਾਲ	-10.5313
ਪਿਤਾ	-10.5317
▁ਮਿਸ਼ਨਾਂ	-10.5318
▁ਏਰਿਕ	-10.5327
▁ਲਾਭਦਾਇਕ	-10.5335
▁ਤੀਹ	-10.5335
▁ਉਪਾਅ	-10.5335
▁ਟੈਂਕ	-10.5336
▁ਕੈਲ	-10.5339
▁ਲੱਗਦੇ	-10.534
▁ਰੱਬੀ	-10.534
▁ਵਸਤੂਆਂ	-10.5345
▁ਪੱਧਰਾਂ	-10.5346
ੁ	-10.5356
▁ਲੈਮ	-10.5359
▁ਐਪੀਸੋਡਾਂ	-10.5362
▁ਵੈਲੀ	-10.5366
▁ਟੈਲੀਫੋਨ	-10.537
▁ਪ੍ਰਦਰਸ਼ਨੀਆਂ	-10.5372
ਿਟ	-10.5372
▁ਪ੍ਰਬੰਧਾਂ	-10.5373
▁ਸੂਰ	-10.5374
▁ਛੁੱਟੀ	-10.5377
▁ਮਿਲੀਸ਼ੀਆ	-10.5385
▁ਭਾਵਨਾਤਮਕ	-10.5389
▁ਮੰਜ਼ਿਲਾ	-10.5396
▁ਅਨੁਕੂਲਤਾ	-10.5398
▁ਟ੍ਰਾਂਸਫਰ	-10.5425
▁ਸੱਚਾਈ	-10.543
ਹੇ	-10.5433
▁ਕਿਸ਼ੋਰ	-10.5434
▁(16	-10.5435
▁ਅਥਾਰਟੀ	-10.5436
▁ਮੁਕਾਬਲਿਆਂ	-10.5436
▁ਡਾਨ	-10.5436
▁ਦੋਸਤਾਨਾ	-10.5437
▁ਡਿਸਪਲੇਅ	-10.5439
▁ਪ੍ਰਮਾਣੂ	-10.544
▁ਜੱ	-10.544
▁ਕੇਂਦ੍ਰਿਤ	-10.5441
▁ਬੇਸਿਨ	-10.5442
▁ਟੇਬਲ	-10.545
▁ਮਿਲਦੇ	-10.545
▁ਆਰਕੀਟੈਕਚਰਲ	-10.5454
ਯੋ	-10.5458
▁ਹਟ	-10.5459
▁ਰੇਵ	-10.546
ੱ	-10.5461
-5	-10.5466
ਵਿੱਚ	-10.5467
▁ਜਾਪਦੀ	-10.5479
▁ਸਕੋਰ	-10.5483
▁ਡਾਇ	-10.5484
▁ਅਤੀਤ	-10.5487
▁ਜ਼ਬਤ	-10.5487
▁ਬਚਾਇਆ	-10.5487
▁ਮਾਸਕੋ	-10.5494
▁f	-10.5496
▁ਡੈਨ	-10.5497
▁ਤਾਰਾ	-10.5497
▁ਵਨ	-10.5498
▁ਪਿਆਨੋ	-10.5498
▁ਰੰਗਾਂ	-10.55
▁b	-10.5502
ਰਿਕ	-10.5502
▁42	-10.5504
▁ਅੱਖ	-10.5508
▁ਸਰਟੀਫਿਕੇਟ	-10.5509
▁ਆਨ	-10.5518
ਸੱਜੇ	-10.552
▁ਲੰਘਣ	-10.5522
▁ਉਤਸ਼ਾਹ	-10.5536
▁ਅਹੁਦਿਆਂ	-10.5538
▁ਕੈਲੰਡਰ	-10.5538
▁ਲੈਂਡਸਕੇਪ	-10.5538
▁ਖਾਂਦੇ	-10.5538
▁ਦੋਸਤੀ	-10.5539
▁ਟੇਨਸੀ	-10.554
ਸਾਈਡ	-10.5542
▁1935	-10.5543
▁ਰਚਨਾਤਮਕ	-10.5544
y	-10.5547
▁ਵਾਲਾਂ	-10.5549
▁ਦੇਣਗੇ	-10.555
▁ਇਲੈਕਟ੍ਰਿਕ	-10.555
▁ਇੰਜਣਾਂ	-10.5551
▁ਮਾਈਨਰ	-10.5557
▁ਲੋਕਤੰਤਰ	-10.5569
▁ਸੱਟਾਂ	-10.5581
▁ਰਜਿਸਟ੍ਰੇਸ਼ਨ	-10.5589
▁ਸ਼ੋਸ਼ਣ	-10.5589
▁ਖਾਂਦਾ	-10.559
▁ਠੋਸ	-10.5593
▁ਖੇਤਰਫਲ	-10.5598
ਫਾ	-10.5599
▁ਗਲੇਨ	-10.56
▁ਅੱਧੀ	-10.5605
▁ਖਾਣੇ	-10.5608
▁ਗਾਹਕਾਂ	-10.5609
ਮਾਨ	-10.5614
ਲੀਆ	-10.5637
ਐੱਚ	-10.5639
▁ਰਸਾਲਿਆਂ	-10.5641
▁ਪਵੇਗਾ	-10.5641
▁ਤਰੀਕ	-10.5643
▁ਪਡ਼੍ਹਿਆ	-10.5643
▁ਫੁਜੀਮੋਰੀ	-10.5643
▁ਮੁਆਫੀ	-10.5644
▁ਟੈਕਸਟ	-10.5645
▁ਚਚੇਰ	-10.5645
▁ਫੁਟਬਾਲ	-10.5645
▁ਨਿਰਵਿਘਨ	-10.5645
▁ਲੀਜ਼	-10.5647
▁ਖੁੱਲ੍ਹੀ	-10.565
▁ਜੇਨ	-10.5651
▁ਡੀਨ	-10.5654
▁ਨਕਲੀ	-10.5665
▁ਲੂ	-10.5675
▁ਹੌਟ	-10.5676
▁be	-10.5676
▁ਖਪਤਕਾਰ	-10.5678
▁52	-10.5678
▁ਕੌ	-10.5682
▁ਵਰਦੀ	-10.5687
▁ਦਖਲ	-10.5693
▁ਮਿਸੀਸਿੱਪੀ	-10.5696
▁39	-10.5697
▁1933	-10.5698
ਨਿਕ	-10.5699
▁ਫੈਸ਼ਨ	-10.5702
▁ਵਿਦੇਸ਼ਾਂ	-10.5716
▁ਬਟਾਲੀਅਨ	-10.5725
▁ਗਰਦਨ	-10.5729
ਅੰਦਰ	-10.5729
▁ਪਹਿਲੂ	-10.5738
▁ਵੰਡਣ	-10.5741
▁ਡਗਲਸ	-10.5746
▁ਮੌਂਟਰੀਅਲ	-10.5746
ਇਲ	-10.5746
▁ਨਾਰਵੇ	-10.5746
▁ਬੈਰਨ	-10.5747
▁ਦੋਹਰੇ	-10.5748
▁ਪ੍ਰਿੰਟ	-10.5748
▁ਚੁੱਕੀ	-10.5748
▁ਫੈਲਿਆ	-10.5749
▁ਪੋਸ਼ਣ	-10.5752
▁ਪਰਵਾਸ	-10.5755
▁ਸਰਕਾਰਾਂ	-10.5756
ਸਿਨ	-10.5756
▁ਮਿ	-10.5769
▁46	-10.5769
▁ਨੀਲ	-10.5772
▁ਵਾਲਟਰ	-10.5776
▁ਅੱਖਰਾਂ	-10.5776
▁ਸਮੀਕਰਨ	-10.5778
▁ਮਰੀਜ਼	-10.578
▁ਆਵਾਜ਼ਾਂ	-10.5781
▁ਅਦਾਕਾਰੀ	-10.5782
ਜਨਰਲ	-10.5782
▁1932	-10.5787
▁ਲੇਕ	-10.5791
▁ਪ੍ਰਯੋਗਸ਼ਾਲਾ	-10.5797
▁ਸਹਿਣ	-10.58
▁ਪਰੇ	-10.58
▁ਨਾਚ	-10.5804
▁ਜਡ਼੍ਹਾਂ	-10.5806
▁ਭੁੱਲ	-10.5819
50	-10.582
▁ਜੈਨੇਟਿਕ	-10.5842
▁ਗੱਡੀ	-10.5844
▁ਫੇਮ	-10.5848
▁ਮੈਟਰੋ	-10.5851
▁ਭਾਈਚਾਰਾ	-10.5851
▁1938	-10.5852
▁1934	-10.5853
▁ਆਕਰਸ਼ਣ	-10.5853
ਾਰਡ	-10.5853
▁ਬਾਲਟੀਮੋਰ	-10.5855
▁ਇੰਸਪੈਕਟਰ	-10.5856
▁ਦੱਸਦੀ	-10.5859
▁1911	-10.586
▁ਗਡ਼ਬਡ਼	-10.5861
ਿਓ	-10.5865
▁ਇੰਚ	-10.5874
ਦੇਣ	-10.5882
▁ਆਫ਼ਤ	-10.5889
ਰਾਜ	-10.5892
▁ਪ੍ਰਤੀਕ	-10.5897
ਾਇਆ	-10.59
ਸੁ	-10.5902
ਿਸ਼	-10.5904
ਪੈਰਾ	-10.5904
▁ਜੁਆਲਾਮੁਖੀ	-10.5904
▁ਗਰਭਪਾਤ	-10.5904
▁ਪ੍ਰਾਪਰਟੀ	-10.5907
▁ਓਰੇਗਨ	-10.591
▁ਪੂਰਕ	-10.5911
./	-10.5915
▁$	-10.5917
▁ਰਾਮ	-10.5936
▁ਰੀਡ	-10.5937
▁ਈਰਾਨ	-10.5945
▁ਨਵ	-10.5947
▁ਤਰਕ	-10.5958
▁ਪਿੱਠ	-10.5958
▁ਨਿਭਾਉਣ	-10.5958
▁ਪੁੱਛਗਿੱਛ	-10.596
▁ਪੁਨਰਗਠਨ	-10.5963
▁ਲੇਡੀ	-10.5969
▁ਸਮੂਹਕ	-10.5981
▁ਹਾਜ਼ਰੀ	-10.5986
ਟ੍ਰੋ	-10.5989
▁ਕਤਾਰ	-10.5991
ਫਲ	-10.5993
▁ਟ੍ਰਾਈ	-10.5996
ਸਿ	-10.601
▁ਐਂਥੋਨੀ	-10.6012
▁ਗਰਭ	-10.6012
▁ਕੋਲੋਰਾਡੋ	-10.6012
▁ਸੈਟਲ	-10.6012
▁ਰਾਸ਼ਟਰਮੰਡਲ	-10.6012
▁1915	-10.6014
▁ਫੀਸ	-10.6014
▁ਨੀ	-10.6015
▁ਵਿਆਸ	-10.6015
▁ਗੁਣਾਂ	-10.6017
ਮਾਰ	-10.6019
▁ਗਾਹਕ	-10.603
▁ਮੈਦਾਨਾਂ	-10.603
-10	-10.6031
▁ਕੋਚਿੰਗ	-10.6032
▁ਬਾਜ਼	-10.6043
▁ਪ੍ਰਯੋਗ	-10.6046
▁ਦਰਸ਼ਕ	-10.6048
▁ਸ਼ੇਰ	-10.6049
▁ਚੀਕ	-10.6055
▁ਕੈਨ	-10.6057
▁ਨੀਗ੍ਰੋ	-10.6066
▁ਮਾਰਗਰੇਟ	-10.6067
▁ਲੱਗਿਆ	-10.607
▁ਮੁਸ਼ਕਿਲਾਂ	-10.6079
ਕੋਈ	-10.608
▁ਜ਼ੂ	-10.608
▁ਲਿੰਕਨ	-10.608
ਚਾ	-10.6082
▁ਸਮਾਜਵਾਦੀ	-10.6083
▁ਗੁਲਾਮ	-10.6084
▁ਟਿਕਟਾਂ	-10.6085
▁ਵਫ਼ਾਦਾਰ	-10.6088
ੋਰ	-10.6103
▁ਸੋਧਾਂ	-10.6105
III	-10.6114
▁ਚੌਡ਼ੇ	-10.612
▁ਆਨਰੇਰੀ	-10.612
▁ਵਰਖਾ	-10.612
▁ਰੁਕ	-10.6121
▁ਨਵੀਨੀਕਰਨ	-10.6123
▁ਨਿਆਂਇਕ	-10.6124
▁ਪਰਿਵਰਤਨਸ਼ੀਲ	-10.6124
▁ਰਹਿਣਾ	-10.6131
▁ਹੱਸ	-10.614
▁ਰੇਸ	-10.6142
▁ਸਪੇਸ	-10.6148
▁ਮੇ	-10.6148
▁ਵੈ	-10.6149
ਰਟ	-10.6156
ਨਜ਼	-10.617
▁ਖਾ	-10.6174
▁ਸ਼ਿਕਾਰੀ	-10.6174
▁ਮਹੱਤਤਾ	-10.6175
▁ਸਵਾਗਤ	-10.6175
▁ਲਾਰੈਂਸ	-10.6175
▁ਵਿਘਨ	-10.6175
?”	-10.6176
▁ਸੰਖਿਆ	-10.6176
▁ਬਾਂਡ	-10.6176
▁ਕਲੀਵਲੈਂਡ	-10.6178
▁ਜ਼ਬਰਦਸਤੀ	-10.6181
▁ਚਾਰਲੋਟ	-10.6181
ੈਕ	-10.6181
▁ਲਗਾਉਣਾ	-10.6189
▁ਵਿਕ	-10.6203
ਸਕਾ	-10.621
▁ਸੰਭਾਲਣ	-10.6215
▁ਲੋਡ਼ੀਂਦੀ	-10.6222
▁ਕ੍ਰਾਂਤੀ	-10.6229
▁ਤਜਰਬਾ	-10.623
▁ਦਾਅਵਿਆਂ	-10.623
▁ਧੋਖਾ	-10.623
▁ਫਿਨਲੈਂਡ	-10.6231
▁ਉੱਥੋਂ	-10.6231
▁ਸੱਤਾ	-10.6231
▁ਡਾਕਟਰੇਟ	-10.6232
▁ਸਵਦੇਸ਼ੀ	-10.6234
▁ਸ਼ਾਖਾਵਾਂ	-10.6234
▁ਖਰਚਿਆਂ	-10.6234
▁ਕਾਰਜਸ਼ੀਲ	-10.6235
▁ਨੋਟਿਸ	-10.6236
▁ਪਹਿਲੂਆਂ	-10.6238
▁ਲਿਨ	-10.625
▁ਵੋਟਾਂ	-10.6257
-6	-10.626
▁ਜੋਸ	-10.627
▁ਭੇਜਣ	-10.6271
25	-10.6271
▁(4)	-10.6276
▁ਲੱਗੇ	-10.6276
▁ਸੀਡੀ	-10.6283
▁ਚਾਹੁੰਦੀ	-10.6285
▁ਡਕੋਟਾ	-10.6285
▁ਸਿੱਟੇ	-10.6286
▁ਅੰਨਾ	-10.6292
▁ਸ਼ੁੱਧਤਾ	-10.6293
▁ਹਵਾਵਾਂ	-10.6293
ਸਾਰੇ	-10.6293
▁ਸ਼ਨੀਵਾਰ	-10.6298
▁ਦ੍ਰਿਸ਼ਾਂ	-10.6303
ਰੇਸ	-10.6305
▁ਆਰਮੀ	-10.6309
▁ਪਾਸਿਆਂ	-10.6309
ਪਰਵਾਹ	-10.6315
ੋਟ	-10.6318
▁ਪੈਕ	-10.6324
▁ਈਸਟ	-10.6324
ਿਨੀ	-10.6329
▁ਘੰਟੀ	-10.6332
▁ਚੌਡ਼ਾ	-10.6337
▁ਦਰਵਾਜ਼ਾ	-10.634
▁this	-10.6341
▁ਬਾਂਹ	-10.6341
▁ਦੁਖੀ	-10.6341
ਸਪਾਟਾ	-10.6341
▁ਵਰਣਿਤ	-10.6343
▁ਅਫ਼ਸੋਸ	-10.6344
▁ਸਿੰਗਾਪੁਰ	-10.6345
▁ਬਰੇਕ	-10.6347
▁ਰੋਕਦਾ	-10.6351
▁ਕਰਵਾਏ	-10.6351
▁43	-10.6354
0	-10.6367
▁ਇਕ	-10.6368
▁ਬਿਮਾਰੀਆਂ	-10.6368
▁ਕਹਿਣ	-10.6382
▁ਮੱਦੇਨਜ਼ਰ	-10.6396
▁ਨਿਕੋਟੀਨ	-10.6399
▁1905	-10.6399
▁ਕਿਸਾਨ	-10.6401
▁ਕੁੱਤੇ	-10.6402
▁ਟੋਨੀ	-10.6405
▁ਸੰਬੰਧਿਤ	-10.6409
▁47	-10.641
▁ਯਾਤਰਾਵਾਂ	-10.6412
▁ਬੈਠੇ	-10.642
▁ਨੀਤੀਆਂ	-10.6425
▁ਸਾਰਣੀ	-10.6432
▁ਡਿਕ	-10.6435
▁ਆਊਟ	-10.6436
▁ਕਾਗਜ਼	-10.6436
▁ਵਿਭਿੰਨ	-10.6446
ਉਨ੍ਹਾਂ	-10.6446
▁ਚੁਣੀ	-10.6447
▁ਲਾਕ	-10.6448
▁ਮੀਟਿੰਗਾਂ	-10.645
▁ਸਵਿਟਜ਼ਰਲੈਂਡ	-10.6455
-16	-10.6462
▁ਪਹੁੰਚੀ	-10.6462
▁ਸਟੀਵ	-10.6463
ੂਨ	-10.6465
▁ਬੰਬਾਰੀ	-10.6466
▁ਲਹਿਰਾਂ	-10.6482
▁ਤਾਰ	-10.6491
▁ਬਿੰਦੂਆਂ	-10.6495
▁ਡੈਨੀ	-10.6506
▁ਈਸਵੀ	-10.6509
▁ਸੁਣਾਈ	-10.6509
▁ਬੰਨ੍ਹਿਆ	-10.6512
▁ਪ੍ਰਗਤੀ	-10.6512
▁1923	-10.6512
▁ਸ਼੍ਰੀਮਤੀ	-10.6514
▁ਥੋਡ਼	-10.6517
▁ਬੋਰ	-10.6517
▁ਕਮਿਊਨ	-10.652
▁ਯੂਨੀਵਰਸਿਟੀਆਂ	-10.6521
▁ਐਲਿਸ	-10.6524
ਵਿਸ	-10.6531
▁ਟਰੱਕ	-10.6545
▁ਟਿਕਟ	-10.6546
▁ਪਰਿਭਾਸ਼ਾ	-10.6566
▁ਭਰਨ	-10.6566
▁ਹੰਝੂ	-10.6567
▁ਦਾਰਸ਼ਨਿਕ	-10.6568
▁1908	-10.6569
ੇਜ	-10.6569
▁ਕੁਸ਼ਲ	-10.6573
ਤੋਂ	-10.6575
▁ਸ਼ੈਤਾਨ	-10.6576
▁ਸਕੀ	-10.658
▁400	-10.6581
▁ਰੱਖੋ	-10.6589
▁ਨਿਰਮਿਤ	-10.6592
ਐ	-10.6605
▁ਪੂਛ	-10.6607
▁ਪੂੰਜੀ	-10.6609
▁his	-10.6623
▁ਬੁਲਾਇਆ	-10.6623
▁ਮਾਪਦੰਡ	-10.6624
▁ਅਰੀਜ਼ੋਨਾ	-10.6624
▁ਖੋਜਕਰਤਾਵਾਂ	-10.6625
▁1929	-10.6625
▁ਟਾਕ	-10.6627
▁ਮੁਹਿੰਮਾਂ	-10.6627
▁1921	-10.6632
▁ਯਾਦਗਾਰੀ	-10.664
ਰੋਨ	-10.6641
▁ਪਕਵਾਨਾਂ	-10.6641
▁ਪਾਬੰਦੀਆਂ	-10.6642
ਵਾਈ	-10.6642
▁ਲੈਪ	-10.6647
ਘ	-10.666
▁ਕਰੂਜ਼	-10.6662
▁(2	-10.6662
▁ਦਾਦਾ	-10.6667
▁ਸੈਮ	-10.6669
▁ਉਤਸੁਕ	-10.667
▁ਇਸ਼ਾਰਾ	-10.668
▁ਅਪਵਾਦ	-10.6681
▁ਕਾਲਪਨਿਕ	-10.6682
▁ਪ੍ਰਚੂਨ	-10.6682
▁ਲੋਡ਼ੀਂਦੇ	-10.6682
▁ਗੂਡ਼੍ਹੇ	-10.6683
▁ਲਓ	-10.6683
▁ਅਨੰਤ	-10.6684
▁ਪੌਡ਼ੀਆਂ	-10.6684
ੀਅਮ	-10.6687
▁ਵੈਸਟ	-10.6688
▁ਚੁੱਕਾ	-10.6693
▁ਖੇਤ	-10.6693
40	-10.6694
▁ਲੱਤਾਂ	-10.6697
▁ਅਥਲੈਟਿਕਸ	-10.67
▁ਐਕਸ਼ਨ	-10.6701
▁ਐਨਾ	-10.6703
▁ਜ਼ਿਪ	-10.6714
▁55	-10.6725
16	-10.6727
ਬਾਅਦ	-10.6727
▁ਸੈਮੂਅਲ	-10.6729
▁ਲੰਘ	-10.6731
-13	-10.6736
▁ਪ੍ਰਤੀਕ੍ਰਿਆ	-10.6736
ਥਲੱਗ	-10.6738
▁ਮਿਊਜ਼ਿਕ	-10.674
▁1924	-10.6742
▁ਪਸੰਦੀਦਾ	-10.6744
▁ਕੇਨ	-10.6747
▁ਐਕ	-10.6753
▁ਲੈਂਡ	-10.6766
▁ਪੁੱਤਰਾਂ	-10.6783
ਐੱਜ	-10.6784
▁ਸ਼ੋਰ	-10.6785
ਸਮੇਂ	-10.6787
▁53	-10.6792
▁s	-10.6793
▁ਮੌਰਿਸ	-10.6793
▁ਪ੍ਰਵਾਸੀ	-10.6796
ੀਡ਼੍ਹ	-10.6796
ਪਤਿਸ੍ਮਾ	-10.6796
▁ਤੋਹਫ਼ਾ	-10.6796
▁ਭ੍ਰਿਸ਼ਟਾਚਾਰ	-10.6796
▁ਵਿਟਾਮਿਨ	-10.6796
▁ਸਿਵਾਏ	-10.6797
▁ਆਡੀਓ	-10.6798
▁1927	-10.6798
▁ਡਬਲਿਨ	-10.6798
▁ਵਿਹਾਰਕ	-10.6798
▁ਫਿਲੀਪਿਨੋ	-10.6801
▁ਬੁੱਧੀ	-10.6801
▁ਖੁੱਲ੍ਹਣ	-10.681
▁ਹੈਮਿਲਟਨ	-10.6814
▁ਕਰਜ਼ੇ	-10.6817
▁ਦਾਅਵੇ	-10.6818
▁ਹੂ	-10.6822
▁ਸਿਧਾਂਤਕ	-10.683
0,000	-10.6831
▁ਦੰਦ	-10.6838
▁ਪਤਨ	-10.6838
▁ਜਿੱਤੀਆਂ	-10.6839
▁ਰਸੋਈ	-10.6844
▁ਜੋਸ਼	-10.6853
▁ਉਜਾਗਰ	-10.6855
▁ਵਿਵਾਦਪੂਰਨ	-10.6856
ਚਾਰ	-10.6856
▁ਮਿਆਮੀ	-10.6858
▁ਪ੍ਰਗਟਾਵੇ	-10.6858
▁ਡੁੱਬਣ	-10.6866
▁ਵਾਲੀਅਮ	-10.6876
▁ਬਰਾਬਰੀ	-10.6878
ਰਲ	-10.6894
▁ਲਿ	-10.6895
▁ਓਨਾ	-10.6896
▁ਅਪਾਹਜ	-10.6897
▁ਬਿਲੀ	-10.6898
▁ਫਰੈਂਚਾਇਜ਼ੀ	-10.6908
▁ਨਾਮਜ਼ਦਗੀ	-10.6909
▁ਕਾਰਗੁਜ਼ਾਰੀ	-10.6914
▁ਰੇਲਗੱਡੀ	-10.6914
▁ਸੰਕੁਚਿਤ	-10.6917
ਸਾਂਤਾ	-10.6918
▁ਇਲ	-10.6919
ਰੇਨ	-10.6923
▁ਸੋਲ	-10.6927
▁ਕ੍ਰਿਸਟਲ	-10.6934
21	-10.6939
▁ਗੁਣ	-10.6942
▁ਭੇਜੇ	-10.6944
▁ਟੋਲ	-10.6944
▁ਤੁਰ	-10.6945
▁ਅਕਾਰ	-10.6946
▁ਬਰੂਸ	-10.695
▁ਦਰਾਮਦ	-10.6957
▁ਪਡ਼੍ਹ	-10.6958
ਵਿਲੇ	-10.6963
▁ਡੁ	-10.6965
▁ਲੈਂਦੀ	-10.6965
▁ਕਾਰਕਾਂ	-10.6968
▁ਇੰਚਾਰਜ	-10.6973
▁ਮੁੰਡਾ	-10.6973
▁ਸਿਗਨਲ	-10.6974
▁ਜ਼ੋਰਦਾਰ	-10.6975
▁1890	-10.6979
▁ਗਵਾਹ	-10.6979
▁ਲ	-10.6983
▁ਵੰਡੇ	-10.6998
▁ਮੈਟ੍ਰਿਕਸ	-10.7
▁ਲੁੱਟ	-10.7006
▁ਲੋਨ	-10.7009
▁ਗੋਲਫ	-10.7019
▁ਕੱਟਡ਼ਪੰਥੀ	-10.7026
▁ਜੁਰਮਾਨੇ	-10.7032
▁ਦ੍ਰਿਡ਼੍ਹ	-10.7033
▁ਦੁਰਘਟਨਾ	-10.7034
▁ਖੁੱਲ੍ਹ	-10.7036
▁ਬ੍ਰਹਮ	-10.7042
ਏਲ	-10.7042
▁ਕਲੀਨਿਕਲ	-10.7042
▁ਵਿਲ	-10.7043
▁ਟਿੱਪਣੀਆਂ	-10.7057
▁ਸੂਖਮ	-10.7064
▁ਬਜ਼ੁਰਗ	-10.7075
▁ਬਾਲਗਾਂ	-10.7083
ਕਦਾਈਂ	-10.7092
▁ਆਰਚਬਿਸ਼ਪ	-10.7092
▁ਪੱਕੇ	-10.7094
▁ਜਸਟਿਸ	-10.7095
▁ਮੱਧਕਾਲੀ	-10.7095
▁ਹਡਸਨ	-10.7097
▁ਮਨੋਵਿਗਿਆਨਕ	-10.7099
▁ਇੱਟਾਂ	-10.71
▁ਕਰਤੱਵਾਂ	-10.71
▁ਵਾਰਸ	-10.7106
▁ਐਮੀ	-10.7106
▁ਤੁ	-10.7106
▁ਚਮਕ	-10.7109
ੰਨੇ	-10.711
▁ਭਗਤੀ	-10.7115
▁41	-10.7119
▁ਪੇਸ਼ਕਾਰੀਆਂ	-10.7119
▁ਰੇਤ	-10.7124
ੋਵ	-10.7126
▁ਮੁਢਲੇ	-10.7127
▁ਜੀਵਾਂ	-10.7128
▁ਲੁ	-10.7129
▁ਥੀਮ	-10.7131
▁ਹਿਲਾ	-10.7131
▁ਆਲੋਚਕ	-10.7134
▁ਸਡ਼	-10.7137
▁ਸੋਗ	-10.714
ਮੈ	-10.7147
▁ਪਡ਼	-10.7147
▁ਲਘੂ	-10.7153
▁ਲੱਭਿਆ	-10.7155
▁ਟਰੈਕਾਂ	-10.7156
▁ਘਾਤਕ	-10.7159
▁ਸਿਲ	-10.7167
▁ਚਾਲ	-10.7168
ਜ਼ੋ	-10.7169
▁ਪ੍ਰਸ਼ੰਸਕਾਂ	-10.7172
15	-10.7181
▁ਹੈਰਿਸ	-10.7186
▁ਅਪਣਾਉਣ	-10.7197
▁ਟਰਾਫੀ	-10.7205
▁ਚਿੰਤਤ	-10.7213
▁ਪ੍ਰਭੂਸੱਤਾ	-10.7215
▁ਭਾਵਨਾਵਾਂ	-10.7218
▁ਪਰਤ	-10.7226
▁ਰਿ	-10.7229
ਪੋਲ	-10.7234
▁ਯਾਦਗਾਰ	-10.7239
▁ਯਾਰਡ	-10.7242
▁ਭੁਚਾਲ	-10.7253
ਨੇਟ	-10.7257
▁ਬ੍ਰਹਿਮੰਡ	-10.7263
▁ਮਾਈਕਰੋ	-10.7266
ਪਹਿਲਾਂ	-10.7267
▁ਨਾਰਾਜ਼	-10.7273
▁ਏਕਡ਼	-10.7274
▁ਦੁਹਰਾਇਆ	-10.7274
▁ਗੋਰਡਨ	-10.7275
▁ਕਲਾਤਮਕ	-10.7276
▁ਬੈਠ	-10.7276
▁ਅਲਾਬਾਮਾ	-10.7276
▁ਰੋਮਾਂਟਿਕ	-10.7277
▁ਸੌਂਪਿਆ	-10.7277
▁ਕਨ	-10.7278
▁ਤੱਥਾਂ	-10.7279
▁ਖ਼ਤਰੇ	-10.728
▁ਕਸਬੇ	-10.7281
ਅਸ	-10.7285
▁ਆਦੇਸ਼ਾਂ	-10.7294
▁ਉਦਘਾਟਨੀ	-10.7295
ਵੈਲ	-10.731
ਟੀਵੀ	-10.7325
ਹੈੱਡ	-10.7328
ਵਲ	-10.7328
ਟੇਨ	-10.7329
▁ਸਾਹਸ	-10.7331
▁ਡਿਊਟੀ	-10.7335
▁ਸ਼ੁਕੀਨ	-10.7335
▁ਐਕਸਚੇਂਜ	-10.7336
▁ਪਾਉਂਦਾ	-10.7336
▁1906	-10.7337
▁ਬਦਕਿਸਮਤ	-10.7339
▁ਪੰਦਰਾਂ	-10.734
ਸ਼ੀਲ	-10.7341
▁1925	-10.7341
▁ਮੈਗ	-10.7341
▁ਚਡ਼੍ਹ	-10.7341
▁ਮੈਡੀਟੇਰੀਅਨ	-10.7342
ਲਾਈਟ	-10.7342
▁as	-10.7342
▁ਪਏ	-10.7344
▁ਘੇਰ	-10.7344
▁ਹਫ	-10.7345
ਨੀਆ	-10.7345
▁ਬੱਲੇਬਾਜ਼ੀ	-10.7348
▁ਉਸਨੂੰ	-10.7357
▁ਸਾਗਰ	-10.7364
▁ਬਾਜ਼ਾਰਾਂ	-10.7367
▁ਨਾਵਾਂ	-10.7377
ਸਟੋਨ	-10.7377
▁ਬੇਲ	-10.7386
ਟੇਲ	-10.7387
▁ਗੱਲਾਂ	-10.7388
ਜਰ	-10.7393
▁54	-10.7394
▁ਯੁਵਾ	-10.7398
▁ਵਿਆਹੇ	-10.7398
▁ਆਰਥੋਡਾਕਸ	-10.7401
▁ਇਲੈਕਟ੍ਰਾਨਿਕ	-10.7402
▁ਐਪੀਸਕੋਪਲ	-10.7402
ਕੈ	-10.7403
▁(15	-10.7418
ਟਲ	-10.7434
▁ਲਿਖਤ	-10.7437
▁ਹੋਲਟ	-10.7441
▁ਧੀਆਂ	-10.7444
▁ਬਣਨਾ	-10.7445
ਪਰਿਵਾਰ	-10.7448
▁ਕੰਜ਼ਰਵੇਟਿਵ	-10.7451
ਪੋਸ਼ਣ	-10.7453
▁ਕੈਸਰ	-10.7453
▁ਵੇਰਵੇ	-10.7459
▁ਯੋਧਿਆਂ	-10.7461
▁1909	-10.7464
▁ਗੋਡੇ	-10.7466
ਵਾਨ	-10.747
▁ਵਿਰੋਧੀਆਂ	-10.7475
▁ਉੱਨਤ	-10.7476
▁ਟੋ	-10.7477
▁ਪਲੇਟਾਂ	-10.7478
▁ਰਜਿਸਟਰਡ	-10.7479
▁ਮੂਰਤੀਆਂ	-10.7481
▁ਗੈਰੀ	-10.7487
▁ਮਤੇ	-10.7491
▁ਫਸ	-10.7494
▁ਟੈਲੀ	-10.7502
▁ਸੋਚਣ	-10.751
▁ਪੇਂਟਿੰਗਾਂ	-10.7512
w	-10.7519
▁ਦੁਰਵਿਵਹਾਰ	-10.7522
▁ਪ੍ਰਵਾਨਗੀ	-10.7522
▁ਪੱਤਿਆਂ	-10.7522
▁ਸ਼ਿਲਾਲੇਖ	-10.7522
▁ਬਰਮਿੰਘਮ	-10.7522
▁ਰਾਡਾਰ	-10.7522
▁ਮਨੁੱਖਤਾ	-10.7524
▁1,000	-10.7524
▁ਟੀਚਾ	-10.7528
▁ਵਿਜ਼ੂਅਲ	-10.7528
▁ਸ਼ਾਨ	-10.7542
▁ਯੂਨਾਨ	-10.7548
▁ਨੌ	-10.7562
ਿੰਗਟਨ	-10.7565
▁ਸਕ੍ਰਿਪਟ	-10.7568
▁ਸੁਣ	-10.7569
ਸ਼ਿਪ	-10.7573
▁ਬੀਮ	-10.7575
▁ਖਿਡ਼ਕੀ	-10.7577
ਅਸਲ	-10.7581
▁ਘੇਰਾਬੰਦੀ	-10.7585
▁ਮ੍ਰਿਤਕ	-10.7585
▁ਫਾਰਮੂਲੇ	-10.7585
▁ਮੈਨਚੇਸਟਰ	-10.7585
▁ਸਿਹਰਾ	-10.7585
▁1907	-10.7586
▁ਸ਼ਕਲ	-10.7587
▁ਐਪ	-10.7588
▁all	-10.7591
▁ਹਲਕਾ	-10.7594
▁ਸਵਿਸ	-10.7598
▁ਫੰਡਿੰਗ	-10.7606
▁ਰਿਵਰ	-10.7607
▁ਝੂਠ	-10.7612
▁ਲੋਕਤੰਤਰੀ	-10.7615
▁(3	-10.7616
▁ਐਂਟੀਕ	-10.7617
▁l	-10.762
▁1926	-10.7622
▁ਗਿਆਰਾਂ	-10.7623
ਿਵ	-10.7626
▁ਖੁਸ਼ਹਾਲ	-10.7633
▁ਵੇਸਵਾ	-10.7642
▁ਮੁਲਤਵੀ	-10.7648
▁ਰੌਬਿਨਸਨ	-10.7649
▁ਵਿਸਕਾਨਸਿਨ	-10.7649
ਡਿ	-10.765
▁ਉਂਗਲਾਂ	-10.765
ਗੁ	-10.7652
▁ਕਲਰਕ	-10.7654
▁ਫਾਇਰ	-10.7657
▁ਬਹਾਦਰੀ	-10.7659
▁ਪਛਾਡ਼	-10.7669
▁ਵਿਨਾਸ਼	-10.7676
▁ਉਪਨਗਰ	-10.7677
▁ਫੈ	-10.768
▁ਛੱਡਿਆ	-10.7681
ਸਭ	-10.7682
ਮੈਕ	-10.7683
ਬਾਲ	-10.7688
▁ਆਟੋ	-10.7691
14	-10.7692
▁ਨਿਕਲ	-10.7694
▁ਕਲੇ	-10.7696
17	-10.7698
▁ਬੀਮਾ	-10.7704
▁ਸੰਭਾਵ	-10.7708
▁ਹੁਰੋਨ	-10.7712
▁ਲਾਰਵਾ	-10.7712
▁ਮਨਾਇਆ	-10.7712
▁ਖੰਡੀ	-10.7713
▁ਕਿਲ੍ਹਾ	-10.7714
▁ਵੇਚਿਆ	-10.7718
▁ਲਿਖਤੀ	-10.7727
▁ਡੇਰ	-10.773
▁ਕੋਲੇ	-10.7732
▁ਸੈੱਟਾਂ	-10.7734
▁ਏਜੰਸੀਆਂ	-10.7741
▁ਨਿਕੋਲਸ	-10.7747
32	-10.7749
▁ਲੱਗਦੀ	-10.7754
ਸਮ	-10.7755
▁ਲਵ	-10.7756
ਪ੍ਰਧਾਨਗੀ	-10.7756
▁ਈਸਾਈਆਂ	-10.7757
ਰੇਟ	-10.776
ਿਕਸ	-10.7761
▁ਉੱਚੀਆਂ	-10.7762
▁ਪ੍ਰਕਾਸ਼	-10.7765
ਫਿਰ	-10.7765
▁ਫਾਈਨ	-10.7771
▁ਉੱਘੇ	-10.7776
▁ਓਰਲੀਨਜ਼	-10.7776
▁ਹਾਵਾਰਡ	-10.7776
ਵੇਨ	-10.7777
▁ਸਮਝਾਇਆ	-10.7777
▁ਟਾਰਪੀਡੋ	-10.7777
▁ਰਹੋ	-10.7778
▁1880	-10.7778
▁ਸਰਬੀਆ	-10.7779
▁ਕੱਟਿਆ	-10.778
▁ਕੁਸ਼ਲਤਾ	-10.7782
▁ਸਿੰਘ	-10.7782
▁ਚਿਲੀ	-10.7782
ਪੇ	-10.7784
▁ਜੁਆਨ	-10.7784
▁ਵੇਖੇ	-10.7788
▁ਟੇਲਰ	-10.7795
▁ਚਿ	-10.7802
▁ਵਿਵਹਾਰਕ	-10.7802
▁ਯੂਥ	-10.7813
▁ਗੇਮਜ਼	-10.7817
▁ਪ੍ਰਸ਼ੰਸਕ	-10.782
90	-10.7822
ਥਰ	-10.7823
ਕੋਟ	-10.7827
▁ਕਾਸ਼ਤ	-10.783
▁ਉਡਾਣਾਂ	-10.7832
ਮੇਟ	-10.7834
ਰੀਓ	-10.7836
▁ਅਣੂ	-10.7838
▁ਪ੍ਰਤਿਸ਼ਠਾ	-10.784
▁ਹੈਵੀਵੇਟ	-10.784
▁ਕਹਿੰਦੀ	-10.784
▁ਰਾਜਕੁਮਾਰੀ	-10.7843
▁ਇਰੋਕੁਆਸ	-10.7843
▁ਹਿੰਦੂ	-10.7845
▁ਬੋਲਦੇ	-10.7846
▁ਪ੍ਰੇਮੀ	-10.7854
▁ਇਕਲੌਤੇ	-10.7857
▁ਧਾਰਾਵਾਂ	-10.7859
ਿ	-10.7864
▁ਗ੍ਰਿਫਤਾਰੀ	-10.787
▁ਲੈਂਗ	-10.7879
ਸ਼ਾਇਰ	-10.7888
▁ਦਸਤਾਵੇਜ਼ਾਂ	-10.7889
▁ਸੇਲ	-10.7889
▁ਨਿਰਾਸ਼	-10.7893
▁ਸ਼ੈਲੀਆਂ	-10.7894
▁ਫ਼	-10.7902
▁ਸਤਰ	-10.7905
▁have	-10.7905
▁ਰਿੱਛ	-10.7907
ਕੱਤਰ	-10.791
▁ਗਲੇਸ਼ੀਅਰ	-10.7911
▁ਐਡੀਨਬਰਗ	-10.7914
▁ਭਾਗੀਦਾਰੀ	-10.7914
▁ਪ੍ਰਤੀਨਿਧੀ	-10.792
▁ਰੈ	-10.792
.1	-10.7925
ਲੋਨ	-10.7938
▁ਗੋਦ	-10.7939
▁ਥਾਈ	-10.7942
▁ਪਕਵਾਨ	-10.795
▁ਲਿਖਤਾਂ	-10.7953
▁ਸੰਭਾਲੀ	-10.7953
▁ਨਜਿੱਠਣ	-10.7954
ਮਿਸ	-10.7958
▁ਡੈ	-10.7969
▁ਟੁਕਡ਼ਾ	-10.7971
▁ਰਲੇਵੇਂ	-10.7971
▁ਵੈਲੇਨਬਰਗ	-10.7971
ਵੇਲ	-10.7971
▁ਨਿਰਦੋਸ਼	-10.7972
▁ਪ੍ਰਫੁੱਲਤ	-10.7972
▁ਨਕਸ਼ੇ	-10.7974
35	-10.7975
।]	-10.7977
▁ਧੁਰੇ	-10.798
▁ਮੱਠ	-10.7982
ਹਮ	-10.7982
▁ਵਧਦੇ	-10.7983
▁ਛੇਵੇਂ	-10.799
▁ਲੇਖਾਂ	-10.7991
▁ਰਹੇਗਾ	-10.7995
▁1000	-10.8
▁ਸਕੈਨ	-10.8006
ਆਦਾਨ	-10.8009
ਥੀ	-10.8011
▁ਸੈਕ	-10.8013
▁ਪੰਜਵੀਂ	-10.8017
26	-10.802
▁ਐਪੀ	-10.802
▁ਮੌਤਾਂ	-10.8022
▁ਗੋਰ	-10.8026
ਕਾਰੀ	-10.8028
▁ਨਾਟਕੀ	-10.8032
▁ਫਰਜ਼	-10.8033
ੈਕਸ	-10.8033
▁ਟਾਈਪ	-10.8035
▁ਆਰਡੀਨਲ	-10.8036
▁ਭਲਾਈ	-10.8036
▁ਵਿਹਡ਼ੇ	-10.8037
▁ਡੋਮੇਨ	-10.8038
▁ਲੈਪਲੇਸ	-10.8038
34	-10.804
▁ਤੋਡ਼ਨ	-10.8041
▁ਹਫਤਾਵਾਰੀ	-10.8044
▁ਲੋਗੋ	-10.8044
▁ਕਲਾਉਡ	-10.8046
▁ਫਸਲਾਂ	-10.8046
▁ਦਰਜਨ	-10.805
▁ਬੋਨ	-10.8052
▁ਵਿਧਾਨਕ	-10.8053
▁ਝੁਕ	-10.8055
ਾਊ	-10.8065
ਭ	-10.808
▁ਵਾਕਰ	-10.8081
▁ਪ੍ਰਸ਼ਨ	-10.8082
▁ਪ੍ਰੋਟੈਸਟੈਂਟ	-10.8082
▁ਕਾਰਕੁਨ	-10.8082
▁ਕੋਣ	-10.8085
▁ਆਦਰਸ਼	-10.8089
▁ਜਾਸੂਸ	-10.809
▁1931	-10.8091
ਪੱਖੀ	-10.8093
▁ਗੁਫਾ	-10.8101
▁ਬੋਝ	-10.8103
▁ਚੌਦਾਂ	-10.8103
▁ਸੋਸ਼ਲ	-10.8103
▁ਟੋਕੀਓ	-10.8103
▁ਢੱਕਿਆ	-10.8104
▁ਦੱਸਦੇ	-10.8104
▁ਢਾਂਚਾਗਤ	-10.8105
▁ਉਤਪਤੀ	-10.8106
▁ਜੁਡ਼ਵਾਂ	-10.8107
▁ਰੋਜ਼ਗਾਰ	-10.8109
ਬਾਰ	-10.8109
▁ਚਲਾਈ	-10.811
▁ਫੋਰਡ	-10.811
▁ਜ਼ੈੱਡ	-10.8112
▁ਸੁਧਾਰਾਂ	-10.8113
▁ਸਕਾਈ	-10.8119
▁ਦਵਾਈਆਂ	-10.8122
▁ਕਾਲਰ	-10.8123
ਵਰਡ	-10.8127
ਲਿਸ	-10.8129
▁ਦਾਖਲੇ	-10.813
▁ਮਜ਼ਬੂਤੀ	-10.813
11	-10.8136
80	-10.8144
ੈਂਡ	-10.8146
▁ਸੰ	-10.8151
▁ਢੁਕਵ	-10.8152
▁ਪ੍ਰਤੀਨਿਧ	-10.816
▁ਗਰੰਟੀ	-10.8161
▁ਸਰਗਰਮੀ	-10.8164
ਸਾਲ	-10.8168
▁ਮੁਫਤ	-10.8169
▁ਸਮਝੌਤਿਆਂ	-10.8169
▁ਖਡ਼੍ਹੇ	-10.817
▁ਨਮੀ	-10.8171
▁ਹਮਦਰਦੀ	-10.8171
▁ਆਇਓਵਾ	-10.8172
▁ਝੁੰਡ	-10.8172
▁1904	-10.8175
85	-10.8179
▁ਸ਼ਾ	-10.818
ਲੀਨ	-10.818
▁ਟਰਮੀਨਲ	-10.8181
▁ਐਪਲੀਕੇਸ਼ਨਾਂ	-10.8186
▁ਰਿਸ਼ਤੇਦਾਰਾਂ	-10.8187
o	-10.8189
▁ਗਰ	-10.8191
▁ਲਾਈਫ	-10.8192
਼	-10.8197
ਵਿ	-10.8199
.2	-10.8199
▁ਲਾਭਾਂ	-10.8204
13	-10.8206
ੌਨ	-10.8212
▁ਅਗਵਾ	-10.8224
▁ਕਾਰਡੀਨਲ	-10.8226
▁ਬੰਦੀ	-10.8232
▁ਤੀਬਰ	-10.8236
▁ਸ਼ਮੂਲੀਅਤ	-10.8236
▁ਸ਼ਰਧਾਂਜਲੀ	-10.8236
▁ਟਿੰਡਰ	-10.8236
ਵਿਚ	-10.8236
▁ਪ੍ਰਯੋਗਾਤਮਕ	-10.8237
▁ਪਾਠਕ੍ਰਮ	-10.8237
▁ਕ੍ਰਿਸਟੋਫਰ	-10.8239
▁ਸਾਊਂਡ	-10.8239
▁1903	-10.8239
▁ਗਤੀਸ਼ੀਲ	-10.824
▁ਰੌਲਾ	-10.824
▁ਤੈਰਾਕੀ	-10.8242
▁ਧਾਤੂ	-10.8244
▁ਫਰੈਂਕ	-10.8249
ਜੂ	-10.8251
ਾਈਟ	-10.8252
▁ਹੱਦਾਂ	-10.8252
▁ਨੇਵਾਡਾ	-10.8253
▁ਐਬੇ	-10.8277
▁ਆਦਮ	-10.8284
▁ਪੇ	-10.8287
ਫੋ	-10.8292
▁ਰੰਗੀਨ	-10.8295
▁ਪ੍ਰੋਫਾਈਲ	-10.8296
ੀਏਟ	-10.8297
▁ਗਾ	-10.8297
,000	-10.8298
ਡ਼	-10.8303
ਖੂੰਹਦ	-10.8304
▁ਕਨੈਕਟੀਕਟ	-10.8304
▁ਟੀਚਿਆਂ	-10.8304
▁ਜ਼ੁਲਮ	-10.8304
▁ਜੰਕਸ਼ਨ	-10.8307
▁ਭੂਮੀਗਤ	-10.8308
▁ਬੇਸ਼ਕ	-10.8309
▁ਇਲਾਕੇ	-10.831
▁56	-10.8311
▁ਚੱਲਿਆ	-10.8311
▁ਸੂ	-10.8311
▁ਨਿਯੰਤ੍ਰਿਤ	-10.8312
▁ਪਲੇਟ	-10.8319
▁ਕਾਰੋਬਾਰੀ	-10.832
▁ਵਫ਼ਾਦਾਰੀ	-10.8323
▁ਹਾਸੇ	-10.8324
▁ਕਾਰਨੇਲ	-10.8324
""),	-10.8327
▁ਰਨ	-10.8332
ਰੇਲ	-10.8334
ਲਾਲ	-10.8347
▁ਯੂਕਰੇਨੀ	-10.8349
▁ਮਿਡਲ	-10.835
▁ਸਮਰਥਕ	-10.8351
▁ਦੱਸੇ	-10.8363
▁ਥੱਕ	-10.8363
▁ਕਟੌਤੀ	-10.8364
▁ਕਾਲਾਂ	-10.8364
▁ਨਿਭਾ	-10.8364
▁ਸਲੀਬ	-10.8372
▁ਤੱਟਵਰਤੀ	-10.8372
ਡੇਨ	-10.8372
▁ਝੰਡੇ	-10.8373
▁1902	-10.8374
▁ਸਾਫਟਵੇਅਰ	-10.8377
▁ਬਟਲਰ	-10.8378
▁ਸਾਊਦੀ	-10.8379
▁ਘੰਟਾ	-10.838
▁ਬੀਜਿੰਗ	-10.8381
ਚੋਲ	-10.8381
ਹਾਂ	-10.8387
▁10,000	-10.839
▁ਬੈਠਾ	-10.839
ਡਲ	-10.839
▁ਡੇਵ	-10.8393
▁ਸਾਜ਼	-10.8394
▁we	-10.8398
-8	-10.8399
▁ਸੱਚੇ	-10.84
▁n	-10.8401
▁ਦਰਾਂ	-10.8401
▁ਧੁਨੀ	-10.8401
▁ਲੂਪ	-10.8402
ੱਟ	-10.8402
▁ਵਿਦਵਾਨਾਂ	-10.8403
▁ਵਿਲਾ	-10.8403
.4%	-10.8417
ਬੇਨ	-10.8422
ਾਰ	-10.8426
▁ਸਜਾਵਟ	-10.8427
▁ਖਿੱਚਣ	-10.8428
ਕੋਵ	-10.8428
ਵਿਕਸਿਤ	-10.844
▁ਰੂਜ਼ਵੈਲਟ	-10.844
▁ਮਲੇਰੀਆ	-10.8441
▁ਮੈਮਰੀ	-10.8441
▁ਅਹਿਮਦ	-10.8442
▁ਯੇਰੂਸ਼ਲਮ	-10.8442
▁ਵਿੱਦਿਅਕ	-10.8442
▁ਪਿਕ	-10.8444
▁ਫਿਲ	-10.8445
▁ਸ਼ੇਅਰ	-10.8445
▁ਵਿਆਕਰਣ	-10.8445
ਮਾਈ	-10.8445
▁ਅਤਿ	-10.8457
▁ਟੈਸਟਿੰਗ	-10.8458
▁ਰਹਿੰਦ	-10.8467
▁ਰਿਜ	-10.8478
▁ਵੇਨ	-10.8478
▁ਕੈਂਟ	-10.8479
▁ਨਾਇਕ	-10.8483
ਸੇਲ	-10.8485
▁ਸਲ	-10.8492
▁ਗੁਆਉਣ	-10.8493
▁ਸਰਜਰੀ	-10.8501
▁ਖੁੰਝ	-10.8509
▁was	-10.8509
▁ਚਲਾਉਂਦਾ	-10.851
▁ਵਿਅਰਥ	-10.851
▁ਹਸਤੀਆਂ	-10.851
▁ਅਗਲਾ	-10.851
▁ਪ੍ਰਗਤੀਸ਼ੀਲ	-10.8512
g	-10.8513
▁ਘੁੰਮਦੇ	-10.8515
▁ਪੈਟਰਿਕ	-10.8516
ਕੰ	-10.852
▁ਕੈਸਲ	-10.8523
ਵੇਟ	-10.8524
▁ਮੰਚ	-10.8527
▁ਵਰਲਡ	-10.8528
ਸੇਨ	-10.8531
52	-10.8532
▁ਚੇ	-10.8535
▁ਨੌਕਰੀਆਂ	-10.8537
▁ਰੂ	-10.854
46	-10.8541
ਰੀਨ	-10.8545
▁ਕੱਲ੍ਹ	-10.8553
▁ਕੰ	-10.8563
▁ਲੰਘਦੀ	-10.8578
▁ਸ਼ਤਰੰਜ	-10.8579
▁ਚੂਹੇ	-10.8579
▁ਐਲਗੋਰਿਦਮ	-10.858
▁ਸੈਂਟੀਮੀਟਰ	-10.8582
▁ਖਤਰਨਾਕ	-10.8583
▁ਰੱਖਿਆਤਮਕ	-10.8584
▁ਵਾਜਬ	-10.8587
▁ਚੌਡ਼ਾਈ	-10.8587
▁ਇੰਡੀਆ	-10.8592
ਮੈਟ	-10.8593
▁ਯ	-10.8593
ਮੇਨ	-10.8595
ਪਣ	-10.86
ਸਟੈਡ	-10.8602
.),	-10.8604
ਓਨ	-10.8612
▁ਸ਼ਰਾਬੀ	-10.8621
ਭਾਗ	-10.8623
ਕੋਰ	-10.8624
ਡੀਆ	-10.8627
-7	-10.8627
▁ਪਾਠਕ	-10.8629
▁ਐਟ	-10.8631
//	-10.8636
▁ਅਖ਼ਬਾਰਾਂ	-10.8637
ੋਕ	-10.8638
▁ਜਨੂੰਨ	-10.8638
ਪਿੰਗ	-10.8639
▁ਇਨਕਲਾਬ	-10.8641
▁ਗੋਲਡ	-10.8642
▁ਫਰਕ	-10.8644
▁ਫੀ	-10.8647
▁ਪ੍ਰੀਖਿਆ	-10.8647
▁ਗਿਰੋਹ	-10.8649
▁ਚਾਵਲ	-10.8649
▁ਕਦਰ	-10.865
▁ਡਿਜ਼ਨੀ	-10.8651
▁ਸਰਬਉੱਚ	-10.8651
▁ਰੀਤੀ	-10.8651
▁ਸ਼ੈਰਿਫ	-10.8654
ਬੋਨ	-10.8656
05	-10.867
44	-10.867
ਪ੍ਰੋ	-10.8671
ਹੈਮ	-10.8673
▁ਲਡ਼ਾਈਆਂ	-10.8677
▁ਸੱਕ	-10.868
▁(4	-10.8692
28	-10.8697
▁ਪੌਲ	-10.8698
▁ਵੋਲ	-10.8707
▁ਸੰਕੇਤਾਂ	-10.8709
▁ਸਟਾਪ	-10.871
▁ਕੁੰਜੀ	-10.8719
▁ਸੇਨੇਕਾ	-10.8719
▁ਭਿੰਨਤਾਵਾਂ	-10.872
▁ਤਗਮੇ	-10.8721
▁1901	-10.8721
▁ਸਰਬੀਅਨ	-10.8722
▁ਸੈਂਕਡ਼ੇ	-10.8722
▁ਪਰੰਪਰਾਵਾਂ	-10.8723
▁ਪ੍ਰਮਾਤਮਾ	-10.8724
▁ਡ੍ਰੈਗਨ	-10.8724
ਾਨੀ	-10.8724
ਐਡ	-10.8725
▁ਪੀਪਲਜ਼	-10.8726
▁ਇਬਨ	-10.8729
▁ਪ੍ਰਵਾਸੀਆਂ	-10.873
▁ਡਾਕ	-10.8731
▁ਹੈੱਡ	-10.8732
▁ਫ਼ਾਰਸੀ	-10.8734
ਸੀਜ਼ਨ	-10.8737
22	-10.874
▁ਮੰਗਣ	-10.8742
▁ਥੌਮਸ	-10.8744
▁ਮੁੱਢਲੀ	-10.8749
47	-10.8753
▁ਘਟੀਆ	-10.8756
ਰਿੰਗ	-10.8763
▁ਕੋਰਲ	-10.877
▁ਬਾਗ	-10.8778
ਨਾਮ	-10.8781
▁ਪਰਿਪੱਕ	-10.8788
▁ਕਿਨਾਰਿਆਂ	-10.879
▁ਡਾਕਘਰ	-10.8792
ਾਨੋ	-10.8792
▁ਮੈਨਹੱਟਨ	-10.8792
▁ਪੁ	-10.8793
▁ਕ੍ਰੋਮੋਸੋਮ	-10.8793
ਜਿਨ੍ਹਾਂ	-10.8794
▁ਆਗੂ	-10.8794
▁ਗਸ਼ਤੀ	-10.8798
▁1870	-10.8798
▁ਟਰ	-10.8809
▁ਪੈਟ	-10.881
▁62	-10.8818
▁ਮਿਆਰਾਂ	-10.8831
▁ਪੀਡ਼ਤਾਂ	-10.8836
ਰਮ	-10.8847
ਦੱਖਣ	-10.8849
38	-10.885
▁ਸੱਪ	-10.885
ਰਾਮ	-10.8856
.5%	-10.8858
ਜ਼ੇ	-10.8858
▁ਜ਼ਰੀਏ	-10.8862
▁ਰਿਸਰਚ	-10.8862
▁ਡੂੰਘਾ	-10.8862
▁ਖੋਜਕਰਤਾ	-10.8862
▁ਦਰਸਾਏ	-10.8863
▁ਅਧਿਆਪਨ	-10.8863
▁ਕੀਡ਼ੇ	-10.8864
▁ਖੁਸ਼ਕਿਸਮਤ	-10.8865
▁ਸੋਚਦਾ	-10.8867
▁ਸਰਵਿਸ	-10.8869
▁ਨੋਵਾ	-10.8873
▁ਟੋਪੀ	-10.8875
▁ਵਾਡ਼	-10.8878
▁ਨਾਜ਼ੀ	-10.8884
▁for	-10.8885
▁ਖਾਤੇ	-10.8893
▁ਲਾਈਟਾਂ	-10.8898
ਡਜ਼	-10.8902
▁ਮਿਸਰੀ	-10.8906
▁ਪਹੁੰਚਦਾ	-10.8906
ਗੂ	-10.8907
▁ਲੋਡ	-10.8909
▁ਯੰਤਰ	-10.8912
▁ਦੂਤ	-10.8912
▁ਮਾਸੀ	-10.8913
▁ਕੱਟੇ	-10.8914
▁ਭਾਈਵਾਲ	-10.8915
ਕਿੰਗ	-10.8915
▁ਫੇ	-10.8918
▁ਪ੍ਰਕਿਰਤੀ	-10.8934
▁ਬੇਤਰਤੀਬੇ	-10.8934
▁ਬੈਕਟੀਰੀਆ	-10.8934
▁ਮੁੱਦਾ	-10.8934
▁ਮਲੇਸ਼ੀਆ	-10.8934
▁ਆਕਰਸ਼ਕ	-10.8935
ਲਗਭਗ	-10.8937
▁ਸੋਚਦੇ	-10.8939
▁ਜਲਾਵਤਨੀ	-10.8939
ਜ਼ਨ	-10.8941
▁ਜਾਣਨ	-10.8941
▁ਤੀਬਰਤਾ	-10.8943
▁ਠੰਡਾ	-10.8943
▁ਦ੍ਰਿਸ਼ਟੀ	-10.8949
▁ਮਲਟੀ	-10.895
▁ਤਾਲ	-10.8951
▁ਸਿਗਰਟ	-10.8953
▁ਨਿਕ	-10.8972
▁ਹਰੀ	-10.8973
▁ਗਾਰਡਨ	-10.8981
▁ਸਾਧਨਾਂ	-10.8983
66	-10.899
▁ਵਿਦਰੋਹੀ	-10.8991
▁ਪ੍ਰਸੰਗ	-10.9004
ਿੰ	-10.9004
▁ਖਪਤ	-10.9005
▁ਖ਼ਿਤਾਬ	-10.9006
▁ਫੈਸਲਿਆਂ	-10.9006
▁ਹਾਰਡਵੇਅਰ	-10.9006
▁ਉਤਪੰਨ	-10.9007
▁ਚਿੰਤਾਵਾਂ	-10.901
▁ਮਹਾਂਕਾਵਿ	-10.901
▁ਸਟੋਨ	-10.9011
▁ਮਿਸ਼ਨਰੀ	-10.9012
▁ਫੋਰ	-10.9018
▁ਸੁਰ	-10.9018
▁ਸਿਲਵਰ	-10.902
▁ਸਰਵ	-10.9023
▁ਵਰਤੀਆਂ	-10.9026
▁4.	-10.9028
ਰਿਸ	-10.9034
▁ਓਪਰੇਟ	-10.9036
▁ਅੰਦਾਜ਼	-10.9037
▁ਪੰਜਵਾਂ	-10.9037
ਬਰਟ	-10.904
ੰਡ	-10.9046
▁ਵੇਖਣਾ	-10.9047
▁ਔ	-10.9048
▁ਬੋਨਸ	-10.9056
▁ਅਨੁਸ਼ਾਸਨ	-10.906
▁ਜਾਇਦਾਦਾਂ	-10.9067
▁ਪ੍ਰਕਾਸ਼ਕ	-10.907
▁ਚੈਰਿਟੀ	-10.9071
er	-10.9072
-21	-10.9076
▁ਅਧਿਆਪਕਾਂ	-10.9076
▁ਜੋਂਗ	-10.9078
ਫੋਰ	-10.9079
▁ਹਵਾਬਾਜ਼ੀ	-10.9079
▁ਪਡ਼ਾਇਆ	-10.9079
▁ਰੋਮਾਨੀਆ	-10.908
▁ਤਜਰਬੇਕਾਰ	-10.9081
ਪਾਲ	-10.9081
ਵਿਸ਼ੇਸ਼	-10.9083
▁ਵਾਲੀਬਾਲ	-10.9084
▁ਕੁਡ਼ੀ	-10.9085
▁ਨਾਜ਼ੁਕ	-10.9085
ਮੱਧ	-10.9085
ਘਰ	-10.9085
▁ਯਾਦਾਂ	-10.9086
ਕਮ	-10.9087
ਕਟ	-10.9089
ਲੇਸ	-10.909
▁72	-10.911
▁ਬਿ	-10.911
▁ਧਿਰਾਂ	-10.9118
▁ਸਰਪ੍ਰਸਤ	-10.9127
▁ਅਸ਼ਲੀਲ	-10.9133
▁ਗਲਾਸਗੋ	-10.9153
▁ਐਂਟੋਨੀਓ	-10.9153
▁ਪ੍ਰੈਸਬਾਇਟੇਰੀਅਨ	-10.9153
▁ਪੱਥਰਾਂ	-10.9155
▁1888	-10.9155
▁ਵ੍ਹੇਲ	-10.9155
▁ਪੈਨਲਟੀ	-10.9156
▁ਅਧਿਆਤਮਿਕ	-10.9157
▁ਪਲੇਨ	-10.9157
▁ਤੁਲਨਾਤਮਕ	-10.9158
▁ਦਬਦਬਾ	-10.9159
ੀਨਾ	-10.9159
▁ਤੰਬਾਕੂ	-10.9165
▁ਚੁੱਕ	-10.9165
ੇਬਲ	-10.917
▁ਜੁਡ਼ੀਆਂ	-10.9171
▁ਵਿਨ	-10.9173
▁ਸਰਲ	-10.9179
▁ਬਦਲਵੇਂ	-10.9185
▁ਕਬਰਾਂ	-10.9197
▁ਸਿੰਗ	-10.9198
▁ਆਪਸੀ	-10.9199
▁ਤਿਉਹਾਰਾਂ	-10.9208
▁ਤਿੰਨਾਂ	-10.9208
▁ਸਦੀਆਂ	-10.9209
▁ਸੌਣ	-10.9214
ਢ	-10.9219
▁ਵਿਧਵਾ	-10.9225
▁ਬੈਟਰੀ	-10.9225
▁ਫ੍ਰੀਸਟਾਈਲ	-10.9227
▁ਗੁੱਸਾ	-10.9228
▁ਗੀਅਰ	-10.9229
▁ਅਪਮਾਨਜਨਕ	-10.923
▁ਰਸਤਾ	-10.9231
▁ਧਾਰਨਾਵਾਂ	-10.9232
ਕਿਉਂਕਿ	-10.9232
.6%	-10.9233
▁ਸਟੈਲਾ	-10.9233
▁ਯੋਗਤਾਵਾਂ	-10.9234
-14	-10.9239
▁ਗੰਭੀਰਤਾ	-10.9241
▁ਚਾਲੀ	-10.9247
▁ਮਾਲੀਆ	-10.9248
▁ਡਿਜ਼ਾਈਨਰ	-10.9248
▁ਸੋਲੋ	-10.925
ਨੇਸ	-10.9256
▁74	-10.9268
▁ਜੇਤੂਆਂ	-10.928
▁ਰੀਸ	-10.9282
ਤਾਂ	-10.9284
▁ਵਰਤਣ	-10.9286
ਹਾਰ	-10.9289
▁ਮੰਨੇ	-10.929
▁ਵਧੀ	-10.9292
▁58	-10.9294
ਬ੍ਰ	-10.9297
▁ਅਸ਼ੀਰਵਾਦ	-10.9301
▁ਤੋਹਫ਼ਿਆਂ	-10.9301
▁ਬੇਲਜੀਅਮ	-10.9301
▁ਨੈਟਵਰਕ	-10.9301
▁ਝਰਨੇ	-10.9302
55	-10.9302
▁ਸਤਿਕਾਰ	-10.9303
▁ਲੰਘਦੇ	-10.9305
ਬਿਲਬੋਰਡ	-10.9307
ਵਰਤਮਾਨ	-10.9307
▁ਬੈਰੀ	-10.9307
▁ਡੈੱਕ	-10.9308
▁ਜਾਦੂ	-10.9309
▁ਬੰਧਨ	-10.9309
ਕਾਨੂੰਨੀ	-10.9311
▁ਸਮਝਦੇ	-10.9312
▁ਗਿ	-10.9312
▁ਬਦਨਾਮ	-10.9313
ਕੁੱਲ	-10.9316
ਪਨ	-10.9317
▁ਵਾਇਰਸ	-10.932
▁ਢੁਕਵਾਂ	-10.9324
▁ਵੰਸ਼	-10.9325
▁ਹਾਰਟ	-10.9331
▁ਕੰਟਰੀ	-10.9333
▁ਦੁਕਾਨਾਂ	-10.9336
▁ਚਾਹ	-10.9339
ਨਬਰਗ	-10.9344
▁ਫੈਨ	-10.9344
▁ਮੋਂਟੇ	-10.9347
▁ਵੇ	-10.9363
▁ਸਪੀਡ	-10.9368
▁ਪਡ਼੍ਹੇ	-10.9371
▁ਖੁਫੀਆ	-10.9376
▁ਕ੍ਰੋਏਸ਼ੀਆ	-10.9376
▁ਰੈਲੀ	-10.9377
▁ਰੋਕਥਾਮ	-10.9379
ਅੰਗਰੇਜ਼ੀ	-10.9383
▁ਮਾਈਨਿੰਗ	-10.9385
▁ਥੌਮਸਨ	-10.9387
▁ਪੰਪ	-10.9391
▁ਸੰਪਤੀਆਂ	-10.9392
ਲਜ਼	-10.9394
▁ਬਾਡੀ	-10.9395
▁ਧਮਕੀਆਂ	-10.9396
▁ਪਾਦਰੀਆਂ	-10.9404
-15	-10.9412
ਮੰਡ	-10.9415
▁ਐਲੀ	-10.9417
▁ਗੋਲਡਨ	-10.9421
▁ਰਸਾਇਣ	-10.9427
▁ਲੱਛਣ	-10.9432
▁ਟੇਕ	-10.9437
▁ਚਾਨਣ	-10.9441
▁ਰੂਡ਼੍ਹੀਵਾਦੀ	-10.9445
▁ਉਤਰਨ	-10.9445
64	-10.9448
▁ਵਕੀਲਾਂ	-10.9451
▁ਬਹੁਮਤ	-10.9452
▁ਲਗਾਉਂਦੇ	-10.9453
▁ਤਸ਼ੱਦਦ	-10.9453
▁ਦਹਿਸ਼ਤ	-10.9455
▁ਗ੍ਰਾਹਮ	-10.9455
▁ਲੀਸਾ	-10.9456
ਨਿਸ਼ਚਿਤ	-10.9457
▁1899	-10.9461
▁ਸੁੱਕੇ	-10.9462
▁ਕਾਰਬਨ	-10.9463
▁ਛੁੱਟੀਆਂ	-10.9464
▁ਸਕੇਲ	-10.9465
▁ਸੀਰੀਆ	-10.9465
▁ਘੇਰੇ	-10.9477
▁ਕੁਆਰੀ	-10.9485
ਹਿਲ	-10.9485
▁ਬਲਦ	-10.9498
ਰਿ	-10.95
▁ਦੇਵਾਂਗਾ	-10.95
ਰਡ	-10.9503
▁ਖੱਡ	-10.9508
▁ਡਿਗਰੀਆਂ	-10.951
▁ਮੱਝ	-10.9513
▁ਗੁਲਾਬ	-10.9521
▁ਪ੍ਰਸਾਰ	-10.9522
▁ਤਾਕਤਾਂ	-10.9524
▁ਇਕਜੁੱਟ	-10.9526
▁ਸਾਵਧਾਨੀ	-10.9528
▁ਊਰ੍ਜਾ	-10.9529
▁ਦਿਵਸ	-10.9529
▁ਆਨੰਦ	-10.9529
▁ਬਰਨਾਰਡ	-10.9529
▁ਸਲਾਦ	-10.9536
▁ਸੰਭਾਵਨਾਵਾਂ	-10.954
▁ਜੁ	-10.9548
▁ਸਪਾਈਕ	-10.9548
ਬੋਰਡ	-10.9551
▁ਵੇਂ	-10.9556
ਮਾਸ	-10.9557
▁ਜੱਜਾਂ	-10.9559
27	-10.9563
▁ਸੋਲਰ	-10.9565
▁ਵਾਰਨਰ	-10.9566
ਨਿ	-10.9567
60	-10.9576
▁ਕਾਰੋਬਾਰਾਂ	-10.9581
▁ਪਿੱਚ	-10.9582
▁ਚੱਲੀ	-10.9584
▁ਹਿੱਤ	-10.959
ਡ਼ਾ	-10.9591
▁ਰਾਸ਼ਟਰਾਂ	-10.9596
2)	-10.96
▁ਖੋਲ੍ਹੀ	-10.9602
▁ਮੁਦਰਾ	-10.9604
▁ਜਾਂਚਕਰਤਾ	-10.9605
▁ਚੈ	-10.9605
ਬਰਨ	-10.9605
▁ਉਪਾਵਾਂ	-10.9605
▁ਬਦਲਣਾ	-10.9605
▁ਅਪਡੇਟ	-10.9606
▁ਨਾਬਾਲਗ	-10.9606
▁ਪ੍ਰਕਾਸ਼ਨਾਂ	-10.9606
▁ਮਾਰਗਾਂ	-10.9607
▁ਹਾਈਵੇਅ	-10.9608
▁1860	-10.9608
▁ਪੋਰਟਰੇਟ	-10.9608
▁ਮਕੈਨੀਕਲ	-10.9608
▁ਉੱਭਰ	-10.9608
▁ਲਿਆਂਦਾ	-10.9608
▁ਪੈਟ੍ਰਿਕ	-10.9614
▁ਯੋ	-10.9615
▁ਸੁਣੀ	-10.9616
ਪ੍ਰ	-10.9616
▁ਰੋਸਟਰ	-10.9617
ਉਹਨਾਂ	-10.9617
▁ਪਸ਼ੂਆਂ	-10.9618
▁ਯੰਗ	-10.9621
▁ਜਾਵਾ	-10.9622
▁ਖਰਚੇ	-10.9626
▁ਗੁਲਾਬੀ	-10.963
▁ਲਾਭਕਾਰੀ	-10.9642
▁250	-10.9644
ਵਰਥ	-10.9644
▁ਪੱਖਪਾਤ	-10.9658
ਚਿ	-10.9666
▁ਪਹਿਨਣ	-10.9672
▁ਕੁਰਸੀ	-10.9676
▁ਮਸ਼ੀਨਾਂ	-10.9677
ਕਿਊ	-10.9678
com	-10.9683
▁ਕਸਬਿਆਂ	-10.9683
▁ਢੁਕਵੀਂ	-10.9683
▁ਨਿਰਯਾਤ	-10.9683
▁ਸੱਦਿਆ	-10.9683
▁ਰੁਖ	-10.9683
▁ਹੈਲੀਫੈਕਸ	-10.9684
▁ਸਕ੍ਰੋਲਿੰਗ	-10.9685
▁ਦਰਸਾਈ	-10.9686
▁ਪ੍ਰਗਟਾਈ	-10.9686
▁ਕੈਥਰੀਨ	-10.9687
▁ਸੰਵੇਦਨਸ਼ੀਲ	-10.9687
▁ਪੱਕਾ	-10.9687
▁ਹੋਣਗੀਆਂ	-10.9687
ੁਲ	-10.969
ਸੰਯੁਕਤ	-10.9692
▁ਹਾਰਡ	-10.9693
▁ਨਵੀਨਤਾ	-10.9694
▁ਮਾਰੀ	-10.9696
▁ਸੰਜਮ	-10.9697
▁ਜਵਾਬੀ	-10.9698
▁ਫੋਟੋਆਂ	-10.9698
▁ਭੰਡਾਰਨ	-10.9706
▁ਸਮਰਥਕਾਂ	-10.9707
ਮਿਨ	-10.9707
31	-10.9711
ਰੋਸ	-10.9718
45	-10.972
42	-10.9724
▁ਪਹਿਨ	-10.9728
58	-10.9735
▁ਸਡ਼ਨ	-10.9737
▁ਰਿਸ਼ਤੇਦਾਰ	-10.9742
▁ਵਹਿੰਦੀ	-10.9753
▁ਕੇਂਦ੍ਰਤ	-10.9761
▁ਤਰਫੋਂ	-10.9761
▁ਰਿਜ਼ੋਰਟ	-10.9761
▁ਹਿਰਾਸਤ	-10.9761
▁ਲਿਖਦਾ	-10.9764
▁ਬੈ	-10.9766
▁ਪ੍ਰੇਸ਼ਾਨ	-10.9767
▁ਹਾਲੀਵੁੱਡ	-10.9767
▁ਹਿੱਸੇਦਾਰੀ	-10.9768
▁ਚਾਲੂ	-10.9769
▁ਵੁਲਫ	-10.9769
▁ਉੱਤਮਤਾ	-10.9772
▁ਕ੍ਰਿਪਾ	-10.9772
▁ਬੀਅਰ	-10.9777
▁ਖਿੱਚ	-10.9778
67	-10.9784
▁ਮੋਹਰੀ	-10.9792
ਕਿਸੇ	-10.9795
▁ਰਾਜਿਆਂ	-10.9797
▁ਉਨ	-10.9799
▁ਪੱਤਰਕਾਰੀ	-10.9799
ੈਨ	-10.9806
▁ਅੰਗਾਂ	-10.981
▁(10	-10.9812
▁ਟੈਗ	-10.9812
▁ਮੈਟਲ	-10.9813
▁ਉਤਰ	-10.9817
ਓਹ	-10.9817
▁ਚੀ	-10.9828
ਟਿੰਗ	-10.9836
▁ਪਣਡੁੱਬੀ	-10.9836
▁ਸਾਈਨ	-10.9837
▁ਮਾਹੌਲ	-10.984
▁ਆਰਕਾਨਸਾਸ	-10.9842
▁ਲਿਖਦੇ	-10.9842
▁ਗਤੀਸ਼ੀਲਤਾ	-10.9843
ਪਰਹੇਜ਼	-10.9844
▁ਝੁਕਾਅ	-10.9844
▁ਲੈਂਡਿੰਗ	-10.9845
▁ਬਣਦਾ	-10.9846
▁ਸੰਚਾਰਿਤ	-10.9849
▁ਸਾਰਾਹ	-10.985
▁ਤਰਲ	-10.985
▁68	-10.9854
88	-10.9863
▁ਖੇਤਾਂ	-10.9868
▁ਐਂਡਰੇ	-10.9891
▁ਪਲੇਅ	-10.9898
▁ਲੁਕਾਉਣ	-10.9903
▁ਆਉਣਾ	-10.9908
.9%	-10.9911
▁ਮੋਟੇ	-10.9913
▁ਨਿਕੋਲ	-10.9918
▁ਅਸ	-10.9919
▁ਈਥੀਓਪੀਅਨ	-10.9919
▁ਬੰਗਲਾਦੇਸ਼	-10.9919
▁ਕੰਕਰੀਟ	-10.9919
▁ਵਹਿੰਦਾ	-10.9919
▁ਨਮਕ	-10.9919
▁ਕੱਪਡ਼ਿਆਂ	-10.992
▁ਹਰਾਉਣ	-10.9921
▁ਅਪੋਸਟੋਲਿਕ	-10.9921
▁ਤੰਦਰੁਸਤੀ	-10.9922
▁ਦਿਵਾਉਂਦ	-10.9923
ੱਡ	-10.9924
▁ਓਟੋਮਨ	-10.9924
▁ਫੂਡ	-10.9924
▁ਕਵਿਤਾਵਾਂ	-10.9925
▁ਹਿਸਪੈਨਿਕ	-10.9927
▁ਖੋਜਾਂ	-10.9932
▁ਲਿਲ	-10.9934
▁ਸੰਗੀਤਕ	-10.9939
ਸੈਕਸ਼ਨ	-10.9943
33	-10.9945
▁ਕਾਪੀ	-10.9946
ਡੋਰ	-10.9947
ੈ	-10.9948
▁ਪ੍ਰਾਪਤੀਆਂ	-10.9953
▁ਜਡ਼	-10.9954
▁ਗਲਤੀਆਂ	-10.9956
▁ਖਰੀਦੀ	-10.9958
▁ਬਰਨ	-10.9959
▁ਨੀਲੀ	-10.9963
ਪਿਨ	-10.9965
▁ਅੰਗਰੇਜ਼	-10.9967
▁ਬੁਸ਼	-10.9967
ੀਨੋ	-10.9971
▁ਕੋਮ	-10.9984
▁ਜਾਲ	-10.9986
▁ਕ੍ਰਿਆ	-10.9993
▁ਟੇਪ	-10.9993
▁ਵਿਅੰਜਨ	-10.9999
▁ਖ਼ਤਰਨਾਕ	-10.9999
▁ਡੱਲਾਸ	-10.9999
▁ਅਲਾਸਕਾ	-10.9999
▁ਯਾਰਕਸ਼ਾਇਰ	-11
▁ਤਖਤਾਪਲਟ	-11.0005
▁ਰਾਈਟ	-11.0008
▁ਰਿਓ	-11.0016
ਤੋ	-11.0017
▁ਪਿਛਲੀਆਂ	-11.0019
▁ਕਮਰਾ	-11.002
▁ਫੈਡਰ	-11.0027
▁ਪਰੇਡ	-11.0033
▁ਯਹੂਦੀਆਂ	-11.0036
▁ਔਰ	-11.0047
▁ਡੋਰ	-11.0051
▁ਵਿਕਲਪਾਂ	-11.0057
▁ਪੈਰੀ	-11.0058
▁ਖੋਲ੍ਹਣ	-11.0064
ਨਿਊ	-11.0064
▁66	-11.0078
ਫਿਨ	-11.0078
▁him	-11.008
▁ਬੁਡ਼	-11.008
▁ਰਿਹਾਈ	-11.0083
▁ਕਿਲੋਗ੍ਰਾਮ	-11.0086
▁1896	-11.0088
▁ਕਿਰਾਏਦਾਰ	-11.009
▁ਲਡ਼	-11.0098
▁ਪੁਰਤਗਾਲ	-11.0104
▁ਚੌਥਾਈ	-11.0106
▁ਬਲੂਜ਼	-11.0112
ਮਸ	-11.0112
▁ਮੇਨ	-11.0117
▁ਲੰਬੀਆਂ	-11.012
▁$1	-11.0125
▁ਪੁਰਸਕਾਰਾਂ	-11.0128
▁ਮਹਾਂਦੀਪ	-11.0132
▁ਪੱਤਰਕਾਰਾਂ	-11.0133
▁ਸਟੈਟ	-11.0138
▁ਇੰਜੀਲ	-11.014
▁ਐਪਲੀਕੇਸ਼ਨ	-11.0145
▁ਪਲੇਅਰ	-11.0146
▁ਮਾਰਕਸ	-11.0149
▁ਗਾਉਣ	-11.0149
▁ਸ਼ਿਵ	-11.0152
▁ਸਦੀਵੀ	-11.0153
▁ਪੌਲੀ	-11.0153
▁ਅਦਾਕਾਰਾਂ	-11.0157
▁ਰਾਸ਼ਟਰਵਾਦੀ	-11.0157
▁ਦੁਖਦਾਈ	-11.0161
▁ਮਹਾਂਸਾਗਰ	-11.0161
▁ਸਮਤਲ	-11.0161
▁ਬੈਂਚ	-11.0161
▁ਸੰਘਣੇ	-11.0162
ੋਜ਼	-11.0163
▁ਕੈਰੋਲਿਨਾ	-11.0163
36	-11.0164
▁ਸਾਊਂਡਟ੍ਰੈਕ	-11.0165
▁ਵਾਟਸਨ	-11.0166
▁ਐਡਮਜ਼	-11.0167
▁ਫਿਲਮਾਇਆ	-11.0169
▁ਸਮਝਿਆ	-11.0169
▁ਲਾਗ	-11.0171
▁ਹਾਲਤਾਂ	-11.0172
ਨਹੀਂ	-11.0174
ਅੱਗੇ	-11.0176
ਬ੍ਰਿਜ	-11.0177
▁ਦਫਤਰਾਂ	-11.0177
▁ਸਮ	-11.0177
▁ਚੈਨਲਾਂ	-11.018
▁ਨਿਊਟਨ	-11.0181
▁ਗਾਇਆ	-11.0181
▁ਵੇਖੀਆਂ	-11.0189
ਬਨ	-11.0193
▁ਵੈਰ	-11.0196
▁ਯਾਨ	-11.0198
ਗਤ	-11.0202
▁ਐਪਲ	-11.0211
▁ਮੁਸ਼ਕਿਲ	-11.0227
▁ਕਾਤਲ	-11.0228
▁ਅਲਬਾਨੀਆ	-11.0229
ਬੁ	-11.023
▁ਸੰਗੀਤਕਾਰਾਂ	-11.023
▁ਨੋਰਫੋਕ	-11.0243
▁ਮਾਰੂਥਲ	-11.0243
▁ਪਾਲਤੂ	-11.0244
▁ਏਕੀਕਰਣ	-11.0245
▁ਤਗ਼ਮਾ	-11.0245
▁ਰਸੇਲ	-11.0246
▁who	-11.0247
24	-11.0248
▁ਅਟੁੱਟ	-11.0249
▁ਜ਼ਹਿਰ	-11.0249
▁ਖਰੀਦੇ	-11.025
▁ਪ੍ਰਾਈਮ	-11.0251
▁ਸੰਪਾਦਿਤ	-11.0251
.2%	-11.0252
▁ਡਰੱਮ	-11.0254
▁ਬਾ	-11.0255
▁1893	-11.0255
▁ਸੂਟ	-11.0262
▁ਯੁੱਧਾਂ	-11.0265
▁ਹੋਮਜ਼	-11.0271
▁ਅਪਾਹਜਾਂ	-11.0272
ਗਾਇਬ	-11.0274
▁ਯਾ	-11.0284
▁ਛੇਵੀਂ	-11.0284
▁(5	-11.0288
▁ਫਲੋਰ	-11.0294
or	-11.0297
▁ਮੁਸਲਮਾਨ	-11.0305
▁ਪਹੁੰਚਾਉਣ	-11.0311
ਰਾਜੀ	-11.0312
▁ਰਸ	-11.0318
▁ਮੱਕਡ਼ੀ	-11.0322
ਟੇਕ	-11.0324
▁ਅਣਉਚਿਤ	-11.0326
▁ਕੂਟਨੀਤਕ	-11.0326
▁ਢਾਂਚਿਆਂ	-11.0326
▁ਨੁਮਾਇੰਦਿਆਂ	-11.0326
▁67	-11.0326
▁ਲਗਾਉਂਦਾ	-11.0326
▁ਸਟੀਵਰਟ	-11.0327
▁ਮਿਥਿਹਾਸ	-11.033
▁ਏਸਿਡ	-11.0332
ਸਿਰਲੇਖ	-11.034
ਕੁਝ	-11.034
▁57	-11.0341
ਨੂ	-11.0343
06	-11.0345
ਮੁਖੀ	-11.0345
%	-11.0349
▁ਭਾਈਵਾਲਾਂ	-11.0349
▁ਕਾਮ	-11.036
ਮਲ	-11.0363
▁ਅਜ਼	-11.037
ਇਕ	-11.0377
▁ਪੈਂਟ	-11.0379
ਮਿਲ	-11.0379
▁ਡਾਈ	-11.0382
79	-11.0386
▁ਪ੍ਰਦੇਸ਼	-11.0388
▁ਅਜ਼ਮਾਇਸ਼	-11.0388
▁ਲੱਤ	-11.039
70	-11.0392
ਟਜ਼	-11.0392
▁ਨਿਰਾਸ਼ਾ	-11.0402
▁ਅਸਲੀ	-11.0404
▁ਲਾਸ਼	-11.0404
ਪੁ	-11.0409
▁ਅਖਾਡ਼ੇ	-11.0409
▁ਏਕੀਕਰਨ	-11.0409
▁ਢਹਿ	-11.0409
▁ਲਾਪਤਾ	-11.0409
▁ਦਫ਼ਨਾਉਣ	-11.0409
▁ਪਰਿਸ਼ਦ	-11.0409
▁ਸਿੰਡਰੋਮ	-11.0409
▁ਪੱਬ	-11.0409
▁ਨੁਕਸਾਨਦੇਹ	-11.041
▁ਸੱਠ	-11.0411
▁ਬੁੱਢੇ	-11.0413
▁ਦੱਸੀ	-11.0414
▁1891	-11.0415
▁ਦਇਆ	-11.0415
ਆਧੁਨਿਕ	-11.0424
▁ਜੋਡ਼ਦੀ	-11.0424
▁ਟਰੱਸਟੀ	-11.0429
▁ਢੱਕ	-11.043
▁ਬ੍ਰੇਕ	-11.0431
▁ਫੋਰਮ	-11.0436
▁1881	-11.0436
▁ਰਾ	-11.0436
▁ਕਿਸਾਨਾਂ	-11.044
▁95	-11.0456
▁ਸਰਹੱਦਾਂ	-11.0458
▁ਨਗਰ	-11.0459
▁ਕਮਰ	-11.0468
▁ਸੁਰੰਗ	-11.0473
▁ਧੱਕ	-11.0477
▁ਧੋਖੇਬਾਜ਼	-11.0478
ਮੁ	-11.0484
▁ਤਤਕਾਲੀ	-11.0493
▁ਦੀਵਾਲੀਆਪਨ	-11.0493
▁ਚੁੱਪਚਾਪ	-11.0493
▁ਪੂਰਵਗਾਮੀ	-11.0493
▁ਡੈਨਮਾਰਕ	-11.0493
▁ਪੈਰਾਬੋਲਾ	-11.0495
▁85	-11.0495
▁ਬੁਲਗਾਰੀਅਨ	-11.0496
▁ਫਾਰਵਰਡ	-11.0498
ਬੂਟੀਆਂ	-11.05
▁ਡੌਕ	-11.05
▁ਭੇਡਾਂ	-11.0501
▁ਚਿੰਨ੍ਹਿਤ	-11.0501
▁ਨੋਬਲ	-11.0504
ਸੈੱਟ	-11.0507
▁ਅਦਾਨ	-11.0513
▁ਅਥਲੀਟਾਂ	-11.0513
▁(12	-11.0519
▁ਵੈਗਨ	-11.0524
▁600	-11.0526
▁ਉਚਾਈਆਂ	-11.0527
.3%	-11.0533
37	-11.0535
▁ਸੰਪਾਦਕੀ	-11.0543
ਕੇਟ	-11.0543
▁ਹੋਵੋ	-11.0547
▁ਹਿ	-11.0554
▁ਲੋਡ਼	-11.0554
▁61	-11.0558
▁ਗਿਲ	-11.056
ਏਨ	-11.0564
▁ਲਿਖਣਾ	-11.0565
▁ਦਿਆਲੂ	-11.0578
▁ਵਣਜ	-11.0578
▁ਪ੍ਰਾਣੀ	-11.0578
▁ਰਹੱਸਮਈ	-11.0578
▁ਅਸਿੱਧੇ	-11.0578
▁ਮੋਰੱਕੋ	-11.0578
▁ਵੈਂਗ	-11.058
▁ਤਿਮਾਹੀ	-11.0581
▁ਜਿਨ	-11.0581
▁ਇੰਡੋਨੇਸ਼ੀਅਨ	-11.0581
▁ਬੁੱਲ੍ਹਾਂ	-11.0586
▁ਬਿਸ਼ਪਾਂ	-11.0591
▁ਰਿਵਾਜ	-11.0591
▁ਕੋਮਲ	-11.0592
ਟਾਊਨ	-11.0595
ਪਿ	-11.0597
ਨਲ	-11.0599
▁ਪੋਰਟੋ	-11.0601
▁ਸ਼ਿ	-11.0601
77	-11.0604
ਲੁ	-11.0612
▁ਜਿੰਨ	-11.0614
ਫੈ	-11.0617
01	-11.0621
▁ਬਰਟ	-11.0628
▁ਲਿਖ	-11.0639
ਸੋਲ	-11.0643
▁ਕਾਮਿਕ	-11.0645
▁ਅਥਲੀਟ	-11.0645
▁ਬਿਤਾਉਣ	-11.0647
23	-11.0651
▁ਬਣੀਆਂ	-11.0661
▁ਦੂਤਾਵਾਸ	-11.0663
▁ਵੇਰਵਿਆਂ	-11.0663
▁ਅਪਗ੍ਰੇਡ	-11.0663
▁ਝੰਡਾ	-11.0665
▁ਪ੍ਰਿਕਸ	-11.0665
▁ਸ਼ਰਮਿੰਦਾ	-11.0665
▁ਚਿਹਰਾ	-11.0665
▁ਵਰਚੁਅਲ	-11.0666
▁ਵਾਕਾਂਸ਼	-11.0666
▁ਫੋਟੋਗ੍ਰਾਫੀ	-11.0667
▁ਸਿਮਾ	-11.0668
ਟ੍ਰੈਫਿਕ	-11.0668
▁ਨੌਰਥ	-11.0669
ਮੰਡਲ	-11.0672
ਾਲ	-11.0673
▁1850	-11.0676
▁ਫ੍ਰੈਂਕੋਇਸ	-11.0677
ਤਿੰਨ	-11.068
▁ਪੇਜ	-11.0687
▁ਇਕੋ	-11.0693
-11	-11.0693
▁ਕਾਲੀਆਂ	-11.0695
▁ਤਰੀਕਾਂ	-11.0699
▁ਲੌ	-11.07
▁ਮਾਸਕ	-11.0702
▁ਸ਼੍ਰੇਣੀਆਂ	-11.0704
▁ਗਰਜ	-11.0706
ਤਮਕ	-11.0708
ੰਬ	-11.0712
ਐਂਡ	-11.0712
73	-11.0722
▁ਕਾਰਨੀ	-11.0724
ਪੈਕ	-11.0726
92	-11.0727
▁ਵਰਕਸ਼ਾਪ	-11.0729
▁ਪੈਕੇਜ	-11.0729
▁ਵੈਲ	-11.073
▁(9	-11.0733
▁ਖਿੰਡ	-11.0746
▁(14	-11.0748
▁ਲਿਆਇਆ	-11.075
▁ਵਿਕਟੋਰੀਅਨ	-11.075
▁ਸਰਾਪ	-11.075
▁ਸੱਚੀ	-11.0751
▁ਸਿੰਘਾਸਣ	-11.0752
▁ਆਇਤਾਕਾਰ	-11.0752
▁ਮਰਜ਼ੀ	-11.0753
▁ਕੌਫੀ	-11.0755
▁are	-11.0756
▁ਬੁਰਾਈ	-11.0758
▁ਇੱਛਾਵਾਂ	-11.0759
ਫੋਨ	-11.0762
""-""	-11.0763
-9	-11.0768
ਾਰਾ	-11.077
ਵੈੱਲ	-11.0774
▁ਪ੍ਰਸ਼ਨਾਂ	-11.0776
▁ਪਾਈਪ	-11.078
▁ਹਿੱਪ	-11.0785
▁ਪੁਲਾਂ	-11.0786
89	-11.0786
▁ਲਿਲੀ	-11.0787
ੀਕਰਨ	-11.0789
ਧ	-11.0796
▁ਖੇਡੀਆਂ	-11.0805
ਓਸ	-11.0807
ਲਨ	-11.0812
▁ਵਹਿ	-11.0813
▁ਵਧੇ	-11.0814
ਏਟ	-11.0814
▁ਐਲੇਕਸ	-11.0817
ਹੋਰ	-11.082
ਰੈਗੂਲੇਟਰੀ	-11.0822
▁ਬੌ	-11.0822
▁ਕੋਸਟ	-11.0824
▁ਦੇਖੇ	-11.0824
▁ਅੱਤਵਾਦ	-11.0826
▁ਜੋਏ	-11.0828
▁ਸੇਨ	-11.0828
▁ਬਹਾਦਰ	-11.0828
▁ਚਿੱਠੀ	-11.083
ੰਦ	-11.0831
▁ਨਿਦਾਨ	-11.0837
▁ਕਾਬੂ	-11.0837
▁ਜਾਪਦੇ	-11.0838
▁ਸ਼੍ਰੀਲੰਕਾ	-11.0838
▁ਪਾਚਕ	-11.0838
▁ਵੈਕਟਰ	-11.0839
▁ਕੈਂਟਕੀ	-11.0839
▁(5)	-11.0841
▁ਆਫਿਸ	-11.0841
▁1886	-11.0843
▁ਡੇਟ	-11.0849
▁ਕਲੇਅਰ	-11.0851
ੋਆ	-11.0856
ਅੱਪ	-11.0859
▁ਅਨ	-11.086
▁ਕਾਊਂਟੀਆਂ	-11.0864
ਿਨਾ	-11.0864
ਿਰ	-11.0866
ਸ਼ੈਲੀ	-11.0867
ਫੇ	-11.0871
▁ਹੇਠਲੀ	-11.0877
▁ਵਾਤਾਵਰਣਕ	-11.0878
▁ਪਰਦਾ	-11.0878
▁ਪੱਖਪਾਤੀ	-11.0879
ਦਾਨ	-11.088
▁ਸਪ	-11.0882
▁ਹੌ	-11.0885
▁ਫੈਲੇ	-11.0892
ਟਿਨ	-11.0896
▁ਰੈਪ	-11.0901
▁ਪੂਰਨ	-11.0902
▁ਕਾਢ	-11.0904
▁ਏਜੰਟਾਂ	-11.0905
▁ਸਾਥੀਆਂ	-11.0905
75	-11.0913
▁ਕੈਂਪਬੈੱਲ	-11.0924
▁ਲਡ਼ਕਿਆਂ	-11.0924
▁ਬਰਾਮਦ	-11.0924
▁ਜੈਰੇਮੀ	-11.0927
▁ਪੈਮਾਨੇ	-11.0928
▁ਮੋਤੀ	-11.0933
▁e	-11.0937
▁ਚਾਰਲੀ	-11.0939
ਸੰਮਤ	-11.0941
▁ਜਾਸੂਸੀ	-11.0944
ਸਿਰਫ	-11.0944
▁ਬੁਰਾ	-11.0947
ਲੈ	-11.0947
▁ਸਟੈਕ	-11.0954
ੇਲਾ	-11.0954
ਵੇਅ	-11.0961
▁ਰੱਖੀਆਂ	-11.097
▁ਮੁੱਲਾਂ	-11.0972
▁ਤਲਾਕ	-11.0974
▁ਆਰਕ	-11.0975
▁ਛੇਕ	-11.098
▁ਉਦਾਸ	-11.1002
▁ਤਬਾਦਲੇ	-11.1013
▁ਸਪੀਕਰ	-11.1013
▁ਸਪੁਰਦਗੀ	-11.1013
▁ਹਾਥੀ	-11.1013
▁ਅਨਾਜ	-11.1013
▁ਕੁਆਲੀਫਾਇੰਗ	-11.1014
▁ਲੱਭੇ	-11.1014
▁they	-11.1015
ੇਜ਼	-11.1015
▁ਉਭਾਰ	-11.1016
▁ਉਜਾਡ਼	-11.1017
▁ਰਿਕਵਰੀ	-11.1017
▁ਸ਼ਾਬਦਿਕ	-11.1024
ਕਾਂ	-11.1031
▁ਨਾਗਰਿਕਤਾ	-11.1034
▁ਡਰਬੀ	-11.1035
▁ਕ੍ਰਾਸ	-11.1037
▁""[	-11.1041
."	-11.1049
78	-11.105
▁ਮਾਪੇ	-11.1051
ਲਮ	-11.1053
▁ਵਿਸ	-11.1053
▁"",""	-11.1055
▁ਸਾਸ	-11.1064
▁ਅਵਾਰਡਾਂ	-11.1064
ਆਓ	-11.107
▁ਹਲ	-11.1079
▁ਵਲੰਟੀਅਰ	-11.1081
▁ਅੰਗੂਰ	-11.1087
99	-11.109
ਹਾਈ	-11.1094
▁ਤਾ	-11.11
▁ਗਿਲਬਰਟ	-11.1102
▁ਸੰਕਲਿਤ	-11.1102
▁ਉਪਰਲੇ	-11.1102
▁ਮਿਊਜ਼ੀਅਮ	-11.1102
▁ਕਾਪੀਰਾਈਟ	-11.1103
▁ਪ੍ਰਿ	-11.1104
▁ਓਸ	-11.1104
▁ਡੱਬੇ	-11.1106
▁but	-11.1107
▁ਸੰਪਾਦਨ	-11.1109
▁ਮਨੁੱਖਤਾਵਾਦੀ	-11.1109
▁ਨੈਪੋਲੀਅਨ	-11.1109
▁ਪਲਾਸਟਿਕ	-11.111
.7%	-11.111
ਿਟੀ	-11.1114
▁ਟੇਲ	-11.1117
ਟਿਵ	-11.1118
ਵਿਦਰੋਹੀਆਂ	-11.1122
▁120	-11.1122
▁ਇਮਾਨਦਾਰੀ	-11.1122
▁r	-11.1124
ਕਲਾ	-11.1125
▁ਪੋਲੀ	-11.1133
ਮੇਰੀ	-11.1135
▁ਨੈੱਟ	-11.1136
▁ਮੋਨੋ	-11.1138
▁ਦਬਾ	-11.1142
▁ਨਰਕ	-11.1151
ਹਾਲ	-11.1155
▁ਸ਼ਾਸਕ	-11.1173
ੁਰ	-11.1173
ਜੀਨ	-11.1175
▁ਟ੍ਰਾਮ	-11.1175
▁ਰੋਣ	-11.1178
▁ਸਟੈ	-11.1179
29	-11.118
▁ਟੈਕਸਾਂ	-11.1181
▁ਮੰਗੀ	-11.1184
▁ਏਰ	-11.1191
▁ਸਾਖਰਤਾ	-11.1192
▁ਗਰਾਫਿਕਸ	-11.1192
▁ਖਾਧਾ	-11.1192
▁ਲੈਕਚਰਾਰ	-11.1192
▁ਤਣੇ	-11.1192
▁1897	-11.1194
▁ਵੇਗਾਸ	-11.1194
▁ਜੋਨਾਥਨ	-11.1195
▁1892	-11.1195
▁ਰੈਂਕ	-11.1195
▁ਬੌਧਿਕ	-11.1196
▁ਮੌਨਾ	-11.1197
▁ਅਲਫ਼ਾ	-11.12
▁ਮਿਲਾਨ	-11.1201
▁ਇਵਾਨ	-11.1205
▁ਨਰਸ	-11.1212
ਬੇਲ	-11.1216
ਸਟੀ	-11.1218
ਵਿਗਿਆਨਕ	-11.1222
▁5,000	-11.1226
▁ਵਪਾਰੀਆਂ	-11.1227
ਿਨੋ	-11.1229
▁ਅਸਥਿਰ	-11.1237
▁no	-11.1243
ਹਨ	-11.1249
al	-11.1255
▁ਰੋਗ	-11.1255
▁ਮਿੰਟਾਂ	-11.1255
▁ਕੈਰੋਲ	-11.126
ੱਸ	-11.126
▁ਹੱਗ	-11.1261
▁d	-11.1261
▁ਸੁਰਜੀਤੀ	-11.1265
▁ਸੰਨਿਆਸ	-11.1268
▁ਮੁਆਫ਼	-11.1268
▁ਚੌਡ਼ੀ	-11.1275
▁ਮਰਾਠਾ	-11.1278
ਲਾਂ	-11.1278
▁ਵਿੰਡ	-11.128
▁ਟਰੰਪ	-11.1282
▁ਮੁਸੀਬਤ	-11.1283
▁ਝਿੱਲੀ	-11.1283
▁ਚੂਨੇ	-11.1284
▁ਵਧਦੀ	-11.1284
▁ਓਬਲਾਸਟ	-11.1284
▁ਉੱਠਿਆ	-11.1284
▁ਡੀਵੀਡੀ	-11.1287
▁ਜਡ਼ਤਾ	-11.1288
▁ਇਲੈਕਟ੍ਰੌਨਿਕਸ	-11.129
▁ਸੈਨਿਕ	-11.129
▁ਮਾਨਵ	-11.1291
▁ਮਿੱਠੇ	-11.1292
▁ਅਬੂ	-11.1292
▁ਨਿਰੰਤਰਤਾ	-11.1297
▁ਡਾਊਨ	-11.1299
▁(6	-11.1301
ਤਰ	-11.1302
ਪੈਨ	-11.1303
ਪ੍ਰਧਾਨ	-11.1305
ਸੈਕ	-11.1306
▁ਪ੍ਰਬੰਧਿਤ	-11.1306
68	-11.1311
▁ਭੇਜੀ	-11.1314
94	-11.1315
▁ਡੇਨ	-11.1319
54	-11.1319
▁ਓਲ	-11.1319
▁99	-11.1329
▁ਲੁਕਾ	-11.1332
▁ਅਨਿਸ਼ਚਿਤ	-11.1342
▁ਪਿ	-11.1342
ਆਲ	-11.1356
▁ਦੁਹਰਾਉਣ	-11.1358
▁ਰੋਜਰ	-11.1358
▁ਗੁ	-11.1369
ਹੂ	-11.1369
▁ਥ	-11.1371
▁ਪਤਲੀ	-11.1372
ੋਲ	-11.1373
▁ਵਫ਼ਦ	-11.1375
▁ਗਾਰਸੀਆ	-11.1375
▁ਬ੍ਰੇਟਨ	-11.1375
▁ਚਲਾਉਂਦੇ	-11.1376
▁ਜੇਸੂਟ	-11.1377
▁ਸੱਦੇ	-11.1377
▁ਝੁਕਿਆ	-11.1377
▁1898	-11.1382
56	-11.1383
▁ਮੇਲੇ	-11.1384
▁ਵਿਕਟਾਂ	-11.1385
▁ਛੱਡਣਾ	-11.1394
▁ਖੁਸ਼ਕ	-11.1396
▁ਰਣਨੀਤੀਆਂ	-11.1399
▁ਵੋ	-11.1406
▁63	-11.1406
▁ਮਹੀਨਾ	-11.1409
▁ਚੰਦਰ	-11.1415
▁ਰਹੱਸ	-11.1424
▁ਗ੍ਰਾਂਟਾਂ	-11.1426
▁ਘਟ	-11.1427
▁ਬੇਕ	-11.1431
▁ਪਾਰਕਿੰਗ	-11.1432
▁ਰਿਕਾਰਡਿੰਗਾਂ	-11.1445
▁ਅਦਾ	-11.1448
▁ਘੁੰਮਣ	-11.1452
49	-11.1459
▁ਬੀਵਰ	-11.1461
▁ਜੈਕਸ	-11.1464
▁ਆਲ੍ਹਣੇ	-11.1467
▁god	-11.1468
▁ਲੇਆਉਟ	-11.1468
▁ਜਿਗਰ	-11.1468
▁ਉਤਪਾਦਕ	-11.1468
▁ਪੁੱਛਦਾ	-11.1469
▁ਟ੍ਰਾਂਸਿਲਵੇਨੀਆ	-11.147
▁ਮਜ਼ੇਦਾਰ	-11.147
▁ਪ੍ਰਿੰਸੀਪਲ	-11.1471
▁ਉਪਯੋਗਤਾ	-11.1471
▁ਨਿਜੀ	-11.1472
▁ਜੈੱਟ	-11.1473
▁ਚੇਅਰ	-11.1474
▁ਗੋਰੇਲ	-11.1474
▁ਐਡਮਿਰਲ	-11.1475
76	-11.1477
▁ਨਿਰੀਖਕ	-11.1479
▁ਰਿਕ	-11.1487
▁ਸਮਾਪਤੀ	-11.1489
ਲੇਖਕ	-11.1494
▁ਮਹਾਂਦੀਪੀ	-11.1494
ਕਾਲ	-11.1498
ਡਸ	-11.1498
▁ਭਾਗਾਂ	-11.1499
▁ਆਦੀ	-11.1501
▁ਸੇਵਕ	-11.1504
▁ਲੱਖਾਂ	-11.1508
ਦੱਖਣੀ	-11.1511
ਜ਼ਲ	-11.1512
▁ਲੌਜ	-11.1515
▁73	-11.1523
▁ਗਾਰ	-11.1527
▁ਸ਼ਾਹ	-11.1544
▁ਵੇਰੋਨ	-11.1545
▁ਅਬ	-11.1547
▁ਮੌ	-11.1548
ਟੈਕਸਯੋਗ	-11.1552
▁ਨਿਮਰ	-11.156
▁ਆਈਰੇਨੀਅਸ	-11.1561
▁ਆਬਜ਼ਰਵੇਟਰੀ	-11.1561
▁has	-11.1561
▁ਚਾਚੇ	-11.1561
▁ਦਰਜਾਬੰਦੀ	-11.1561
▁ਐਲੀਮੈਂਟਰੀ	-11.1562
61	-11.1562
▁1884	-11.1563
▁ਪਹਿਨਿਆ	-11.1563
▁ਹੈਬਰਮਾਸ	-11.1563
▁1876	-11.1563
▁1871	-11.1564
▁ਨਿਰਣਾਇਕ	-11.1565
09	-11.1565
▁ਮੂਸਾ	-11.1567
▁ਜੈਕਬ	-11.157
▁ਨਿਰਭਰਤਾ	-11.1571
▁1883	-11.1572
▁ਬਲੇਅਰ	-11.1576
ਪਿਆਰ	-11.1577
▁ਕਲ	-11.1579
▁ਟ੍ਰਿਪਲ	-11.158
▁ਪੂਰਵਜਾਂ	-11.1581
▁ਚਿਕਨ	-11.1581
▁ਟੈਰੀ	-11.1588
ਕੀਮਤਾਂ	-11.1589
▁ਰਾਤਾਂ	-11.1589
▁ਚਲਾਏ	-11.159
ੀਲਾ	-11.1596
▁ਤਾਰਾਂ	-11.1597
▁ਰਿਪੋਰਟਰ	-11.1597
▁ਲਾਈ	-11.1605
ਕੋਲ	-11.1608
▁ਤਾਂਬੇ	-11.1609
▁69	-11.1609
ਮਹਾਨ	-11.1615
▁ਵੁੱਡ	-11.1621
9)	-11.1622
▁ਫਡ਼ੇ	-11.1624
▁ਲੱਭਣਾ	-11.1629
▁(13	-11.163
▁ਅਨੁਵਾਦਕ	-11.1631
▁ਸਟੂਡੀਓਜ਼	-11.1632
ਟ੍ਰ	-11.1635
▁ਸੰਤਾਂ	-11.1643
▁ਕੰਬ	-11.1645
ੈਡ	-11.1646
▁ਯੂਐਸਏ	-11.1647
▁ਵਾਰਨ	-11.165
▁ਰਿਚਮੰਡ	-11.1655
▁ਅਲਫਰੈਡ	-11.1656
ਲਾਸ	-11.1657
▁ਮਨੋਰੰਜਕ	-11.1657
▁ਮੰਤਰਾਲਾ	-11.1657
▁ਉਰੁਗੁਏ	-11.1658
▁ਰਿਸ਼ਤੇ	-11.1658
▁ਸਾਈਟਾਂ	-11.1659
ਮੁਕਤ	-11.166
▁ਸ਼ੇਕਸਪੀਅਰ	-11.166
▁ਕਪਾਹ	-11.166
▁ਹਰਬਰਟ	-11.166
▁ਫਿਲੀਪੀਨ	-11.1661
▁ਨਾਨ	-11.1662
▁ਆਟੋਮੈਟਿਕ	-11.1663
▁ਐਂਟੀਨਾ	-11.1664
▁ਬੋਧੀ	-11.1665
▁ਫੀਫਾ	-11.1665
▁ਬੈਗ	-11.1672
▁ਲਿਊ	-11.1676
ੱਤ	-11.1682
ਿਜ਼ਮ	-11.1691
▁ਕੈਫੇ	-11.1705
▁ਹੈਮਬਰਗ	-11.1708
ਰੀਅਨ	-11.1711
▁ਹੁ	-11.1712
▁ਆਈਆਂ	-11.1713
ੀਕਲ	-11.1713
▁ਮਿਡ	-11.1715
▁ਕਸਟਮ	-11.1721
▁ਵੰਡੀ	-11.1723
▁ਰੈਮ	-11.1724
71	-11.1725
▁ਕੇਂਦਰਾਂ	-11.1729
▁ਸਵਰ	-11.173
▁ਫਿ	-11.173
▁ਡੋਮ	-11.1731
ੌਕ	-11.1737
ਸਟੀਨ	-11.1738
▁ਫੁ	-11.1739
▁ਬਿਲਬੋਰਡ	-11.1744
▁ਨਾਤੇ	-11.1747
▁ਘੁਸਪੈਠ	-11.175
▁ਜਮਾਤ	-11.175
▁ਨਕਸ਼ਾ	-11.175
▁ਰਵੱਈਏ	-11.175
▁ਮੇਲਬੋਰਨ	-11.1751
▁ਪ੍ਰੋਸੈਸਿੰਗ	-11.1752
!”	-11.1752
▁ਅੰਡਰਗ੍ਰੈਜੁਏਟ	-11.1753
▁1862	-11.1754
▁ਗੈਬਰੀਅਲ	-11.1755
▁ਈਰਖਾ	-11.1755
▁ਆਰਮਜ਼	-11.1756
▁ਪ੍ਰਾਰਥਨਾਵਾਂ	-11.1758
ਮੀਆ	-11.1759
▁ਖ਼ੁਸ਼ੀ	-11.1761
▁ਅੱਪਡੇਟ	-11.1762
▁ਵਧਾਈ	-11.1765
▁ਉਤਸੁਕਤਾ	-11.1768
▁ਸਾਓ	-11.1775
▁ਗੁਲਾਮੀ	-11.1777
ਆਊਟ	-11.1777
1)	-11.1778
▁ਲੌਗ	-11.178
▁ਦਿ	-11.1781
▁ਬਲੇਡ	-11.1787
▁ਤਿਹਾਈ	-11.1787
▁ਜੂ	-11.1795
ੇਸ਼	-11.1801
▁ਉਮੀਦਾਂ	-11.1801
▁ਗੋਲੀਆਂ	-11.1801
▁ਓਟਸ	-11.1803
▁ਮਹਿਮਾਨਾਂ	-11.1808
▁ਮੁਖੀਆਂ	-11.1812
▁ਡੇਅ	-11.1812
▁ਅਵਤਾਰ	-11.1825
▁ਅਵਸ਼ੇਸ਼	-11.1826
▁ਸਟੈਮ	-11.1832
ੁਆ	-11.1839
▁ਟੀਕਾ	-11.1841
▁ਨਕਦ	-11.1845
▁ਅਣਚਾਹੇ	-11.1847
▁ਪ੍ਰਮਾਣੀਕਰਣ	-11.1847
▁ਸ਼ੋਇਗੂ	-11.1847
▁ਸੁਹਜ	-11.1847
▁ਸ਼ੇਅਰਧਾਰਕ	-11.1847
▁ਮੈਗਾਵਾਟ	-11.1847
▁ਟਰਾਂਸਪੋਰਟ	-11.1847
▁ਮੁੱਠੀ	-11.1847
▁ਕੁੱਤਿਆਂ	-11.1847
▁ਫੀਚਰ	-11.1847
▁ਬੈਰਕ	-11.1847
▁ਉਪਗ੍ਰਹਿ	-11.1847
II	-11.1848
▁ਕੱਪਡ਼ਾ	-11.1849
▁ਇਲਾਕਿਆਂ	-11.1849
▁1869	-11.1849
▁1889	-11.1849
▁ਦੇਵਤਿਆਂ	-11.185
▁ਜਾਗਰੂਕਤਾ	-11.1851
▁ਬਾਰੰਬਾਰਤਾ	-11.1851
▁ਵੈਨਕੂਵਰ	-11.1851
▁ਸੰਕਰਮਿਤ	-11.1853
▁ਵਧਾਉਣਾ	-11.1854
▁ਸੰਜੋਗ	-11.1854
▁ਕਾਰਲਟਨ	-11.1854
ਰਿਵਾਜਾਂ	-11.1856
▁ਡੋਮਿਨਿਕਨ	-11.1856
▁ਜੋਡ਼ਦੇ	-11.1858
▁ਕ੍ਰੇਨ	-11.1859
▁ਮਾਵਾਂ	-11.186
▁ਅਵਸ਼ੇਸ਼ਾਂ	-11.1867
▁ਪੀਡ਼੍ਹੀਆਂ	-11.187
▁2-1	-11.1871
▁ਡਬਲਜ਼	-11.1873
▁ਪ੍ਰਭਾਵੀ	-11.1876
▁ਪੈਡ	-11.1876
ਵੀਆ	-11.1886
▁ਹੌਪ	-11.1891
ਕ੍ਰ	-11.19
▁ਸ਼ਿਕਾਇਤਾਂ	-11.1902
▁ਜੋਹਾਨ	-11.1914
▁ਪਹੁੰਚਾ	-11.1914
ੋਡ	-11.1922
▁ਆਦਤ	-11.1923
▁59	-11.1928
ਉਪ	-11.1928
ਫਿ	-11.193
▁ਸਟ	-11.1933
▁ਬੀਟ	-11.1936
▁ਜ਼ਰੂਰ	-11.1939
▁ਲਿਖਿਆਃ	-11.1939
ਨਿਸ	-11.1943
ਦੁਰਾਡੇ	-11.1944
▁ਅਲੋਚਨਾ	-11.1944
▁ਸਿਖਾਇਆ	-11.1944
▁ਵੈਸਟਮਿੰਸਟਰ	-11.1944
▁ਪ੍ਰੋਟੋਕੋਲ	-11.1944
▁ਡੇਲਾਵੇਅਰ	-11.1944
▁ਬੇਮਿਸਾਲ	-11.1946
▁ਮਾਈਕ੍ਰੋਸਾੱਫਟ	-11.1946
▁ਮੰਤਰੀਆਂ	-11.1946
▁ਸੰਖਿਆਵਾਂ	-11.1947
ਾਬ	-11.1947
▁ਰੈਂਕਿੰਗ	-11.1948
ਓਵਰ	-11.1951
▁ਲੀਡਰ	-11.1951
ਰੀਅਲ	-11.1954
▁ਰੋਕਣਾ	-11.1956
▁ਸ਼ੁ	-11.1963
▁ਪਿੰਨ	-11.1963
ਸਵਿਲੇ	-11.1964
▁1865	-11.1965
▁ਨਾਸ	-11.1968
ਸੰਗਠਿਤ	-11.1971
▁ਪ੍ਰਤੀਯੋਗੀਆਂ	-11.1972
ਮੁੱਖ	-11.1972
▁ਕਾਰਕੁਨਾਂ	-11.1974
▁ਨੋਰ	-11.1975
▁ਸ਼ਰਤ	-11.1976
▁ਜੋਡ਼ਿਆਂ	-11.1979
▁ਹਨੇਰੇ	-11.198
▁ਕੀਤੀਃ	-11.198
▁83	-11.1981
▁ਪਹੁੰਚਦੇ	-11.2001
ਾਕ	-11.2002
ਰੀਅਸ	-11.2008
ਵਾਸ	-11.2017
00	-11.2019
▁ਦੱਸ	-11.2021
▁ਲੀਨ	-11.2023
▁ਹਿਰਨ	-11.2024
ਜੈ	-11.2024
▁ਦਬਾਉਣ	-11.2025
▁ਫਿਨ	-11.2025
▁ਦਲਦਲ	-11.2027
ਬੋਟ	-11.203
ਐਂ	-11.2035
▁ਕੀਮਤਾਂ	-11.2036
▁ਕਲੀਨਿਕ	-11.2037
▁ਗਲਾ	-11.2037
▁ਲੋਕੋਮੋਟਿਵ	-11.2042
▁ਮੁੰਡਿਆਂ	-11.2042
▁ਸਵੈਇੱਛੁਕ	-11.2042
▁ਹਵੇਲੀ	-11.2042
▁ਟਿਕਾਊ	-11.2042
▁ਬਰਬਾਦ	-11.2042
▁ਬੇਅੰਤ	-11.2042
▁ਕੁਆਰਟਰਬੈਕ	-11.2043
▁ਕੁੱਟਿਆ	-11.2043
▁ਤਸਕਰੀ	-11.2044
▁ਸਕਾਊਟ	-11.2044
▁ਅਨਿਯਮਿਤ	-11.2045
▁ਕਮਰਿਆਂ	-11.2045
▁ਵਿਵੇਕ	-11.2046
▁ਦੱਸੋ	-11.2046
▁ਟੋਰੇਸ	-11.2046
▁ਗੁੰਬਦ	-11.2046
▁ਡੈਨਿਸ	-11.205
ਾਇ	-11.2052
▁ਫੋਟੋਗ੍ਰਾਫਰ	-11.2053
▁ਕੈਨਨ	-11.2059
ਰੋਡ	-11.2059
▁ਭਾਗੀਦਾਰਾਂ	-11.2061
▁ਅੰਗੂਰਾਂ	-11.2064
▁ਕੋਲੀਨਜ਼	-11.2065
ਦੇਸ਼	-11.2068
ਸੈਕੰਡ	-11.2069
▁ਪੰਨਿ	-11.2071
ਫਿਲ	-11.2075
▁ਗੀਤਕਾਰ	-11.2076
▁ਲਿਓ	-11.2078
ੱਲ	-11.2079
▁ਗੂੰਜ	-11.2087
51	-11.2092
▁ਵੇਚੇ	-11.2096
▁ਕਾਉਂਟੀਆਂ	-11.2102
▁ਐਨੀਮੇ	-11.2107
▁ਮਰੇ	-11.2107
▁ਰੁ	-11.211
▁ਕੈਟ	-11.2112
ਸਪ	-11.2113
▁ਨੀਲਾ	-11.2119
ਇਟ	-11.2124
▁ਲੂਸੀ	-11.2134
▁102	-11.2137
▁ਦੌਲਤ	-11.214
▁ਕਥਾ	-11.214
▁ਜੈਮ	-11.2141
▁which	-11.2141
▁with	-11.2141
▁ਦੁਰਵਰਤੋਂ	-11.2141
▁ਡੈਬਿਊ	-11.2141
▁ਮਲਟੀਪਲ	-11.2141
▁ਦਿੱਲੀ	-11.2141
▁ਫਲੋਰੈਂਸ	-11.2141
▁ਸ਼ਬਦਕੋਸ਼	-11.2141
▁ਪੌਦਾ	-11.2142
▁ਸਿੱਖਿਅਤ	-11.2143
ਸਕੋ	-11.2144
▁ਕੌਂਸਲਾਂ	-11.2145
▁1875	-11.2146
▁ਐਕਸਪ੍ਰੈੱਸ	-11.2147
▁ਮਾਦਾ	-11.2147
▁ਬਘਿਆਡ਼	-11.2148
▁1867	-11.215
▁ਬੋਲਦਾ	-11.215
▁ਜਵਾਨੀ	-11.215
▁ਕੈਮਰੇ	-11.2154
ਚੇਨ	-11.2156
▁ਕਾਰਲੋਸ	-11.2161
▁ਲੇਸਲੀ	-11.2161
▁ਕਰੀਮ	-11.2162
▁ਗਨ	-11.2166
▁ਸਟੈਂਡ	-11.2167
▁ਕੈਮ	-11.2175
81	-11.2183
▁ਪੈਡਲ	-11.2184
.4	-11.2186
ਹੇਮ	-11.2187
ਲੀਅਨ	-11.2191
▁ਵਿਲੀ	-11.2196
ਮੂਲ	-11.2198
▁ਪ੍ਰਮੁੱਖਤਾ	-11.2199
▁ਪਹਿਨਦ	-11.2219
▁ਬੇਰਹਿਮ	-11.2223
▁ਐਕਸਪੋ	-11.2224
▁ਘੁੰਮ	-11.2225
▁ਰੋਬਰਟ	-11.2225
ਫਤਾਰ	-11.2229
▁ਵਾਈਲਡ	-11.223
03	-11.223
▁ਪਹਿਲਕਦਮੀ	-11.2232
▁ਖੁਦਮੁਖਤਿਆਰ	-11.2234
▁ਪੈਣ	-11.2239
▁ਆਚਰਣ	-11.2241
▁ਘੋਡ਼ਿਆਂ	-11.2241
▁ਸੰਗਮਰਮਰ	-11.2241
▁ਪਕਾਉਣ	-11.2241
▁ਖਰਡ਼ਾ	-11.2241
▁ਡੇਟਰੋਇਟ	-11.2241
▁ਢੇਰ	-11.2241
▁ਰਿਸ਼ਤਾ	-11.2241
▁ਖੋਹ	-11.2242
ਵੈ	-11.2242
▁1874	-11.2243
▁ਮੁਹੌਕ	-11.2243
▁ਬੈਂਜਾਮਿਨ	-11.2243
▁ਹਾਈਬ੍ਰਿਡ	-11.2244
▁ਪ੍ਰਸ਼ੰਸਾਯੋਗ	-11.2244
ਹੁ	-11.2246
▁ਬਾਰੂਦ	-11.2247
▁ਨਿਊਪੋਰਟ	-11.2248
ਹਿ	-11.2248
▁ਖਿੱਚੀ	-11.2252
▁ਤੂੰ	-11.2253
▁ਸਟ੍ਰੀਮ	-11.2258
▁ਸਹਾਰਾ	-11.2258
▁ਏਟ	-11.2258
ਕਲਾਸ	-11.2264
ਸ਼੍ਰੀਮਾਨ	-11.2273
ਅੱਜ	-11.2274
▁ਪਹਿਲ	-11.2286
▁ਮੰਨੀ	-11.2286
ਕਰਤਾ	-11.2287
▁ਮੌਰ	-11.2289
▁ਵੀਅਤਨਾਮੀ	-11.2289
ਬਾਕਸ	-11.2299
ਮੋਨ	-11.2302
▁ਵਾਲਟ	-11.2302
▁ਚੈਂਪੀਅਨਜ਼	-11.2303
▁ਕੇਰਲ	-11.231
ੇਰਾ	-11.2311
▁ਬੱਸਾਂ	-11.2311
▁98	-11.2312
▁89	-11.2313
ਯਾਨ	-11.2317
▁ਤਾਈਵਾਨ	-11.2327
▁ਗੈਰਹਾਜ਼ਰ	-11.2329
▁ਪਤਨੀਆਂ	-11.2335
▁ਪ੍ਰਾਗ	-11.2336
▁ਪ੍ਰਤੀਰੋਧ	-11.2337
▁ਰੁਟੀਨ	-11.2342
▁ਸਿੰਫਨੀ	-11.2342
▁ਯੂਗੋਸਲਾਵ	-11.2342
▁ਸ਼ੈੱਫ	-11.2342
▁ਅਰਮੇਨੀਆ	-11.2342
▁ਅੰਡਾਕਾਰ	-11.2342
▁ਡਾਊਨਟਾਊਨ	-11.2342
▁ਲੀਡਰਸ਼ਿਪ	-11.2342
▁ਅਸਤੀਫੇ	-11.2342
▁ਕਿਊਬਨ	-11.2345
ਲਿੰਕ	-11.2347
▁ਸਕ	-11.2347
▁ਬਰਨਹੈਮ	-11.235
▁ਰੇਸ਼ਮ	-11.2354
▁ਜੋਡ਼ਾ	-11.2354
▁ਫਡ਼ਿਆ	-11.2354
▁ਮੁਰਰੇ	-11.2355
ਲੀਗ	-11.2357
ਬੰਦ	-11.236
▁ਵਰਤ	-11.2361
▁ਬਫਰ	-11.2362
▁ਕਰੋਗੇ	-11.2373
ਸੁਰਜੀਤੀ	-11.2374
▁ਪਾਡ਼	-11.2375
▁ਸੋਲਾਂ	-11.2378
▁ਐਲਾਨਿਆ	-11.2378
ਜੈਂਡਰ	-11.2379
ਿਜ਼	-11.2383
▁ਸੰਬੰਧੀ	-11.2385
ਰੰਗ	-11.2389
▁ਪ੍ਰਤੀਸ਼ਤਤਾ	-11.2391
▁94	-11.2391
ਪਛਾਣੇ	-11.2395
ਗਿਨ	-11.2396
▁ਲੈਬ	-11.2405
ੋਨਾ	-11.2408
▁ਭੰਡਾਰਾਂ	-11.2409
▁ਕਿੰਗਜ਼	-11.2415
▁ਲੇਬਨਾਨ	-11.2428
02	-11.243
▁ਜ਼ੇ	-11.2431
ਵਿਆਪੀ	-11.2433
▁ਰਾਖਸ਼	-11.2435
▁ਇਮਾਨਦਾਰ	-11.2435
▁ਜ਼ੋ	-11.2437
ਫਿਲਮ	-11.2443
▁ਤਜਰਬੇ	-11.2443
▁ਖਜ਼ਾਨੇ	-11.2444
▁ਟਵਿੱਟਰ	-11.2444
▁ਪ੍ਰਤੱਖ	-11.2444
▁ਮੁਸਲਿਮ	-11.2444
▁ਕਲਾਕ੍ਰਿਤੀਆਂ	-11.2444
▁ਟੱਕਰ	-11.2445
▁ਡੰਕਨ	-11.2445
▁ਮੁੱਲਾਂਕਣ	-11.2448
ਟਿਸ	-11.2454
▁77	-11.2456
▁ਦਾਡ਼੍ਹੀ	-11.2457
ਚੋਣ	-11.2457
▁ਨਾਟਕਾਂ	-11.2459
▁ਮਾਰਸ	-11.2467
▁ਗ੍ਰਾਫਿਕ	-11.2469
▁ਪ੍ਰਦਰਸ਼ਨਾਂ	-11.247
re	-11.247
▁ਦਲੀਲਾਂ	-11.2472
▁ਈਰਾਨੀ	-11.2474
▁ਬ੍ਰਿ	-11.2475
.8%	-11.2476
ਪਲੇ	-11.2476
ਸ਼ਾਨਦਾਰ	-11.2478
▁ਗਲੀਆਂ	-11.2481
▁ਮੈਕੇ	-11.2489
▁76	-11.2504
ਿਊ	-11.251
▁81	-11.251
ਫਾਸ਼	-11.2514
▁ਬਿੱਟ	-11.2515
▁ਸੀਟਲ	-11.2516
▁ਮੂਰਖ	-11.2522
▁ਕਮਜ਼ੋਰੀ	-11.2525
▁ਧਾਤ	-11.2525
▁ਖਣਿਜ	-11.2525
▁ਛੱਡੇ	-11.2532
▁ਨੈਸ਼ਵਿਲ	-11.2542
▁ਲਾਲਚ	-11.2546
▁ਇਕਾਗਰਤਾ	-11.2547
▁ਤਜ਼ਰਬਿਆਂ	-11.2547
▁ਬਲਾਤਕਾਰ	-11.2547
▁ਮੁਕੱਦਮਿਆਂ	-11.2547
▁ਮੈਕਡੋਨਾਲਡ	-11.2547
▁ਸਾਜਿਸ਼	-11.2547
▁ਹਮਰੁਤਬਾ	-11.2547
▁ਸੈਟੇਲਾਈਟ	-11.2547
▁ਲਿਵਰਪੂਲ	-11.2547
▁ਫੈਲੋਸ਼ਿਪ	-11.2547
▁ਲੂਣ	-11.2549
▁ਮੋਡ਼ਿਆ	-11.255
st	-11.255
▁1873	-11.255
▁ਥਾਈਲੈਂਡ	-11.2553
▁1887	-11.2554
▁ਉਚਾਰਨ	-11.2555
▁ਆਉਟਪੁੱਟ	-11.2555
▁ਕੂਪਰ	-11.2556
▁ਜੈਸਨ	-11.2556
▁100,000	-11.2556
ਫੂ	-11.2557
▁ਰੌਬਿਨ	-11.2558
ਲਈ	-11.2558
▁ਏਲਨ	-11.2559
▁78	-11.2559
▁ਐਸ਼	-11.2563
ਬਾਈ	-11.2563
▁ਛੇਵਾਂ	-11.2571
▁ਡਿਸ	-11.2572
▁ਸੂਚੀਆਂ	-11.2572
▁ਜਾਣੀਆਂ	-11.2578
ਬਿੱਟ	-11.2582
ਯਹੂਦੀ	-11.2582
ਉਦਾਹਰਣ	-11.2582
▁ਚਾਲਾਂ	-11.2582
ਲਟ	-11.2594
▁ਖੋਲ੍ਹੇ	-11.2595
▁ਸੈਸ਼ਨਾਂ	-11.2596
le	-11.2597
▁ਸੰਰਚਨਾ	-11.26
ਸੈਨ	-11.2601
ਹਲ	-11.2603
▁ਫਾਈਲਾਂ	-11.2605
▁ਕੋਲਨ	-11.2607
ਜ਼ੋਨ	-11.2609
ੀਅਲ	-11.2612
▁ਪ੍ਰਸ਼ਾਸਕ	-11.2615
-23	-11.2617
▁ਰਾਜਤੰਤਰ	-11.2632
53	-11.2634
▁ਸਿਖਾਉਣ	-11.2634
▁ਮੂਰਤੀਕਾਰ	-11.2639
▁ਵਾਂਝ	-11.2642
੍ਰ	-11.2646
▁ਦੁਸ਼ਮਣਾਂ	-11.2646
▁ਰਿਟਾਇਰ	-11.2647
▁ਮੋਂਟਗੋਮੇਰੀ	-11.2651
▁ਰੁੱਝੇ	-11.2651
▁ਗੂਡ਼੍ਹਾ	-11.2651
▁ਨੇਵੀਗੇਸ਼ਨ	-11.2651
▁ਡੋਨਾਲਡ	-11.2651
▁ਮਲਬੇ	-11.2652
▁ਅਪਮਾਨ	-11.2652
ਸਿਟੀ	-11.2652
▁ਪ੍ਰਦਾਤਾ	-11.2652
▁ਸ਼ਿਪਿੰਗ	-11.2652
▁ਲਡ਼ਾਕਿਆਂ	-11.2654
▁ਮਿਡਫੀਲਡਰ	-11.2654
▁1868	-11.2656
▁ਭਗਵਾਨ	-11.2656
▁1864	-11.2657
▁ਖਰਗੋਸ਼	-11.2658
▁ਤ੍ਰਿਨਿਦਾਦ	-11.2658
▁ਅਮਲੇ	-11.2659
▁ਜੀਭ	-11.266
▁ਜੂਲੀਅਨ	-11.2663
▁ਵੋਕਲ	-11.2664
ਡੀਨ	-11.2666
▁ਜਾਦੂਈ	-11.2669
▁ਡੈਸਕ	-11.2669
ੇਕ	-11.2671
ਸ਼ੋ	-11.2674
▁ਸਾਇੰਸਜ਼	-11.2684
ੰਕ	-11.2685
ਸੀਏਏ	-11.2686
ਬੈਂਡ	-11.2691
▁ਬੈਂਕਿੰਗ	-11.2694
▁ਸਮਾਰੋਹਾਂ	-11.2695
▁71	-11.2697
ਲਿ	-11.2703
▁ਹਾਰਮੋਨ	-11.2703
ਮਾਰਕ	-11.2707
ਬੀਆ	-11.2712
▁ਆਇਨ	-11.2714
▁ਮਾਹਰਾਂ	-11.2715
▁ਮਲ	-11.2716
ਉਂਦੇ	-11.2717
▁ਬਲਾਕਾਂ	-11.272
▁ਡੀਗੋ	-11.2723
▁ਖ਼ਤਰ	-11.2729
▁ਪੀਲਾ	-11.2732
▁ਆਰਕਾਈਵ	-11.2735
▁you	-11.2748
▁ਵਸ	-11.2752
▁ਨੈ	-11.2754
▁ਹੈਮਪਸ਼ਾਇਰ	-11.2756
▁ਵਿਅੰਗ	-11.2756
▁ਸਕੋਟੀਆ	-11.2756
▁ਮੋਂਟਰੀਅਲ	-11.2756
▁ਕੈਂਟਰਬਰੀ	-11.2756
▁ਹੈਰੋਲਡ	-11.2756
▁ਇਕਬਾਲ	-11.2757
▁ਸ਼ੰਕੂ	-11.2757
▁ਯੂਟਿਊਬ	-11.2758
▁ਕਲੋਨੀ	-11.2758
▁ਡਿਵੀਜ਼ਨਾਂ	-11.276
▁ਛਾਪੇ	-11.2761
▁ਘੋਡ਼ਾ	-11.2762
▁ਇਨਡੋਰ	-11.2762
▁ਗਰਿੱਡ	-11.2763
▁ਸ਼ੁੱਕਰਵਾਰ	-11.2763
▁ਬਾਉਰ	-11.2767
ਐਡੀ	-11.2769
▁ਸੌਦਾ	-11.2775
▁ਸੁਸਾਨਾ	-11.2779
▁79	-11.2784
▁ਪੱਤਰਾਂ	-11.2784
▁ਕਿਹਡ਼ੀ	-11.2785
ਟੈ	-11.279
▁ਰੀਅਰ	-11.2797
▁ਬੈਂਡਾਂ	-11.2799
▁ਗ੍ਰਾਮ	-11.2802
ਜੀਵਨੀ	-11.2804
▁ਖਡ਼੍ਹੀ	-11.2807
▁ਪਾਈਆਂ	-11.281
▁ਵਾਇ	-11.2811
▁ਐਂਡੀ	-11.2819
ਜਿਨ	-11.2824
ਖਾਸ	-11.2826
▁ਸੋਨਾ	-11.2829
▁ਪਾਰਟ	-11.283
▁ਬ੍ਰੈਡ	-11.2832
▁ਰੇਨੇ	-11.2832
▁(7	-11.2835
▁ਉਤਾਰ	-11.2836
62	-11.2837
▁ਸੰਕਲਪਾਂ	-11.2839
▁ਇਸ਼ਤਿਹਾਰ	-11.2841
ਬਰੋ	-11.2853
ੰਗਾ	-11.2854
▁ਟ੍ਰੈ	-11.2856
▁ਬਲੌਗ	-11.2857
▁97	-11.286
▁rigdon	-11.2863
▁ਤਸੀਹੇ	-11.2863
▁ਬਦਮਾਸ਼	-11.2863
ਜਲਦਬਾਜ਼ੀ	-11.2863
▁ਔਸਟਿਨ	-11.2863
▁ਪੈਰਾਸ਼ੂਟ	-11.2863
▁ਨੋਟੀਫਿਕੇਸ਼ਨ	-11.2863
▁ਕਢਾਈ	-11.2863
▁ਸਤ	-11.2863
▁ਸੁਪਰਡੈਂਟ	-11.2863
▁ਬੰਧਕ	-11.2864
▁ਕਾਮਨਜ਼	-11.2864
▁ਵਿਕਣ	-11.2864
▁ਗੈ	-11.2865
▁ਬਰਕਲੇ	-11.2865
▁ਅਸੰਤੁਸ਼ਟ	-11.2865
▁ਸਟੈਂਸਿਲ	-11.2866
▁1885	-11.2867
▁ਸੁਲਤਾਨ	-11.2867
▁ਤਿੱਖੀ	-11.2867
▁ਫੇਸਬੁੱਕ	-11.2868
▁ਪੇਰੂਵੀਅਨ	-11.2868
▁ਪ੍ਰਾਪਤਕਰਤਾ	-11.2871
▁ਹੌਸਟਨ	-11.2872
▁ਸਧਾਰਣ	-11.2875
▁ਰੋਟੀ	-11.2875
▁ਫਲਾਈਟ	-11.2875
ਬਾਸ	-11.2876
▁ਰਸਮਾਂ	-11.2882
▁ਸਮਰੂਪਤਾ	-11.2883
ਬਰਾ	-11.2885
▁ਚਾ	-11.2889
▁ਅਜ਼ਮਾਇਸ਼ਾਂ	-11.2889
▁ਸੱਤਵੀਂ	-11.2899
▁ਮਾਨ	-11.2901
ਪੱਧਰੀ	-11.2907
▁ਅਲਾਟ	-11.2908
▁ਡੇਲੀ	-11.2909
ਸਿਰ	-11.2911
41	-11.2918
▁ਮਹਾ	-11.2921
ਗਸ	-11.2922
▁ਬਦਲਦੇ	-11.2923
▁ਦੁੱਖਾਂ	-11.2927
▁ਨਾਈ	-11.2934
▁ਭਾਗੀਦਾਰ	-11.2934
▁ਗੋਲਾ	-11.2938
ਪਾਸ	-11.2939
▁ਟ੍ਰੇ	-11.2941
▁ਇਸਲਾਮ	-11.2945
▁ਦਫਤਰ	-11.295
▁ਤਾਈ	-11.2951
▁ਬੈਠਣ	-11.2955
ਨਿੰਗ	-11.2956
▁ਰੱਖਿਅਕ	-11.296
▁ਟਿਮ	-11.2964
▁ਸਕੋ	-11.2964
▁ਬੰਨ੍ਹੇ	-11.2965
▁ਡਕੈਤੀ	-11.297
▁ਬਦਾਵੀ	-11.297
▁ਸਬਜ਼ੀਆਂ	-11.297
▁ਨਵੀਨਤਾਕਾਰੀ	-11.297
▁ਰੋਟੇਸ਼ਨ	-11.2971
▁ਪੌਸ਼	-11.2971
▁ਸਹਿਕਾਰੀ	-11.2972
▁ਸਮਾਗਮਾਂ	-11.2973
▁ਧੁੰਦ	-11.2973
▁ਖੋਪਡ਼ੀ	-11.2973
▁ਮੈਕਾਰਥਰ	-11.2973
▁ਭਗਤ	-11.2974
▁ਲਾਪਰਵਾਹੀ	-11.2975
▁ਚੁੰਮਣ	-11.2975
▁ਨਿਮਰਤਾ	-11.2976
▁1866	-11.2978
▁ਮਾਪਿਆ	-11.2978
▁ਮੁੱਕੇਬਾਜ਼ੀ	-11.2978
▁ਉਦਾਸੀ	-11.2979
▁ਪਹੁੰਚਯੋਗ	-11.2984
▁ਢੋਲ	-11.2985
▁ਮਤਾ	-11.2986
ੱਗ	-11.2986
▁ਡਾਊਨੀ	-11.2988
▁ਥੋਰ	-11.2989
ਬੈਂਕ	-11.2992
ੇਗਾ	-11.2998
ਸਾਈ	-11.2999
ੁਕ	-11.2999
▁ਪਛਾਣਿਆ	-11.3003
▁1-0	-11.3003
▁ਸੀਜ਼ਰ	-11.3003
ਇੰਗ	-11.3003
95	-11.3004
▁ਸੈਨੇਟਰਾਂ	-11.3007
ਸਟੋ	-11.301
▁ਕੋਸਟਾ	-11.3011
ੋਵਾ	-11.3011
▁ਗਵਾਹਾਂ	-11.3013
ਗਲੀ	-11.3017
▁ਸ਼ੂਟ	-11.3019
ੋਇਸ	-11.3022
▁ਸੱਚਾ	-11.3024
▁ਵਰਗਾਂ	-11.3025
▁ਸੈਲ	-11.3029
▁ਬੰਗਾਲ	-11.303
▁ਗਲ	-11.3036
▁ਅਨੁਸਾਰੀ	-11.3037
ਭਾਵ	-11.304
▁ਨਾਸਤਿਕ	-11.304
ਸਬਰਗ	-11.3047
ਜ਼ਮ	-11.3059
ਰਿਨ	-11.307
▁ਲਿਆਂਦੀ	-11.3071
▁ਉਠਾਇਆ	-11.3079
▁ਏਅਰਬ੍ਰਸ਼	-11.3079
▁ਤਜ਼ਰਬੇ	-11.3079
▁ਪਠਾਰ	-11.3079
▁will	-11.3079
▁ਅਰਜੁਨ	-11.3079
▁ਹੈਰਾਨੀਜਨਕ	-11.3079
▁ਮੋਹੌਕ	-11.3079
▁ਸਿਓਕਸ	-11.3079
▁ਪੀਟਰਸਬਰਗ	-11.308
▁ਦੇਵੇਗੀ	-11.308
▁ਕਰਜ਼ਿਆਂ	-11.3081
▁ਐਂਗਲੋ	-11.3081
▁ਨਿਕਲਿਆ	-11.3082
▁1879	-11.3082
▁ਪੋਰਟਲੈਂਡ	-11.3082
▁ਉੱਗਦ	-11.3082
▁ਹਫ਼ਤਾ	-11.3082
▁ਲਡ਼ਦੇ	-11.3082
▁ਥਣਧਾਰੀ	-11.3083
▁ਨਿਰਧਾਰਣ	-11.3083
▁ਚੇਰੋਕੀ	-11.3084
ਿਮ	-11.3084
▁ਅਰਨੋਲਡ	-11.3085
▁1882	-11.3088
▁ਬੇਇੱਜ਼ਤੀ	-11.3089
▁ਮਿੱਲਰ	-11.3089
ਾਤ	-11.3091
▁ਸੂਡਾਨ	-11.3091
▁ਸਰਕੂਲਰ	-11.3095
▁ਵੇਖਦੀ	-11.3095
ਾਇਰ	-11.3096
▁ਟੋਏ	-11.3103
ੋਮ	-11.3105
▁ਪਾਈਨ	-11.3106
▁ਸੈਂਟਾ	-11.3108
▁ਲੀਡਜ਼	-11.3112
ਅਧਿਆਇ	-11.312
▁ਅੰਡ	-11.3124
▁ਸੇਵਨ	-11.3128
ਵਰਗ	-11.313
▁ਕੁਮਾਰ	-11.3132
▁ਸਿਮ	-11.3134
in	-11.3137
▁ਗਿਨੀ	-11.3137
ੁਲਾ	-11.3137
▁ਵਿਕਟਰ	-11.3138
ਸੈ	-11.3141
ਗੇਮ	-11.3142
▁ਦਿਵਾ	-11.3143
▁ਫਾਲ	-11.3144
▁ਟਾਸਕ	-11.315
ਂਡ	-11.315
▁ਭ	-11.3153
▁ਗ੍ਰੰਥ	-11.3155
▁ਬੰਬਾਰ	-11.3166
▁ਫਲੂ	-11.3166
07	-11.3166
▁ਜ਼ਖ਼ਮ	-11.3168
-0	-11.3169
▁ਮਨਜ਼ੂਰ	-11.3174
ਨਹੈਮ	-11.3175
▁ਹੋਲ	-11.3182
▁ਹਾਈਲੈਂਡ	-11.3184
ly	-11.3185
▁ਰਿਫ	-11.3185
▁ਖਾਈ	-11.3188
ਨਾਨ	-11.3188
▁ਇੰਸਟ੍ਰਕਟਰ	-11.3189
▁ਖਜ਼ਾਨਾ	-11.3189
▁ਥਕਾਵਟ	-11.3189
▁ਭੈਡ਼ੇ	-11.3189
▁ਕ੍ਰਿਸ਼ਚੀਅਨ	-11.3189
▁ਬੈਲਜੀਅਨ	-11.3189
▁ਚੌਕਡ਼ੀ	-11.3189
▁ਇਕੱਲੀ	-11.3189
▁ਉਪਲੱਬਧਤਾ	-11.3189
97	-11.3189
▁ਡਾਟਾਬੇਸ	-11.3189
▁ਸਟੈਨਫੋਰਡ	-11.3189
▁ਧਡ਼ੇ	-11.319
▁ਅੰਤਰਿਮ	-11.3191
▁ਸਾਈਪ੍ਰਸ	-11.3191
ਠ	-11.3192
ਲਾਕ	-11.3192
43	-11.3193
▁ਕ੍ਰਮਬੱਧ	-11.3194
▁ਮੰਗਾ	-11.3194
▁ਸੋਮਵਾਰ	-11.3195
▁ਕੀਡ਼ਾ	-11.3195
▁ਮਿੱਠਾ	-11.3197
▁1895	-11.3197
04	-11.3199
▁ਹਾਲੇ	-11.32
ਨੀਲ	-11.3201
ੌਕਸ	-11.3201
ਖਾ	-11.3205
▁ਆਇਰਨ	-11.3209
▁ਪੰਕ	-11.321
▁ਵਿਕਰ	-11.321
▁ਸਰਪ੍ਰਸਤੀ	-11.3211
▁ਓਟੋ	-11.3212
▁ਸਜਾਵਟੀ	-11.3213
ਉੱਤਰ	-11.3216
ਵਿਰੋਧੀ	-11.3224
▁ਨਾਵਲਾਂ	-11.3226
ਜ਼ੂ	-11.3228
ਕੱਲ੍ਹ	-11.323
ਸਾਰਣੀ	-11.3231
ਮੈਰੀ	-11.3231
▁ਕਤਾਰਾਂ	-11.3231
ੂਰ	-11.3244
ਗੋਲ	-11.3245
ਐਂਟ	-11.3248
ਕਿਸਮ	-11.3249
▁ਇਜ਼	-11.325
▁ਵਾਰਸਾ	-11.3261
▁ਮੈਡ	-11.3262
▁ਤਲਵਾਰ	-11.3271
▁ਨਮੂਨ	-11.3272
69	-11.3277
▁4-4	-11.3278
▁ਸੰਚਾਲਕ	-11.3279
▁ਵੰਸ਼ਜ	-11.3279
▁ਕਲਾਸਰੂਮ	-11.3279
▁ਕੌਂਸਲਰ	-11.3282
ਨਾਰ	-11.3282
▁(8	-11.3285
ਗਮ	-11.3285
▁ਸੁਸਾਨ	-11.3285
▁ਇਨਪੁਟ	-11.3288
▁ਹੁਰਨ	-11.3289
▁ਬਿਨ	-11.3291
ਚੋ	-11.3291
ੇਗੀ	-11.3296
▁ਜੀਨੋਮ	-11.3298
▁ਘੁਟਾਲੇ	-11.33
▁ਯਾਦਦਾਸ਼ਤ	-11.33
▁ਨੇਡ਼ਤਾ	-11.33
ਮਰਹੂਮ	-11.33
▁ਸਿੰਡੀਕੇਟ	-11.33
▁ਟਾਫਟ	-11.33
▁ਸਟਾਕਹੋਲਮ	-11.33
▁ਸਾਈਫਰ	-11.33
▁ਸੰਸ਼ਲੇਸ਼ਣ	-11.3302
▁ਮਨੀਲਾ	-11.3302
▁ਜੌਹਨਸਟਨ	-11.3303
▁ਪਰਿਭਾਸ਼ਾਵਾਂ	-11.3303
▁ਗਿੱਲੇ	-11.3303
▁ਸੰਵੇਦਨਸ਼ੀਲਤਾ	-11.3303
▁ਰੀਲੀ	-11.3304
▁ਦ੍ਰਿਡ਼੍ਹਤਾ	-11.3304
▁1872	-11.3304
▁ਰੇਮੰਡ	-11.3305
▁ਟਕਰਾ	-11.3305
▁1800	-11.3306
▁ਬੋਲਿਆ	-11.3307
▁ਝਡ਼ਪਾਂ	-11.3309
▁ਕੁੱਕ	-11.3309
▁1840	-11.331
▁ਸਾਡ਼ਨ	-11.3311
▁ਵਾਇਲਿਨ	-11.3312
▁ਫਲਸਤੀਨੀ	-11.3314
▁ਨਮੂਨਾ	-11.3316
▁ਤਾਨਾਸ਼ਾਹੀ	-11.3317
▁ਤੇਰਾਂ	-11.3319
ਬਿ	-11.3323
▁ਡਰਾਉਣ	-11.3327
84	-11.3328
ਿਡੇ	-11.3329
▁ਲੱਭੀ	-11.3332
ਟੌਪੌਲੌਜੀਕਲ	-11.3332
ਸੰਗੀਤ	-11.3338
ਨਿਊਯਾਰਕ	-11.3343
ਮੌਤ	-11.3344
▁ਕੋਰਸਾਂ	-11.3346
ਗਾਰਡ	-11.3353
ਵੈਸਟ	-11.3356
ਮੋਂਟ	-11.3357
▁ਧੁਨ	-11.3358
ਟਰੀ	-11.3378
▁ਨਿਕੋਲਾ	-11.3379
▁ਡਾਇਰੈਕਟਰੀ	-11.3391
▁1894	-11.3392
▁ਨਰ	-11.3393
65	-11.3395
▁ਰਾਈਫਲ	-11.3395
ਿਚ	-11.3396
▁ਪਰਜੀਵੀ	-11.3404
▁ਵਿਆਜ	-11.3405
ੀਡੇ	-11.3406
▁ਫੰਕ	-11.3408
▁ਇਰੋਕੌਇਸ	-11.3412
▁ਦਰਵਾਜ਼ਿਆਂ	-11.3412
▁ਫਰਨੀਚਰ	-11.3412
▁ਵੈਨੇਜ਼ੁਏਲਾ	-11.3412
▁ਫੁਟੇਜ	-11.3412
▁ਜੰਗਬੰਦੀ	-11.3412
▁ਪਵੇਗੀ	-11.3412
▁ਉੱਕਰੀ	-11.3413
▁ਪੰਨੇ	-11.3413
▁ਸਫਾਈ	-11.3414
▁ਕਰਵ	-11.3414
▁ਬੀਟਾ	-11.3415
▁110	-11.3415
▁ਅਸਲੀਅਤ	-11.3416
▁ਨੌਵੇਂ	-11.3416
▁ਕਾਰਨੀਵਲ	-11.3417
▁ਸ਼ਰਨ	-11.3417
▁ਕਿਊਬਿਜ਼ਮ	-11.3417
▁ਪਲਾਜ਼ਾ	-11.3417
▁ਸੰਵਾਦ	-11.3419
▁ਸਕੈਚ	-11.3419
▁2,000	-11.3419
▁ਅਤਿਅੰਤ	-11.3422
▁ਸ਼ੈਡੋ	-11.3423
▁ਲਾਗਤਾਂ	-11.3424
▁ਲੀਟਰ	-11.343
▁ਜ਼ਾ	-11.3431
▁ਰਹਿਮਾਨ	-11.3432
57	-11.3432
▁ਯੇਲ	-11.3432
▁ਕਲਾਕਾਰੀ	-11.3433
ੰਟ	-11.3436
▁ਟੈਕਲ	-11.3436
▁ਚੁਣੌਤੀਆਂ	-11.3442
▁ਮੋਹਾਕ	-11.3446
ਅੰਕ	-11.3449
▁ਪੀਅਰਸ	-11.3452
▁ਬਿੱਲੀ	-11.3455
ੇਅਰ	-11.3457
▁ਲੋਬ	-11.3457
▁ਲਾਇਬ੍ਰੇਰੀਆਂ	-11.346
▁ਉਡਾ	-11.3468
▁ਵੇਅਰ	-11.347
ਬੋਲ	-11.3471
▁ਪਾਣੀਆਂ	-11.3474
ਮੂ	-11.3477
ਦੀਨ	-11.3478
▁ਰੋਲਿੰਗ	-11.348
▁ਲੈਂਸ	-11.3483
ਕਾਰਡ	-11.3486
▁ਮਿੱਲਾਂ	-11.3486
▁ਲੀਗਾ	-11.3493
▁ਫਾਈ	-11.3496
▁ਏਅਰਲਾਈਨ	-11.3497
▁ਕਾਲਜਾਂ	-11.3501
ਫ੍ਰੀ	-11.3504
▁ਅੰਧਵਿਸ਼ਵਾਸ	-11.3505
▁ਬਿੱਲਾਂ	-11.3511
▁ਛੱਤਾਂ	-11.3512
▁ਮਾਸਪੇਸ਼ੀ	-11.3518
▁ਚੀਕਿਆ	-11.3523
▁ਇਕਸਾਰ	-11.3524
▁ਐਫੀਲੀਏਟ	-11.3526
▁ਨਾਕਆਊਟ	-11.3526
▁ਪ੍ਰਭਾਵਸ਼ੀਲਤਾ	-11.3526
▁ਟੁਕਡ਼ੀ	-11.3526
▁ਜਿਓਮੈਟਰੀ	-11.3526
▁ਵਰਜਿਤ	-11.3526
▁ਸੀਕਵਲ	-11.3526
▁ਇਰਵਿਨ	-11.3526
ਵੈਮਪਮ	-11.3526
▁ਐਨੀਮੇਸ਼ਨ	-11.3527
▁ਕਿੱਤਾਮੁਖੀ	-11.3528
▁ਅਸਹਿਮਤੀ	-11.3528
▁ਰਾਕੇਟ	-11.353
▁ਗੈਲਿਕ	-11.353
▁ਪੈਸੀਫਿਕ	-11.3531
▁ਦੁੱਗਣਾ	-11.3532
▁1878	-11.3532
▁ਸਾਮੀ	-11.3533
en	-11.3533
▁ਟਾਈਗਰਜ਼	-11.3535
▁ਜੂਲੀਆ	-11.3535
▁ਕੇਨਯਾ	-11.3536
▁ਚਿੱਠੀਆਂ	-11.3537
▁ਪਾਉਂਦੀ	-11.3537
▁1848	-11.3538
▁ਮਿਜ਼ਾਈਲ	-11.354
▁ਰਾਫ਼	-11.354
▁ਬਕ	-11.354
▁ਡਰਾਉਣਾ	-11.3542
▁ਪੱਟੀਆਂ	-11.3547
ਲਾਈ	-11.3548
▁ਤਾਰੇ	-11.3548
▁ਜਾਤੀ	-11.3549
▁ਲੇਟ	-11.355
ਸਿਲ	-11.3552
▁ਗ੍ਰੇਗ	-11.3552
▁ਵੀਜ਼ਾ	-11.3557
▁ਵਿਧੀਆਂ	-11.3558
ਾਵਾ	-11.3566
ਪਿੱਛੇ	-11.3572
▁ਫ੍ਰੈਂਕੋ	-11.3579
▁ਫੈਲੀ	-11.358
▁ਪੈਰੇ	-11.3581
▁ਯਾਰ	-11.3583
▁ਮੋਸ	-11.3584
ਉੱਚ	-11.3585
▁ਰਸਮ	-11.3602
ਫਟ	-11.3602
▁ਡੈਲੀਗੇਟ	-11.3607
▁ਯੂਨੀ	-11.3611
▁ਏਸੀ	-11.3613
▁ਅਸੰਗਤ	-11.3613
ਫਾਲ	-11.3614
▁ਕੇਟ	-11.3615
▁ਬੁਲਾਉਣ	-11.3624
▁ਐਮੀਲੀ	-11.3624
▁ਕੈਰੋ	-11.3625
ਨਾਈਟ	-11.3628
▁ਕੋਚਾਂ	-11.3632
▁ਧਾਰਕ	-11.3633
ਰਕ	-11.3636
ਥੇ	-11.3639
▁ਕੁਲ	-11.364
ਤੂ	-11.3641
▁ਇਮੀਗ੍ਰੇਸ਼ਨ	-11.3641
▁ਫ਼ਰਮਾਨ	-11.3641
▁ਵਰਣਮਾਲਾ	-11.3641
▁ਹੇਰਾਫੇਰੀ	-11.3641
▁ਦਿਲਾਸਾ	-11.3641
▁ਮੋਰਚੇ	-11.3642
▁ਮੰਦੀ	-11.3643
▁ਬੈਨੇਟ	-11.3643
ੁਕਾ	-11.3644
▁ਸ਼ਾਂਤੀਪੂਰਨ	-11.3644
▁ਪ੍ਰਿੰਸਟਨ	-11.3645
▁ਉਪਜਾਊ	-11.3645
▁ਬੇਲਗ੍ਰੇਡ	-11.3645
▁ਟਰਮੀਨਸ	-11.3646
▁ਯੋਧਾ	-11.3646
▁elder	-11.3651
▁ਬਰਗ	-11.3652
ਕੋਲਨ	-11.3653
▁ਏਲੀ	-11.3654
▁(11	-11.3655
▁ਕੈਂਡੀ	-11.3657
▁ਸ਼ੀਟ	-11.3661
▁ਬਟਨ	-11.3664
▁ਮਾਰੀਅਨ	-11.367
▁ਕਮੀਆਂ	-11.3671
▁ਕੰਬਲ	-11.3673
▁ਨੇਪਾਲ	-11.3675
▁ਲੇਸ	-11.3681
▁ਹੰਸ	-11.3683
▁ਰੈਪਰ	-11.3684
▁ਸੱਭਿਆਚਾਰਾਂ	-11.3688
▁ਸਮਰ	-11.3689
ਸਾਡੇ	-11.3692
th	-11.3694
▁ਨਾਮਵਰ	-11.3698
▁ਪ੍ਰਬੰਧਕਾਂ	-11.3699
ਥੋ	-11.3702
▁ਰੋਨ	-11.3707
▁ਬਦਲਦਾ	-11.371
▁ਦਾਨੀ	-11.3712
▁ਪੋਤੇ	-11.3713
▁ਜੌ	-11.3716
ਾਰੀ	-11.3717
ਲੇਕ	-11.3717
▁ਸੇਬ	-11.372
▁ਪਾਮ	-11.3728
▁ਮਨੋਵਿਗਿਆਨ	-11.3731
▁ਬਾਗੀ	-11.3737
ਸੇਂਟ	-11.374
▁ਸੁਰਜੀਤ	-11.3742
▁ਮਾਫ਼	-11.3743
▁ਟਿਸ਼ੂ	-11.3749
ਵਾਹ	-11.375
ਫਾਰਮ	-11.3753
▁ਵਿਕਰੇਤਾ	-11.3755
▁ਪਤਲੇ	-11.3757
▁ਏਥਨਜ਼	-11.3757
▁ਡਾਰਕ	-11.3758
▁ਡਰੱਗ	-11.3758
▁ਕੈਨੇਡੀ	-11.3758
▁ਮੋਰਗਨ	-11.3759
▁ਡੈੱਨਮਾਰਕੀ	-11.3759
▁ਈਗਲ	-11.3759
▁ਨਰਸਿੰਗ	-11.3762
▁ਸਰਬਵਿਆਪੀ	-11.3763
▁ਕਾਲਕ੍ਰਮ	-11.3763
▁ਸੰਘਣੀ	-11.3763
▁ਸਕੇਟਿੰਗ	-11.3763
▁ਸਵੈਚਾਲਿਤ	-11.3764
▁ਨਾਰੀਅਲ	-11.3764
▁ਗੰਦੇ	-11.3764
▁ਸ਼ਹੀਦ	-11.3765
▁ਤੋਪ	-11.3765
ਸੱਤਵੇਂ	-11.3765
▁ਬੈਪਟਿਸਟ	-11.3769
▁ਸਟੈਪਾਨੋਵਿ	-11.3773
▁ਗੋਥਿਕ	-11.3774
ੋਲੋਜੀ	-11.3775
▁ਮੋਂਟ	-11.3777
▁ਖੁੱਲ੍ਹੀਆਂ	-11.3779
86	-11.3784
▁ਕੈਮਰਾ	-11.3788
▁ਮਿਊ	-11.3788
▁ਨਾਮਕਰਨ	-11.3788
▁ਲੱਛਣਾਂ	-11.3789
ੁਰਾ	-11.379
▁ਚੀਫ਼	-11.3796
▁ਵਰਕ	-11.3802
ਇੱਥੇ	-11.3806
ਵੱਡੇ	-11.3806
▁ਪੇਸ਼ੇ	-11.3808
ਰਾਸ਼ਟਰੀ	-11.3809
▁ਮੋਹਰ	-11.381
▁88	-11.3816
▁ਸੈਂਟਰਲ	-11.3816
ੇਲੀ	-11.3817
▁ਮਜ਼ਦੂਰੀ	-11.3817
ੈਸ	-11.3818
▁ਮਨੀ	-11.3828
▁ਹੀਰੋ	-11.3831
ੋਮਾ	-11.3833
200	-11.3855
▁ਬੇਕਾਰ	-11.3862
ਮਈ	-11.3864
▁ਮੋਲ	-11.3865
59	-11.3866
72	-11.3866
▁ਅਗਿਆਤ	-11.3875
▁ਜਬਾਡ਼ੇ	-11.3875
▁ਬ੍ਰਿਸਬੇਨ	-11.3875
▁ਸਿਨਸਿਨਾਟੀ	-11.3875
▁ਟੱਚਡਾਊਨ	-11.3875
▁ਮਹਾਰਾਣੀ	-11.3875
▁ਸਤਾਰਾਂ	-11.3875
▁ਰਾਖੀ	-11.3875
▁ਹੈਮਪਟਨ	-11.3875
▁ਹਸਨ	-11.3875
▁92	-11.3878
▁ਅਰਜੀੰਟੀਨਾ	-11.3878
▁ਰੂਹਾਂ	-11.3879
▁ਅੰਤਰਾਲ	-11.3883
▁ਆਤਮਾਵਾਂ	-11.3885
▁ਸਾਈ	-11.3885
▁ਐਸੋਸੀਏਸ਼ਨਾਂ	-11.389
▁ਦਰੱਖਤਾਂ	-11.3891
▁ਚਿੱਪ	-11.3891
▁ਲੋਡ਼ੀਂਦੀਆਂ	-11.3892
▁ਜਾਣਨਾ	-11.3893
▁ਬ੍ਰੈਡਲੀ	-11.3898
ਡੋਸ	-11.39
ਕੇਨ	-11.39
br	-11.3901
▁ਜੀਵੰਤ	-11.3903
▁ਪਰਥ	-11.3905
▁ਸਿਲੰਡਰ	-11.3905
▁ਸਵੀਕਾਰਤਾ	-11.3906
▁ਹਲਕੀ	-11.391
ਫਾਈ	-11.3915
▁ਅੰਦੋਲਨਾਂ	-11.3917
▁ਭਰੀਆਂ	-11.3922
ਡੈ	-11.3928
▁ਦੇਖਣਾ	-11.3945
▁ਕ੍ਰੋ	-11.3946
▁ਡੁਬੋ	-11.3954
83	-11.3957
ਜੇਨ	-11.396
▁ਕਾਰਡਿਫ	-11.3965
▁ਬ੍ਰੈ	-11.3971
▁ਕਰਜ਼ਾ	-11.3974
▁ਨਵੀਨਤ	-11.3977
ਸੀਅਨ	-11.3978
4,000	-11.398
▁ਪ੍ਰੇਮ	-11.398
▁1:	-11.3981
ੁਆਨ	-11.3987
ਕੈਟ	-11.3988
▁ਸਥਾਨਿਕ	-11.3988
▁ਫਲਸਤੀਨ	-11.3989
▁ਨਾਰੀਵਾਦੀ	-11.3989
ਮੇਰਾ	-11.3992
▁ਬਦਬੂ	-11.3993
▁ਅਰਮੇਨੀਅਨ	-11.3994
▁ਟਚਡਾਉਨ	-11.3994
▁ਫ੍ਰਾਂਸਿਸ	-11.3994
▁ਬੱਚਤ	-11.3994
▁ਮਨਮਰਜ਼ੀ	-11.3994
▁ਮੈਰਾਥਨ	-11.3994
▁ਨਿਭਾਉਂਦਾ	-11.3994
▁ਅਣਹੋਂਦ	-11.3994
▁ਸ਼ਸਤਰ	-11.3994
▁ਲਵੇਗਾ	-11.3994
▁ਰੇਯਾਨ	-11.3994
▁ਥੀਸਿਸ	-11.3994
▁ਸਹਿਣਸ਼ੀਲਤਾ	-11.3994
▁ਰੁਪਏ	-11.3994
▁ਪਾਵੇਲ	-11.3996
▁ਬੋਲਸ਼ੇਵਿਕ	-11.3996
▁ਪਾਂਡਵਾਂ	-11.3996
▁ਵਹਿਸ਼ੀ	-11.3997
▁ਪਾਈਕ	-11.3997
▁ਪ੍ਰੀਫੈਕਚਰ	-11.3997
▁ਡੈਫਨੀ	-11.3997
▁ਅਬਰਾਹਾਮ	-11.3998
▁ਹਾਵੀ	-11.3998
▁ਕੁਆਂਟਮ	-11.3998
▁ਜ਼ਹਿਰੀਲੇ	-11.3999
▁ਵਧਾਉਂਦਾ	-11.4003
▁ਸਿੰ	-11.4003
▁ਪ੍ਰਿੰਟਿੰਗ	-11.4003
▁ਕੁੱਟ	-11.4005
▁ਗਰਾਊਂਡ	-11.4005
▁ਵੀਹਵੀਂ	-11.4006
▁ਕਾਮਿਕਸ	-11.4012
▁ਨਨ	-11.4012
▁ਅੱਠਵੇਂ	-11.4014
▁$2	-11.4017
ਬੋਰਨ	-11.402
ਟੀਮ	-11.402
▁ਕਲਾਵਾਂ	-11.4022
▁if	-11.4023
▁ਕੋਰੀ	-11.4028
▁96	-11.4032
▁ਬੇਬੀ	-11.4037
ਪੂ	-11.404
▁ਸਬਕ	-11.4041
▁ਨੈਟ	-11.4044
ਡਮ	-11.4047
ਟੀਆ	-11.4049
ਾਕਾਰ	-11.4049
▁ਕਲਮ	-11.4054
ਥਨ	-11.4054
ਪੇਟ	-11.406
▁on	-11.4067
▁ਚੂ	-11.4079
▁ਸੰਸਥਾਨ	-11.4079
▁ਐਡਮੰਡ	-11.4085
▁ਰੋਬੋਟ	-11.4092
▁ਪਨਾਹਗਾਹ	-11.4093
▁ਬੱਦਲ	-11.4093
▁ਟੈਪ	-11.4096
▁ਪਾਰੀ	-11.4105
▁ਕੰਪ	-11.4113
ਬਖਤਰਬੰਦ	-11.4114
▁ਨਿਲਾਮੀ	-11.4114
▁ਪੈਰਾਲੰਪਿਕ	-11.4114
▁ਅਲਜੀਰੀਆ	-11.4114
▁ਅਦਾਇਗੀ	-11.4114
▁ਪਨਾਮਾ	-11.4114
▁ਗਾਊਨ	-11.4114
▁ਕੁੱਕਡ਼	-11.4114
▁ਸੁਆਹ	-11.4115
▁ਜ਼ੀ	-11.4117
▁ਜਾਅਲੀ	-11.4118
▁ਕੁਲੈਕਟਰ	-11.4118
▁ਲੂਥਰਨ	-11.4118
▁ਧੱਬੇ	-11.4119
▁1877	-11.4122
▁1861	-11.4122
▁ਗੇਂਦਬਾਜ਼ੀ	-11.4123
▁ਮਨਜ਼ੂਰਸ਼ੁਦਾ	-11.4124
▁ਪਟੀਸ਼ਨਰ	-11.413
▁ਗੁਰੂ	-11.4133
ਗ੍ਰ	-11.4134
39	-11.4135
▁ਮੋਸ਼ਨ	-11.4135
▁ਅਪਰਾਧੀਆਂ	-11.4135
▁ਅਨੁਮਾਨਤ	-11.4142
▁ਪਲਾਂ	-11.4145
▁ਕੈਰੀਅਰਾਂ	-11.4146
.0%	-11.4147
▁ਜੰਮੇ	-11.4149
▁ਬੈਨਰ	-11.415
▁ਤਾਇਨਾਤੀ	-11.4152
▁ਗੋਰੇ	-11.4152
ਡਿੰਗ	-11.4153
▁ਅਨਿਸ਼ਚਿਤਤਾ	-11.416
▁ਸੰਤੁਸ਼ਟੀ	-11.4163
▁ਜਿ	-11.4164
▁ਨੰਬਰਾਂ	-11.4166
ਤਰਤੀਬ	-11.4167
ਨਿਰਮਾਣ	-11.4167
ਠੀਕ	-11.4167
▁ਟੀਕੇ	-11.4171
▁ਗੋਡ	-11.4174
ਟਿਡ	-11.4176
ਟੋਨ	-11.4178
▁ਡਰਾਉਣੀ	-11.4183
▁ਬਾਈਟ	-11.4188
ਡੀਓ	-11.419
ਸਕੂਲ	-11.4192
ਮਾਸਟਰ	-11.4193
48	-11.42
▁ਵੂ	-11.4202
▁ਤੈ	-11.4205
▁ਤੀਰ	-11.4214
▁130	-11.4217
▁ਵਿਭਾਗਾਂ	-11.4218
▁ਹਾਈਡ੍ਰੋ	-11.4219
ੱਚ	-11.422
▁ਲੇਵੀ	-11.4222
ਟਮ	-11.4223
▁ਬੰਦਰਗਾਹਾਂ	-11.4223
▁ਪੂਰਵਜ	-11.4224
ਗਮਨ	-11.4226
ਚਨ	-11.4226
ਬੈ	-11.4228
▁ਮਾਇਆ	-11.4231
▁ਸੱਜਣ	-11.4236
▁ਦਿਆਲਤਾ	-11.4236
▁ਬੁੱਢਾ	-11.4236
▁ਖਰਡ਼ੇ	-11.4236
▁ਪ੍ਰੋਟੋਟਾਈਪ	-11.4236
▁ਮੈਡਰਿਡ	-11.4236
▁ਤਾਜ਼ੇ	-11.4236
▁ਵਰਮੋਂਟ	-11.4237
▁ਰਿੱਟ	-11.4237
▁ਕਰਨਾਃ	-11.4237
▁ਨੈਲਸਨ	-11.4237
▁ਕਿਰਨਾਂ	-11.4237
▁ਲਾਊ	-11.4237
▁ਗ਼ੁਲਾਮੀ	-11.4238
▁ਭਤੀਜੇ	-11.4238
▁ਮਦਰੱਸੇ	-11.4239
ਸੈਂਟ	-11.4239
▁ਮਾਧਿਅਮ	-11.4239
ਿਯਨ	-11.424
▁ਨਜ਼ਰਬੰਦੀ	-11.4242
▁ਨੱਸਰ	-11.4244
▁ਭੇਜਦਾ	-11.4246
▁ਵਾਂਝੇ	-11.4248
▁ਮੰਗਾਂ	-11.425
▁ਅਨੁਸੂਚੀ	-11.4252
▁ਬੈਰਲ	-11.4253
▁ਅੱਤਵਾਦੀ	-11.4261
▁ਵੈਲੇਸ	-11.4262
▁ਡਰਦੇ	-11.4266
▁87	-11.4266
▁ਬੈਡ	-11.4273
ੈਲ	-11.4276
▁ਡਾਇਨ	-11.4276
▁ਅਜ਼ਰਬਾਈਜਾਨੀ	-11.428
▁ਗੁਆਂਢੀਆਂ	-11.4288
ਆਰਥਿਕ	-11.429
▁800	-11.4293
▁ਕਾਰਪੋਰੇਸ਼ਨਾਂ	-11.4294
▁ਇੰਜੀਨੀਅਰਾਂ	-11.4307
▁ਚੁ	-11.431
ਂਟ	-11.432
ਕੋਡ	-11.4323
▁ਪੀਟਰਜ਼	-11.4333
▁ਮੁਰ	-11.4347
▁ਪੰਜਾਬ	-11.4348
▁ਚਲਾਉਣਾ	-11.4348
ਵਰਕ	-11.4349
ੋਨੀ	-11.4353
▁ਵਿੰਡੋ	-11.4357
▁ਮੰਨਣ	-11.4359
▁ਚਮਡ਼ੇ	-11.436
▁ਚੌਰਾਹੇ	-11.436
▁ਜੈਫਰਸਨ	-11.436
▁ਡਰੰਮਰ	-11.436
▁ਸਮਾਚਾਰ	-11.436
▁ਸੂਚਕਾਂਕ	-11.436
▁ਰੇਡੀਏਸ਼ਨ	-11.436
▁ਆਕਲੈਂਡ	-11.436
▁ਸਿਰਜਣਹਾਰ	-11.436
▁ਪਿਟਸਬਰਗ	-11.436
▁ਰੂਪਾਂਤਰਣ	-11.436
▁ਭਟਕ	-11.4361
▁ਫੈਲਾਅ	-11.4361
▁ਡੈਰੀਵੇਟਿਵ	-11.4362
▁ਡੌ	-11.4362
ਗੈਰ	-11.4363
▁1854	-11.4363
▁ਦੇਵੇ	-11.4364
▁ਸਿਤਾਰਿਆਂ	-11.4366
▁ਬਲੀਦਾਨ	-11.4367
▁ਟਾਈਗਰ	-11.4367
▁ਟੈਰਿਫ	-11.4368
▁ਟੈਕਸਦਾਤਾ	-11.4369
▁ਦਿਸ਼ਾਵਾਂ	-11.437
▁ਯੇ	-11.437
▁ਇਲਾਕ	-11.4372
▁ਪਾਡ਼ੇ	-11.4373
ਿੱ	-11.4379
▁ਇਆਨ	-11.4379
▁ਲਗਾਈਆਂ	-11.4382
▁ਮੈਗਾ	-11.4383
ਡ਼ੀ	-11.4384
▁ਦਰਸਾ	-11.4385
▁ਪਰਦੇ	-11.4387
▁ਲਿਟਲ	-11.4388
ਬਿਲ	-11.44
ਸੁਰ	-11.4401
▁ਟਰਨ	-11.4404
▁ਖਿੰਡਾ	-11.4408
▁ਉੱਦਮੀ	-11.4409
▁ਖਪਤਕਾਰਾਂ	-11.4409
▁ਕੈਸ਼	-11.441
▁ਐਡਵਰਡਜ਼	-11.4411
ਵਾਕ	-11.4413
▁ਸੀਰੀਅਲ	-11.4415
ਆਇਰਲੈਂਡ	-11.4415
▁ਪ੍ਰੋਡਕਸ਼ਨਾਂ	-11.4416
▁ਦਾਵਤ	-11.4417
▁700	-11.4419
ਸਮੁੰਦਰੀ	-11.4421
ਸੇਧ	-11.4423
ਰਜੀ	-11.4426
▁ਕੈਂਟਨ	-11.4426
▁ਟੈਕਨੋਲੋਜੀਆਂ	-11.4426
ਗ੍ਰੀਨ	-11.4426
▁ਛਾਪਿਆ	-11.4427
▁91	-11.4431
ਉੱਤਰੀ	-11.4432
▁ਚੈਂਪੀਅਨਸ਼ਿਪਾਂ	-11.4438
ਸਟਾ	-11.4441
ਖਾਡ਼	-11.4442
▁ਟੈਕਸੀ	-11.4446
87	-11.4451
▁ਛੂਹ	-11.4462
▁ਕੁਨੈਕਸ਼ਨ	-11.4463
▁ਆਹ	-11.4469
ਬੱਧ	-11.4471
ਹੀਣ	-11.4474
▁ਪਲੱਸ	-11.4476
▁ਅੰ	-11.4477
ਬਦੀ	-11.4479
▁ਉੱਨ	-11.4482
▁ਵਚਨਬੱਧ	-11.4482
▁ਬੁਰੇ	-11.4483
ਢੁਆਈ	-11.4485
▁ਇਮਿਡੈਕਲੋਪ੍ਰਿਡ	-11.4485
▁ਐਂਜ਼ਾਈਮ	-11.4485
▁ਪੁਨਰਜਾਗਰਣ	-11.4485
▁ਵਸੀਅਤ	-11.4485
▁ਸੰਭੋਗ	-11.4485
▁ਬਹੁਭੁਜ	-11.4485
▁ਨਿਭਾਉਂਦੇ	-11.4485
▁ਪਹਿਲਵਾਨ	-11.4485
▁ਵੱਸਣ	-11.4485
▁ਮਿੰਨੀ	-11.4486
▁ਸਟੀਵਨਸਨ	-11.4486
▁ਰੈਜੀਮੈਂਟਾਂ	-11.4487
▁ਕਰੀਏ	-11.4488
▁ਨੰਗੇ	-11.4488
▁ਕਦੋਂ	-11.4489
▁ਅਵਿਸ਼ਵਾਸ਼ਯੋਗ	-11.4489
▁ਚਲਦੇ	-11.4489
▁ਦੋਹਰੀ	-11.449
▁ਅਸਮਾਨਤਾ	-11.4491
▁ਝਾਡ਼ੀਆਂ	-11.4492
▁ਥ੍ਰਿਲਰ	-11.4493
▁1830	-11.4496
▁ਮਧੂ	-11.4497
ਕਈ	-11.45
ਥਮ	-11.4503
▁ਇੰਡੀ	-11.4504
▁ਰੈਡ	-11.4506
▁ਜੋਰਡਨ	-11.4508
▁ਕੱਚ	-11.4509
▁82	-11.4513
ਲੋਕ	-11.4517
▁ਖੇਤੀ	-11.4518
▁ਵੁ	-11.4518
ੋਗੇ	-11.452
▁ਜੈਰੀ	-11.4521
▁ਕਾਲਮਾਂ	-11.4541
ਪਹਿਲੀ	-11.4542
ੋਲੀ	-11.4544
▁ਕੱਢੇ	-11.4545
▁ਪਾਇਲਟਾਂ	-11.4546
ਕੋਸ	-11.4552
▁ਹਲਕ	-11.4556
▁ਰਿਹਾਇਸ਼ਾਂ	-11.4564
▁ਕ੍ਰ	-11.4565
▁ਗ੍ਰਿਸ	-11.4568
▁ਹੇਲ	-11.4569
▁ਸਵਾਰਾਂ	-11.4572
▁101	-11.4572
▁h	-11.4583
▁ਡਿਪਲੋਮੈਟ	-11.459
▁ਸੈਟਿੰਗ	-11.4591
▁ਰੀਸੈਪਟਰ	-11.4594
▁ਬੋਸ	-11.4594
ਂਕ	-11.4596
▁ਟੋਰ	-11.46
ਸੀਨ	-11.4601
▁ਚਮਤਕਾਰ	-11.4602
▁ਪ੍ਰਤੀਬਿੰਬ	-11.4603
▁ਸ਼ਰਨਾਰਥੀ	-11.4607
▁said	-11.4611
▁ਗਹਿਣਿਆਂ	-11.4611
▁ਦੁਸ਼ਟ	-11.4611
▁ਧਮਾਕਾ	-11.4611
▁ਰਲੇਵਾਂ	-11.4611
▁ਕਸਰਤ	-11.4611
▁ਓਬਾਮਾ	-11.4611
▁ਦਿਖਾਉਂਦੇ	-11.4611
▁ਵਿਅੰਗਾਤਮਕ	-11.4611
▁ਮਾਡ਼ੇ	-11.4611
▁ਮੁਨੀਚ	-11.4611
▁ਬਰਛੇ	-11.4612
▁ਵੀਏਨਾ	-11.4612
▁ਸਜਾਏ	-11.4612
▁ਨਾਕਾਫ਼ੀ	-11.4613
▁ਲੋਗਨ	-11.4613
ਲਡ	-11.4614
▁ਵਰਤਦੇ	-11.4615
▁ਮਿਲਾਇਆ	-11.4615
▁ਇਕੁਇਟੀ	-11.4615
▁ਨਿਸ਼ਾਨੇਬਾਜ਼	-11.4616
▁ਰੋਮਾਂਸ	-11.4616
▁ਕੈਲਵਰੀ	-11.4618
▁ਸੁਨਹਿਰੀ	-11.4618
▁ਕੀਬੋਰਡ	-11.4619
▁ਪਰਾਗ	-11.4624
ਕੈਪ	-11.4625
▁ਦਮਨ	-11.4625
ਂਡੇ	-11.4627
▁ਫਲਾਇੰਗ	-11.4629
▁ਹਾਲਾਤਾਂ	-11.463
ੱਜ	-11.4634
▁ਧਾਰਕਾਂ	-11.4634
▁ਵਿਹਾਰ	-11.4635
▁ਹੋਲੀ	-11.4635
▁ਜ਼ਿ	-11.4637
▁ਬੈਨ	-11.4637
▁ਵਲੰਟੀਅਰਾਂ	-11.4641
ਬਿਨ	-11.4641
▁ਲਾਸ਼ਾਂ	-11.4643
▁ਟੂਲ	-11.4655
▁ਅਲਾ	-11.4663
ਵਿਜ਼ਨ	-11.4668
ਹੰਗਰੀ	-11.4669
▁ਡਰਾਈਵਰਾਂ	-11.4674
-24	-11.4676
ਸਰਕਾਰੀ	-11.468
▁or	-11.4686
▁ਸਟੀ	-11.4689
ਏਅਰ	-11.469
▁ਇਤਿਹਾਸਕਾਰਾਂ	-11.4693
▁ਟਾਪ	-11.4694
ਹਾਰਟ	-11.4696
▁ਤਿ	-11.4702
▁ਟਾਰ	-11.471
੍ਹਾ	-11.4711
▁ਮੀਆ	-11.4717
ਹੋਲ	-11.4717
ਾਤਮਕ	-11.4717
ਣੀ	-11.4725
▁ਕਪਤਾਨੀ	-11.4725
▁ਹਟਣ	-11.4725
ਮੋਨਾ	-11.4725
ਹਾਨ	-11.4726
▁ਜ਼ਬਰਦਸਤ	-11.4729
▁ਤੈਨਾਤ	-11.4739
▁ਮੁਹੱਈਆ	-11.4739
▁ਯੋਮੈਨਰੀ	-11.4739
▁ਰਵੱਈਆ	-11.4739
▁ਸੂਬਿਆਂ	-11.4739
▁from	-11.4739
▁ਡਾਊਨਲੋਡ	-11.474
▁ਜ਼ੇਵੀਅਰ	-11.474
▁ਟ੍ਰਾਂਸਮਿਸ਼ਨ	-11.474
▁ਸ਼ੈਫੀਲਡ	-11.474
▁ਰੀਮਿਕਸ	-11.474
▁ਵੈਲਿੰਗਟਨ	-11.474
▁ਜ਼ਿੰਦਾ	-11.474
▁ਮੋਟਰਵੇਅ	-11.474
▁ਗ੍ਰੇਨਾਈਟ	-11.474
▁ਸਿਸ	-11.4741
▁ਸਟੱਡੀਜ਼	-11.4741
▁ਕਥਾਵਾਂ	-11.4742
▁1851	-11.4743
▁ਸ਼ਮਨ	-11.4743
▁ਵਿਏਨਾ	-11.4744
▁ਦੁਹਰਾਉਂਦ	-11.4745
▁ਫਾਇਰਿੰਗ	-11.4747
▁ਫਿਗਾਰੋ	-11.4748
▁ਵੈਰੀਆਂ	-11.4748
▁ਰਿਚੀ	-11.475
▁ਬਾਰਬਰਾ	-11.475
▁ਕੱਚੇ	-11.475
▁ਪਾਸਕਲ	-11.4751
ਪ੍ਰਤੀਬਿੰਬਤ	-11.4751
▁ਮਿਸ਼ਨਰੀਆਂ	-11.4755
▁ਜਾਮਨੀ	-11.4755
▁ਟ੍ਰਿਨਿਟ	-11.4755
▁ਉੱਡ	-11.4755
▁ਪਿਟ	-11.4757
▁ਪਾਰਕਰ	-11.4758
▁ਗੌ	-11.4759
▁ਝੂਠੇ	-11.4761
▁ਦਿੱਤਾਃ	-11.4762
▁ਢੱਕਣ	-11.4763
▁ਸੰਪੂਰਨਤਾ	-11.4764
▁3,000	-11.4766
▁ਸ਼ਿਕਾਰੀਆਂ	-11.4775
ਮੈਕਸ	-11.4776
▁ਆਉਂਦੀਆਂ	-11.4778
▁ਉਦਯੋਗਾਂ	-11.4787
▁ਫਾਈਬਰ	-11.4787
▁ਗੁਰ	-11.4788
▁ਗੁਲਾਮਾਂ	-11.4789
ੇਰੀ	-11.4789
▁ਹਾਊਸਿੰਗ	-11.4796
▁ਉਮ	-11.4797
▁ਅਰਨਸਟ	-11.48
ਛੋਟੇ	-11.48
ਜਨਤਕ	-11.48
ੋਨੀਆ	-11.4802
ਡੀਜ਼	-11.4812
▁ਪਰਦੇਸੀ	-11.4814
▁ਜਾਨੀ	-11.482
▁ਅਪਰਾਧੀ	-11.4826
▁ਰੋਲਰ	-11.483
▁ਸੈਕੰਡ	-11.483
▁ਸਿੱਖ	-11.4833
ੁੰਗ	-11.4834
▁ਮੌਸਮੀ	-11.4844
ar	-11.4853
▁ਗਿਲਡ	-11.4854
▁ਬੋਤਲ	-11.4855
▁ਵਿਵਾਦਾਂ	-11.4856
▁ਬੁਲਡੌਗ	-11.4857
▁ਦਲੇਰ	-11.4862
ਸੈੱਲ	-11.4863
▁ਚਡ਼੍ਹਾਈ	-11.4863
▁ਟਾਰਕ	-11.4864
ਡ੍ਰ	-11.4864
▁84	-11.4865
▁ਬੱਕਰੀ	-11.4869
▁ਇਦਲਿਬ	-11.4869
▁ਦੂਸਰੇ	-11.4869
▁ਬ੍ਰਿਸਟੋਲ	-11.4869
▁ਸਿੱਖਿਅਕ	-11.4869
▁ਹਾਸ਼ੀਏ	-11.4869
▁ਕੁਆਲੀਫਾਇਰ	-11.4869
▁ਲਿਆਂਦੇ	-11.4869
▁had	-11.4869
▁ਸਨਅਤੀ	-11.487
▁ਫੈਲਾਉਣ	-11.487
▁ਨੌਰਮਨ	-11.487
▁ਸੁਣਾਇਆ	-11.487
▁ਟੁੱਟੇ	-11.487
▁ਨਾਸਾ	-11.487
▁ਤਿੱਖੇ	-11.487
▁ਡਿਪੂ	-11.487
▁ਲਾਇਆ	-11.487
▁ਆਧਾਰ	-11.4871
▁ਸਿੱਕੇ	-11.4871
▁ਥੋਕ	-11.4871
▁ਲਪਟਾਂ	-11.4872
▁ਊਰਜਾ	-11.4872
ਹਾਜ਼ਰੀ	-11.4872
▁ਕਣਕ	-11.4873
▁ਸਵਿੱਚ	-11.4873
▁ਗ੍ਰ	-11.4873
▁ਮਨੋ	-11.4874
▁ਇੰਡੀਅਨ	-11.4874
▁ਪਲੇਸ	-11.4874
▁ਧੂੰਆਂ	-11.4874
▁ਪੰਥ	-11.4875
74	-11.4875
▁ਸਟੋਰਾਂ	-11.4875
▁ਬਰਕ	-11.4876
▁ਸਮਿਆਂ	-11.4876
▁ਮਿੱਠੀ	-11.4877
▁1859	-11.4878
▁ਬੈਰੇਟ	-11.4879
▁ਓਵੇਨ	-11.4879
▁ਚੁਸਤ	-11.4881
▁ਗ੍ਰੰਥਾਂ	-11.4894
▁ਟਰਨਰ	-11.4896
ਸ਼ਿ	-11.4896
▁ਮੇਡ	-11.4898
▁ਮਾਲਾ	-11.4901
▁ਸੈਲੀ	-11.4901
▁ਬਣਾਓ	-11.4901
▁ਕੌਕਸ	-11.4904
:00	-11.491
:30	-11.4912
▁ਮਿਨ	-11.4914
▁ਬਿਗ	-11.492
▁86	-11.4928
ਰੁ	-11.4932
ਡਾਈ	-11.4936
ਹੇਠਾਂ	-11.4936
▁ਬੌਬੀ	-11.4937
ਖੰਡੀ	-11.4938
ਉਸਨੇ	-11.4941
▁ਜੇਬ	-11.4949
es	-11.4952
ੈਂਜ	-11.4954
▁ਚੁਣਨ	-11.4955
▁ਕਿੱਕ	-11.4957
ਰਿਜ	-11.4958
▁ਫੌ	-11.4961
▁ਸੰਕੇਤਕ	-11.4963
ੋਂਗ	-11.4969
ers	-11.4973
▁ਦੌਡ਼ਨ	-11.4977
▁ਸੀਟੀ	-11.4978
ਸੈਟ	-11.4979
▁ਨਿਗਲ	-11.4984
▁ਸਮਾਪਤ	-11.4986
▁ਪਿਅਰ	-11.4991
ੰਸ	-11.4997
▁ਮੰਨਦੀ	-11.4997
▁ਬ੍ਰ	-11.5
▁ਉਤਸਵ	-11.5001
▁ਧਮਾਕੇ	-11.5001
▁ਪਿਆਨੋਵਾਦਕ	-11.5001
▁ਭੈਡ਼ਾ	-11.5001
▁ਵਾਯੂਮੰਡਲ	-11.5001
▁ਗੌਡਰੇ	-11.5001
▁ਬੋਇੰਗ	-11.5002
▁ਟਰੇਡ	-11.5002
▁ਜੀਉਂਦਾ	-11.5002
▁ਮੋਨਰੋ	-11.5002
▁ਲਿਆਉਂਦਾ	-11.5003
ਤਾਈ	-11.5005
▁ਯਾਂਕੀਜ਼	-11.5005
▁ਇੰਗਲਿਸ਼	-11.5006
▁ਵਿਸ਼ਵਾਸਾਂ	-11.5006
▁ਮਹਿੰਗ	-11.5007
▁ਸੈਲੂਨ	-11.5007
▁ਰੌ	-11.5008
▁ਗ੍ਰੈਮੀ	-11.5009
▁ਲੱਭਦਾ	-11.501
▁ਕੈਚ	-11.5011
▁ਵਿਧੀਵਾਦੀ	-11.5016
▁our	-11.502
▁ਅਲਬਾਨੀ	-11.5024
▁ਰਾਈਨ	-11.5029
ਾਕਾ	-11.503
▁ਕਿੱਟੀ	-11.5031
ਿਯਾ	-11.5036
▁ਯੰਤਰਾਂ	-11.5039
▁g	-11.5041
ਸੰਸਥਾਪਕ	-11.5044
▁ਡੰਡੀ	-11.5045
ਡਾਇ	-11.5051
98	-11.5058
▁ਬੁਲਾ	-11.5058
ਫ਼ਾ	-11.5061
ਜਿੱਥੇ	-11.5065
ਇਤਿਹਾਸਕ	-11.5067
ੇਟਰ	-11.5068
ਗ੍ਰੇਟਰ	-11.5069
ਡਿਕ	-11.5071
ੂਲ	-11.5073
ਵਿੰਗ	-11.5079
▁ਠੰਢ	-11.5079
ਸੂਰ	-11.5082
▁(6)	-11.5084
ਪੰਜ	-11.5085
▁ਚਾਹੀਦੀਆਂ	-11.5085
ਾਰੋ	-11.5091
▁ਇਕੱਠ	-11.51
▁ਕੈਸ	-11.5101
ਸਟ੍ਰ	-11.5102
▁ਖਰੀਦਦਾਰ	-11.5102
▁ਫੋਕਸ	-11.5104
▁ਪਲੇਟਫਾਰਮਾਂ	-11.5106
▁ਮਾਰਕੋ	-11.5113
ਲੈੱਸ	-11.5117
▁ਦਿਵਾਉਣ	-11.5118
▁ਵੈਨਰ	-11.512
ਚਿਨ	-11.512
▁ਜਡ਼੍ਹ	-11.5121
ਡਿਸ	-11.5123
▁ਕਲਰ	-11.5129
▁ਸਟੈਨ	-11.5129
▁ਸੌਂ	-11.513
▁ਵੇਲ	-11.5133
▁ਬਗੀਚਿਆਂ	-11.5134
▁ਬੇਇਨਸਾਫੀ	-11.5134
▁ਮੋਢਾ	-11.5134
▁ਵਾਟਰਸ਼ੈੱਡ	-11.5134
▁ਸਦਮੇ	-11.5134
▁ਸੰਤੁਲਿਤ	-11.5134
▁ਜ਼ੁਬਾਨੀ	-11.5134
▁ਠਹਿਰਾਉਣ	-11.5134
▁ਸੰਧਿਆ	-11.5134
▁ਨਿਰਾਸ਼ਾਜਨਕ	-11.5134
▁ਆਟੋਮੋਬਾਈਲ	-11.5134
▁ਸਿੰਚਾਈ	-11.5134
▁ਸਟੇਸੀ	-11.5134
▁ਰੋਇਆ	-11.5134
▁ਮਾਲਵਾਹਕ	-11.5135
▁ਪਾਉਂਦੇ	-11.5136
▁ਬੇਡ਼ਾ	-11.5136
▁ਵੇਨਿਸ	-11.5137
▁ਜਾਵਾਂਗਾ	-11.5137
▁20,000	-11.5137
▁ਕਿਰਪਾ	-11.5137
▁ਮਾਲੀਏ	-11.5138
▁1858	-11.5138
▁ਹੌਸਰ	-11.5138
▁ਕਾਰਟੂਨ	-11.5139
▁ਅਲਕੋਹਲ	-11.5139
▁ਅਣਗਿਣਤ	-11.514
▁ਸੁੱਕੀ	-11.5141
▁125	-11.5142
▁ਕੋਰਡਨ	-11.5144
ਤੁ	-11.5145
▁ਸੰਸਥਾਗਤ	-11.5146
▁by	-11.5148
▁ਖਿੱਚੀਆਂ	-11.5148
▁ਮਾਊਂਟੇਨ	-11.5148
▁ਬੈਟਰੀਆਂ	-11.5149
▁ਮੁੱਢਲਾ	-11.515
▁ਖਰੀਦਦਾਰੀ	-11.515
▁ਟੈਲੀਗ੍ਰਾਫ	-11.5155
▁ਘੁੰਮਦੀ	-11.5156
▁ਬਣਾਉਂਦੀਆਂ	-11.5157
ਆਹ	-11.5159
▁ਅਰਸੇ	-11.5161
▁ਡਰਾਪ	-11.5162
▁ਵੈਗਨਰ	-11.5167
ਰੋਜ਼	-11.5167
▁ਮੁਸਲਮਾਨਾਂ	-11.5168
▁ਹਰਮਨ	-11.517
▁ਜੁਡ਼ਨ	-11.5172
ਲਿਕ	-11.5172
▁ਫਾਲੋ	-11.5178
ਾਇਟ	-11.5182
▁ਗੀ	-11.5186
▁ਟੈਂਕਾਂ	-11.5189
▁ਜ਼ੁ	-11.519
▁ਹਟਾਉਣਾ	-11.5192
ਮੁਨਾਫਾ	-11.5199
▁ਸੁੱਟੇ	-11.5201
▁ਈਅਰ	-11.5211
ਟੈਕ	-11.5213
▁ਫਿਕਸ	-11.5214
▁180	-11.5214
ਪਤੀ	-11.522
ਿੰਘਮ	-11.5223
▁ਬਚਾ	-11.5224
▁ਆਵੇਗਾ	-11.5229
▁ਹਮਲਾਵਰਾਂ	-11.5231
ਜੀਓ	-11.5237
▁ਸੰਬੰਧਾਂ	-11.524
▁2-0	-11.5244
ਵੈਨ	-11.5248
▁ਟੋਨ	-11.5249
▁ਤਰਕਸ਼ੀਲ	-11.5252
▁ਗਸ਼ਤ	-11.5254
▁ਅਲਗਨਕੁਇਨ	-11.5259
▁ਇੰਕੋਡ	-11.5266
ਲੀਓ	-11.5267
▁ਡੀਜੇ	-11.5268
▁ਗਿਟਾਰਵਾਦਕ	-11.5269
▁ਗੈਲਿੰਡੋ	-11.5269
▁ਰੁੱਝਿਆ	-11.5269
▁ਦਿਖਾਉਂਦਾ	-11.5269
▁ਚਰਬੀ	-11.5269
▁ਗਰਭਵਤੀ	-11.5269
▁ਗਾਰੰਟੀ	-11.5269
▁ਵਰਟੀਕਲ	-11.527
▁ਵਿਵਾਦਗ੍ਰਸਤ	-11.527
▁ਸੰਗਠਨਾਤਮਕ	-11.5271
▁ਫ੍ਰੀਕੁਐਂਸੀ	-11.5272
▁ਜਾਗੀਰ	-11.5272
▁ਲੰਘਿਆ	-11.5274
▁ਹੰਕਾਰੀ	-11.5274
▁ਸਿਲੂਏਟ	-11.5275
▁ਕੰਬਣ	-11.5275
▁ਹੁਸੈਨ	-11.5276
▁ਭਰੋਸੇਯੋਗਤਾ	-11.5276
▁ਸੁਲ੍ਹਾ	-11.5276
▁ਮਹਾਨਗਰ	-11.528
▁ਮੋਗਲੀ	-11.528
ਰੀਨਾ	-11.5282
▁ਬੁਲ	-11.5282
▁ਟ੍ਰਿਬਿਊਨਲ	-11.5282
▁1820	-11.5284
▁ਮੈਥ	-11.5285
▁(25	-11.5287
ਾਂਗ	-11.5289
-25	-11.5305
▁ਫੇਅਰ	-11.5317
▁ਮਿਕਸ	-11.5323
▁ਸੋਨੀ	-11.5325
ਿਗ	-11.5327
▁ਰਾਜ਼	-11.5336
ਲਾਘਾ	-11.5337
ੌਰ	-11.5338
▁ਪਾਪਾਂ	-11.5343
▁ਹਾਨ	-11.5347
ਦੁ	-11.5348
▁ਵਧਣਾ	-11.5349
ੱਬ	-11.5352
▁ਬਰੋ	-11.5359
▁ਟੇ	-11.5362
ੇਟਸ	-11.5362
ਖੇਡ	-11.5365
ਕੁਲ	-11.5376
▁ਸਿਆਸਤਦਾਨਾਂ	-11.5379
▁103	-11.5381
▁ਹਾਰਸ	-11.5385
ਾਟਾ	-11.5385
▁ਕਰਾਰ	-11.5389
▁ਹਾਲਾਤ	-11.5389
▁2)	-11.5392
▁ਕ੍ਰਿਸ਼ਨ	-11.5393
ਕਿਲ	-11.5395
▁ਅੰਬ	-11.5397
ੋਵਿਚ	-11.5399
▁ਬੈਰੋਨੇਟ	-11.5401
▁ਜੁੱਤੀ	-11.5402
ਾਂਗਾ	-11.5403
▁ਖੋਜੀ	-11.5406
▁ਜਜ਼ਬ	-11.5406
▁ਵਿਦਵਤਾ	-11.5406
▁ਈਥੀਓਪੀਆ	-11.5406
▁ਕਿਫਾਇਤੀ	-11.5406
▁ਚੂਹਿਆਂ	-11.5406
▁ਪਕਡ਼	-11.5406
▁ਬਦਸਲੂਕੀ	-11.5406
▁ਸ਼ਲਾਫਲੀ	-11.5406
▁ਟ੍ਰੇਡਮਾਰਕ	-11.5406
▁ਪ੍ਰਚਲਿਤ	-11.5406
▁ਉੱਲੀਮਾਰ	-11.5406
▁ਓਸਬਰਨ	-11.5407
▁ਫਜ਼ਲ	-11.5407
▁ਬਹੁਪੱਖੀ	-11.5407
▁ਮੋਂਟਾਨਾ	-11.5407
▁ਪਾਇਨੀਅਰ	-11.5408
▁ਅਸਮਾਨਤਾਵਾਂ	-11.5408
▁ਅਰਾਜਕਤਾ	-11.5408
▁ਸੁਵਿਧਾਜਨਕ	-11.5409
▁ਗਰੋਸ	-11.5409
▁ਵੰਸ਼ਾਵਲੀ	-11.541
▁ਆਸਕਰ	-11.541
ਲੋਪ	-11.5411
▁ਮਿਸ਼ਰਿਤ	-11.5411
▁ਕਬੂਤਰ	-11.5412
▁ਕੈਬੇਲ	-11.5414
▁ਐੱਨਐੱਫਐੱਲ	-11.5415
▁ਮਿਲੇਗਾ	-11.5415
▁ਮਨਮੋਹਕ	-11.5415
▁1863	-11.5415
▁ਸੰਸਥਾਪਕਾਂ	-11.5416
▁ਕਾਰਪ	-11.5421
▁ਹਾਰਵੇ	-11.5421
▁ਸਿਖਾਉਂਦ	-11.5422
ੇਤਰ	-11.5427
▁ਬੁੱਧਵਾਰ	-11.5429
▁ਟਾ	-11.5431
▁ਮੌਲੀ	-11.5431
ਭਾ	-11.5434
▁ਪ੍ਰੈਰੀ	-11.5438
▁ਬਾਥ	-11.5442
ਡੇਸ	-11.5443
▁ਕਾਨਫਰੰਸਾਂ	-11.5444
▁ਮਿੰਗ	-11.5447
ਫੋਰਟ	-11.5453
ੇਮ	-11.5464
ਓਰ	-11.5468
▁ਬੋਰਡਿੰਗ	-11.5469
▁ਮਾਰਸ਼	-11.5474
▁re	-11.5474
▁ਪੇਸ਼ੇਵਰਾਂ	-11.5475
▁at	-11.5475
ਸੰਵਿਧਾਨਕ	-11.5477
▁ਆਇਲ	-11.5477
ਿਲਾ	-11.5478
▁ਲਡ਼ੇ	-11.5479
▁ਗਲੋਬ	-11.548
ਰਾਨ	-11.5487
▁ਫਿਲਿਪਸ	-11.5492
▁ਫੇਰੀ	-11.5495
ਰੌਕ	-11.5496
▁ਕੀਆ	-11.5497
▁ਸੇਰ	-11.5499
ਵਾਟਰ	-11.5506
▁ਸੂਰਜੀ	-11.5515
▁ਜਾਰਗ	-11.5516
▁ਡਾਂਸਰ	-11.5527
▁ਸਾਵਧਾਨ	-11.5528
▁ਕਰਵਾਉਣ	-11.5529
▁ਸ਼ੌਕੀਨ	-11.5533
▁ਬੇਹੋਸ਼	-11.5533
▁ਝਾਡ਼ੀ	-11.5538
▁ਡੌਗ	-11.5539
▁ਸੈਂਸਰ	-11.5541
93	-11.5542
▁ਆਸਟਰੇਲੀਆ	-11.5542
▁ਮਹਿਮਾ	-11.5544
▁ਪੇਸ਼ਕਾਰ	-11.5545
▁would	-11.5545
▁ਅਥਾਰਿਟੀ	-11.5545
▁ਉਨ੍ਹੀਵੀਂ	-11.5545
▁ਓਸੋਰਨੋ	-11.5545
▁ਬਾਪਤਿਸਮਾ	-11.5545
▁ਰਿਸੀਵਰ	-11.5545
▁ਵਿਚੋਲਗੀ	-11.5545
▁ਘਟਾਓਣਾ	-11.5545
▁ਸਕੀਇੰਗ	-11.5546
▁ਬੁਲਾਰੇ	-11.5546
▁ਗਾਜ਼ਾ	-11.5546
▁ਨੀਦਰਲੈਂਡ	-11.5547
ੈੱਸ	-11.5547
▁ਝਗਡ਼ੇ	-11.5547
▁ਪੋਸਟਸੀਜ਼ਨ	-11.5547
▁ਵਾਟਰਫੋਰਡ	-11.5547
▁ਰੈਕਟਰ	-11.5548
▁ਸੇਲਮਾ	-11.5548
▁ਦਿਖਾਏ	-11.5549
▁ਉਪਬੰਧਾਂ	-11.5549
▁ਪੋਮੇਰੋਲ	-11.5551
▁ਲੈਰੀ	-11.5551
▁ਲੈਸਬੀਅਨ	-11.5551
▁ਪਲੈਟਸਬਰਗ	-11.5552
▁ਨੀਵਾਂ	-11.5552
▁ਮੋਰਟਨ	-11.5552
▁ਸ਼ਰੀਫ	-11.5554
▁ਬੌਸ	-11.5555
▁ਵਿਸਫੋਟਕ	-11.5555
ਜੈਕ	-11.5555
ਟੁ	-11.5556
▁ਸਿਲਾਈ	-11.5556
-52	-11.5557
▁ਡੀਜ਼ਲ	-11.5562
▁ਕਾਰਪਸ	-11.5564
▁ਰੋਜਰਸ	-11.5564
▁ਵੇਖੋ	-11.557
ਸਿਕਾ	-11.5571
ਸੰ	-11.5573
▁ਪੋਰ	-11.5582
▁ਹਵਾਈਅਨ	-11.5583
▁ਉੱਤਰਾਧਿਕਾਰੀਆਂ	-11.5585
▁ਰਾਣੀਆਂ	-11.5591
▁ਫਾਲਸ	-11.5599
▁ਬਲੱਡ	-11.5599
ਟੈਗ	-11.5603
▁ਕੈਰੋਲੀਨ	-11.5609
▁ਨਿਭਾਈਆਂ	-11.5612
▁ਮੁੱਢਲ	-11.5613
ਅਮੈਰੀਕਨ	-11.5617
ਸੰਖੇਪ	-11.5617
▁ਵਿਦ	-11.5618
▁ਬੀਟਲ	-11.5619
▁ਜੋਡ਼ਨਾ	-11.5619
▁ਜੌਹਨਃ	-11.5622
▁ਓਲਡ	-11.5623
▁ਏਰੀਆ	-11.5625
▁ਰਿਸ਼ੀ	-11.5626
▁ਮੋਨਾ	-11.5629
▁ਜਨਮਤ	-11.5631
▁ਮੈਨੀ	-11.5643
ਗੀਆਂ	-11.5643
੍ਰਿਤ	-11.5645
ਡੀਅਨ	-11.565
▁ਮਾਪਣ	-11.5654
▁ਜੀਓ	-11.5655
▁ਟੋਡ	-11.5655
▁ਮੈਟਾ	-11.566
ੈਂਡਰ	-11.5661
63	-11.5662
an	-11.5664
▁ਭਿੰਨਤਾ	-11.5672
▁ਪੁਜਾਰੀ	-11.5678
▁ਢੱਕੀ	-11.5678
▁ਟਾਈਟਲ	-11.568
▁ਉਡਾਇਆ	-11.5686
▁ਪ੍ਰੋਤਸਾਹਨ	-11.5686
▁ਸਮੁੱਚਾ	-11.5686
▁ਸਾਲਵਾਡੋਰ	-11.5686
ਵਿਕੀਪੀਡੀਆ	-11.5686
▁ਇਲੈਕਟ੍ਰੀਕਲ	-11.5686
▁ਨਗਰਪਾਲਿਕਾ	-11.5686
▁ਰਿਸੈਪਸ਼ਨ	-11.5686
▁ਕੰਡਕਟਰ	-11.5686
▁ਚੱਕਰਵਾਤ	-11.5686
▁ਇੰਟਰਫੇਸ	-11.5686
▁any	-11.5686
▁ਕੈਲਗਰੀ	-11.5686
▁ਕੋਹੇਨ	-11.5686
▁ਲਈਃ	-11.5687
▁ਤਾਮਿਲ	-11.5687
▁ਜਿੰਦਾ	-11.5687
▁ਦੂਰਸੰਚਾਰ	-11.5687
▁ਹੁੱਕ	-11.5688
▁ਬੁਲਾਰਾ	-11.5688
▁ਮੱਖੀਆਂ	-11.5691
▁ਜੋਸਫ	-11.5692
▁ਥੀਓਡੋਰ	-11.5692
▁ਮਾਰਨਾ	-11.5693
▁ਬਾਰਕਰ	-11.5694
▁ਜੁੱਤੀਆਂ	-11.5694
▁ਬੂਟ	-11.5695
▁ਨਿਆਂਪੂਰਨ	-11.5695
▁ਪੋਂਟ	-11.5698
▁ਯਮਨ	-11.57
▁ਸਾਦੇ	-11.5701
▁ਟ੍ਰੇਸੀ	-11.5706
ਲਵ	-11.5709
▁ਵਿਗਨ	-11.5712
ਕ੍ਰਿ	-11.5712
▁ਪਲਟ	-11.5716
▁ਬੀਫ	-11.5718
▁ਟੈਨ	-11.5721
▁ਮੂਡ	-11.5722
ਵਾਦੀਆਂ	-11.5723
▁ਨਿਊਮੈਨ	-11.5729
▁ਵਿਊ	-11.5729
ਗ੍ਰਾਮ	-11.5736
ਿਦ	-11.5749
▁ਲੂਈਸ	-11.575
▁ਲਡ਼ਨਾ	-11.5751
▁ਰੋਬਰਟਸ	-11.5754
▁ਨੋਕ	-11.5758
ਐਲਬਮ	-11.576
▁ਰੋਮਾਨੀਆਈ	-11.576
ਨਾਸ	-11.5762
ੀਸ	-11.5763
ਸੁਪਰ	-11.5763
ਿਯੋ	-11.5765
▁ਗੁਆਚ	-11.5772
ਬੁੱਕ	-11.5777
▁ਗਿਣਤੀਆਂ	-11.5781
ੂਟ	-11.5789
ਬੇਟ	-11.5792
▁ਗ੍ਰੇਗਰੀ	-11.5795
▁ਕਾਈ	-11.5795
ਸਾਈਟ	-11.5799
▁ਫਡ਼ਨਾ	-11.58
-30	-11.5804
▁ਕੋਸ	-11.5806
▁ਬਰਤਨ	-11.5808
ਦਿਆਂ	-11.5813
▁ਅਪੋਲੋ	-11.5814
▁ਮਾਲਕੀ	-11.5814
▁ਰੋਬੋ	-11.5815
▁ਸਟੀਰ	-11.5816
▁ਬ੍ਰੁਕ	-11.5816
▁ਨਸਲਵਾਦ	-11.5817
ਸਿਓ	-11.5818
▁ਅਦ	-11.5821
ਾਲੀ	-11.5824
▁ਅੰਨ੍ਹੇ	-11.5825
▁ਲਿਓਨਾਰਡ	-11.5825
▁ਮੈਦਾਨੀ	-11.5828
▁ਅਭਿਲਾਸ਼ੀ	-11.5829
▁ਅਰਕਾਨਸਾਸ	-11.5829
▁ਕੋਆਰਡੀਨੇਟਰ	-11.5829
▁ਗੰਦਗੀ	-11.5829
▁ਮੋਢਿਆਂ	-11.5829
▁ਫਰਨਾਂਡੋ	-11.5829
▁ਲੁਡਵਿਗ	-11.5829
▁ਗਾਣੇ	-11.5829
▁ਸੇਡਾਨ	-11.5829
▁ਸ਼ੂਗਰ	-11.5829
▁ਨਿਊਕੈਸਲ	-11.583
▁ਰਿਆਸਤ	-11.583
▁ਝਗਡ਼ਾ	-11.5831
▁ਜਗਵੇਦੀ	-11.5831
▁ਜੈਨੇਟ	-11.5832
▁ਕ੍ਰਿਆਵਾਂ	-11.5832
▁ਪ੍ਰਦਰਸ਼ਨਕਾਰੀਆਂ	-11.5832
▁ਸਟਾਰਟਰ	-11.5832
▁ਐਮਸਟਰਡੈਮ	-11.5832
▁ਗ੍ਰਹਿਣ	-11.5833
▁ਮੈਪਿੰਗ	-11.5834
▁ਸੰਦ	-11.5834
▁ਸਟੈਂਡਿੰਗ	-11.5835
▁ਟਾਪੂਵਾਸੀ	-11.5841
▁ਜ਼ਮੀਰ	-11.5841
▁ਅਬਦੁਲ	-11.5841
▁ਕਲੋਨੀਆਂ	-11.5841
▁ਫਟਣ	-11.5842
▁ਅਠਾਰਾਂ	-11.5845
▁1855	-11.5845
▁ਕ੍ਰੋਏਸ਼ੀਅਨ	-11.5846
▁ਆਦਿਵਾਸੀ	-11.5846
▁ਚਲਾਈਆਂ	-11.5847
▁ਪੈਰਾਂ	-11.5847
ੱਪ	-11.5847
▁50,000	-11.585
▁ਦਰਬਾਰ	-11.585
▁ਚੁਣੀਆਂ	-11.5851
▁ਲੋਇਡ	-11.5851
▁ਮੈਪ	-11.5852
▁ਸਟੈਨਲੀ	-11.5853
▁ਅਲਵਿਦਾ	-11.5853
ੋਫ	-11.5853
ਤਿ	-11.5853
▁ਐਂਟਰੀਆਂ	-11.5856
▁ਸ਼ਾਪ	-11.5858
▁t	-11.5859
ੇਸੀ	-11.586
▁ਇਸਾਕ	-11.5863
ਚਲ	-11.5864
ਨਾਰਡ	-11.5865
▁ਨਿਰਦੇਸ਼ਾਂ	-11.5871
▁ਲਾਅਨ	-11.5872
”	-11.5882
-22	-11.5884
ਵੂ	-11.5885
▁ਮਿਲਰ	-11.5887
ਰੀਜ਼	-11.5887
ਸ਼ਹਿਰ	-11.589
ਨੋਟ	-11.5891
ਜੀਆ	-11.5892
▁ਝਰਨਾ	-11.5894
ਆਦਮੀ	-11.59
▁ਬੇਨਤੀਆਂ	-11.5903
▁ਬੇਲਾਰੂਸ	-11.5904
ਪੱਥਰ	-11.5905
ਦਿਨ	-11.5912
▁ਲੇਖਾ	-11.5912
ਗਾਰ	-11.592
▁ਬੁਖਾਰ	-11.5921
▁ਨੁ	-11.5924
ਰੋਲ	-11.5924
▁ਬੱਟ	-11.5926
▁ਆਕਸ	-11.5928
▁ਕ੍ਰਿਕਟਰ	-11.593
▁ਗ੍ਰੈ	-11.5933
▁ਵੈਲੇ	-11.5933
▁ਕਿੱਟ	-11.5934
▁ਅਰਾ	-11.5938
▁ਨਿਰ	-11.5941
▁ਆਬਾਦੀਆਂ	-11.5944
ਗ੍ਰਾਫ	-11.5944
▁ਤਿਆਗ	-11.5946
ਹੰਟ	-11.5949
ਨੇਕ	-11.5949
▁ਮਸਜਿਦ	-11.5953
▁ਰਸੂਲ	-11.5953
▁ਸਮੱਗਰੀਆਂ	-11.5957
▁ਸੈਂਟ	-11.5957
▁ਜਵਾਬਦੇਹ	-11.596
▁ਪਿੰਜਰ	-11.5963
▁ਪੌਡ਼ੀ	-11.5966
▁ਉਰ	-11.5968
▁ਯੂਜੀਨ	-11.5968
▁ਝ	-11.5969
▁ਫਸਲ	-11.5971
▁ਭਰੋਸੇ	-11.5973
ਵਟਾਂਦਰੇ	-11.5974
▁ਗਾਡ਼੍ਹਾਪਣ	-11.5974
▁ਦੰਗਿਆਂ	-11.5974
▁ਪ੍ਰਤਿਭਾਸ਼ਾਲੀ	-11.5974
▁ਰੁਤਬੇ	-11.5974
▁ਲਾਇਸੰਸਸ਼ੁਦਾ	-11.5974
▁ਸਮੀਖਿਅਕ	-11.5974
▁ਡਿਪਲੋਮਾ	-11.5974
▁ਬਾਊਲ	-11.5974
▁ਕੈਰੀਬੀਅਨ	-11.5974
▁ਕਤਾਰਬੱਧ	-11.5974
▁ਕ੍ਰਾਫੋਰਡ	-11.5974
▁ਫਰੈਂਕਲਿਨ	-11.5975
▁ਢਲਾਣਾਂ	-11.5976
▁ਮੁਗਲ	-11.5977
▁ਕੰਬਰਲੈਂਡ	-11.5977
▁ਉੱਭਰਿਆ	-11.5977
▁ਮਿਰਚ	-11.5978
▁ਖੂਨੀ	-11.5978
▁ਰਿਟਰਨ	-11.5979
▁1847	-11.5979
▁ਲਗਜ਼ਰੀ	-11.5979
ਮੋਸ	-11.5984
▁ਨਾਡ਼ੀਆਂ	-11.5985
▁ਸਪਿਨ	-11.5987
▁ਆਈਰਿਸ	-11.5988
ਕੁਰ	-11.5989
▁ਹੰਗਰੀਅਨ	-11.599
ੀਕੋ	-11.5992
▁ਮਕਾਨ	-11.5992
▁ਜਰ	-11.5995
▁ਇਨੂ	-11.5996
ਸਪੀਡ	-11.5998
▁ਬਰਟਨ	-11.6009
▁ਸ਼ੈਰੀ	-11.601
▁ਡਰਦਾ	-11.6012
▁ਵਹਿਣ	-11.6013
▁ਹਾਈਪਰ	-11.6015
▁ਅੱਠਵੀਂ	-11.6016
▁ਬਚਾਉਂਦ	-11.6016
▁ਸੱਪਾਂ	-11.6016
▁ਸਰਜਨ	-11.6017
▁ਚੋਰ	-11.6021
▁ਸਾਲਸੀ	-11.6024
▁ਸਿੱਖਿਆਵਾਂ	-11.6029
▁ਮਾਡਲਿੰਗ	-11.6034
ਰ੍	-11.6034
ਪੋਰ	-11.6035
ੱਫ	-11.6035
ਚੂ	-11.6038
▁ਬੇਰੀ	-11.6039
▁ਬੋਟ	-11.6039
▁(22	-11.6045
,500	-11.6046
▁ਰੈਂਡ	-11.6047
▁ਸਮੁੰਦਰਾਂ	-11.6051
ਪਹਿਲਾ	-11.6051
▁us	-11.6052
ਯੁੱਧ	-11.6052
ੋਲਾ	-11.6059
▁ਕੀਟ	-11.606
▁ਕਾਰਾ	-11.606
ੋਸਾ	-11.6062
▁ਡਾਇਰੈਕਟਰਾਂ	-11.607
▁ਵਲਾਦੀਮੀਰ	-11.6077
▁ਮੰਜ਼ਿਲ	-11.6084
▁ਫਾ	-11.6085
ਤਮ	-11.609
ਆਰਟੀਕਲ	-11.6096
▁ਸਰਵਰ	-11.6096
ਰੋਵ	-11.6096
ਲਿਸਟ	-11.61
▁ਅਨਾਥ	-11.6101
ਇਰ	-11.6103
▁ਮੰਡਲੀ	-11.6105
ਰੂਪ	-11.6105
▁ਨੌਕਰ	-11.6106
▁ਪੁੱਛਣ	-11.6106
▁ਜੁਲਦ	-11.6107
ਾਈਜ਼ੇਸ਼ਨ	-11.6109
ਾਇਡ	-11.6109
ਸਮੈਨ	-11.6116
▁ਕਰੂਜ਼ਰ	-11.6118
▁ਵਾਟ	-11.6119
▁ਬਾਰਟ	-11.612
▁ਅੱਡਿਆਂ	-11.6121
▁ਢਲਾਨ	-11.6121
▁ਥਿਊਰਮ	-11.6121
▁ਦੁਭਾਸ਼ੀਏ	-11.6121
▁ਨਿਰਧਾਰਨ	-11.6121
▁ਰਿਆਇਤ	-11.6121
▁ਵਿਸਥਾਰ	-11.6121
▁ਚੁੰਬਕ	-11.6121
ਤਾਕੀਦ	-11.6121
▁ਇਰਵਿੰਗ	-11.6121
▁ਮਨਪਸੰਦ	-11.6121
▁ਰੋਨਾਲਡ	-11.6121
▁ਕਿਰਦਾਰ	-11.6121
▁ਆਈਰਿਸ਼	-11.6121
▁ਮਨਾਹੀ	-11.6121
▁ਕੋਨਰਾਡ	-11.6121
▁ਵਿਨਸੈਂਟ	-11.6121
▁ਰਿਲੇਅ	-11.6122
▁ਪਰੋਸਿਆ	-11.6122
▁ਪ੍ਰਦੂਸ਼ਨ	-11.6123
▁ਐਲੀਸਨ	-11.6124
▁ਐਡਵਿਨ	-11.6124
▁ਗੈਰੀਸਨ	-11.6124
▁ਵਿਤਕਰੇ	-11.6125
▁ਮੋਇਨ	-11.6125
▁ਕੋਲੰਬਸ	-11.6126
▁ਮਕੈਨਿਕਸ	-11.6126
▁ਸੁਣਦੇ	-11.6127
▁1815	-11.6127
▁1-1	-11.6129
▁ਇਬਰਾਨੀ	-11.613
▁ਮੋਰਸ	-11.6133
▁ਦਾਦੀ	-11.6133
▁ਲੇਵਿਨ	-11.6137
(	-11.6139
▁ਹੀਟ	-11.614
▁ਗਲਾਸ	-11.6143
▁ਪਾਰਕਾਂ	-11.6144
ਕੰਪ	-11.6145
▁ਪੌਲੋ	-11.6146
▁ਰੋਲੈਂਡ	-11.6148
▁ਕੋਡਿੰਗ	-11.6149
ਰਾਈ	-11.6152
▁ਗ੍ਰਾਸ	-11.6153
▁ਤੁਰਨ	-11.6153
▁ਉਪਨਗਰੀ	-11.6157
▁ਹੈਨਸਲ	-11.6157
▁ਗਾਹਕੀ	-11.6162
ਨਗਰ	-11.6165
7)	-11.6167
▁ਕ੍ਰੀ	-11.6179
▁ਹਡ਼੍ਹਾਂ	-11.6185
ਐਕਟ	-11.6189
▁2-	-11.6195
ਲਾਭਕਾਰੀ	-11.6201
ਤੁਹਾਡੇ	-11.6201
ਰਾਸ਼ਟਰਪਤੀ	-11.6201
▁ਹਾਰਪਰ	-11.6203
ਸਾਨੂੰ	-11.6203
ਰੇਕ	-11.6204
▁ਅਮਲ	-11.6205
▁ਤਰਤੀਬ	-11.6206
▁ਸਪਾ	-11.6208
▁ਅਦਨ	-11.621
▁ਭਾਸ਼ਾਈ	-11.6214
ਵਿਗਿਆਨੀ	-11.6217
ਨਿਰਮਿਤ	-11.622
ਕ੍ਰਾਫਟ	-11.6221
ਨੈ	-11.6221
▁ਫੋ	-11.6222
ੋਪ	-11.6223
ਰਾਤ	-11.6224
▁ਸਲਾਮ	-11.623
▁ਘਟਾਉਂਦ	-11.6233
▁ਸ਼ਖਸੀਅਤਾਂ	-11.6235
▁ਨਿਕਾਸੀ	-11.6244
▁ਪੈਚ	-11.6248
▁ਪੈਰੋਕਾਰ	-11.6249
ਅਰਜ਼	-11.625
ਡੇਅ	-11.6258
▁ਸਟੀਵਨ	-11.626
ਕਾਇਆ	-11.6261
▁ਪ੍ਰਤੀਬੱਧਤਾ	-11.6269
▁ਗਿਣਿਆ	-11.627
▁ਫਰੇਜ਼ਰ	-11.627
▁ਬੁਲਗਾਰੀਆ	-11.627
▁ਸੰਯੋਜਨ	-11.627
ਸੰਰਚਿਤ	-11.627
▁ਟੋਮਲਜਾਨੋਵਿਕ	-11.627
▁ਕਬੀਲਾ	-11.627
▁ਡੱਡੂ	-11.627
ਸੁਲੀਵਾਨ	-11.627
▁ਕੈਨਸੈਟ	-11.6271
▁ਆਊਟਡੋਰ	-11.6271
▁ਟਹਿਣੀਆਂ	-11.6271
▁ਜੋਸਫ਼	-11.6271
▁ਓਲੀਵਰ	-11.6271
▁ਕਲਿੰਟਨ	-11.6272
▁ਉੱਠਦਾ	-11.6273
▁ਸਪੈਲਿੰਗ	-11.6273
▁ਅਕਸ਼ਾਂਸ਼	-11.6276
▁ਐਡੀਸਨ	-11.6277
▁ਬਾਲਟਿਕ	-11.6279
▁ਕਿਹਡ਼ਾ	-11.628
▁ਵੱਕਾਰੀ	-11.6281
▁ਕੁਲੀਨਤਾ	-11.6281
▁ਤਮਗਾ	-11.6281
▁ਨਿਰਪੱਖਤਾ	-11.6284
▁1856	-11.6289
▁ਡਿੱਗਦਾ	-11.6292
▁ਸ਼ਤਾ	-11.6294
▁man	-11.6295
▁ਅਤਰ	-11.6299
▁ਕੈਂਪਾਂ	-11.6301
▁ਵਾਰਵਿਕ	-11.6302
▁ਕੈਮਿਲ	-11.6302
▁ਏਰੀ	-11.6305
▁ਖਾਦ	-11.6306
▁3-0	-11.6306
▁(20	-11.6313
ਝ	-11.6314
▁ਪੋਰਟਰ	-11.6315
ਸਬਰੀ	-11.6318
ਸਟਾਊਨ	-11.6321
ਟਰਾਂ	-11.6322
ੋਸਿਸ	-11.6322
▁ਬੋਕਾ	-11.6327
▁ਕੋਵ	-11.6329
ਸੀਅਸ	-11.633
▁ਕੱਢਣਾ	-11.6332
▁ਕੇਂਟ	-11.6333
ੀਚ	-11.634
,000,000	-11.6341
▁ਗੈਲ	-11.6342
ਜਿਕ	-11.6343
ਜੀਵਨ	-11.6352
ਸ਼ਕਤੀ	-11.6352
ਬਿੰਦੂ	-11.6352
ਸ਼ਾਇਦ	-11.6353
ਸ਼ਬਦ	-11.6353
ਰਿਕਾਰਡ	-11.6354
▁ਬਚੀ	-11.6354
ਸ਼ਾਹੀ	-11.6357
▁ਬਰੀ	-11.6359
▁w	-11.6361
91	-11.6365
▁ਟੌਮੀ	-11.6366
ਐਨੀਮੇਟਡ	-11.6369
▁ਟੋਰੀ	-11.637
4)	-11.6384
▁ਗ੍ਰੈਨ	-11.6387
▁ਬੇਲੀ	-11.6388
ਪੌਪ	-11.6394
▁ਨਟ	-11.6395
▁ਗਾਇਕਾਂ	-11.6397
▁ਵਲ	-11.6398
▁ਦਰੱਖਤ	-11.6401
▁ਹੂਰਨ	-11.6402
▁ਲੂਨਾ	-11.6406
ਮੇਰ	-11.6407
▁ਟੈਕ	-11.6407
ਗਣਿਤਿਕ	-11.6411
▁ਐਡਮ	-11.6413
▁3-1	-11.6416
▁ਆਈਵੀ	-11.6417
▁ਭਿੰਨ	-11.6419
▁ਨਾਡ਼ੀ	-11.642
▁ਗਿੰਨੀ	-11.642
▁ਘੁੱਗੀ	-11.6422
▁ਪਿਸਤੌਲ	-11.6422
▁ਪੁਰਖਿਆਂ	-11.6422
▁ਰਵਾਨਗੀ	-11.6422
▁ਕਾਫਲੇ	-11.6422
▁ਅਫ਼ਗ਼ਾਨਿਸਤਾਨ	-11.6422
▁ਬੋਧਾਤਮਕ	-11.6422
▁ਨਿਪਟਾਰਾ	-11.6422
▁ਬੋਸਨੀਆ	-11.6422
▁ਰੋਇੰਗ	-11.6422
▁ਯੋਂਗ	-11.6423
▁ਮਿਲੀਗ੍ਰਾਮ	-11.6423
▁ਪੁਨਰਵਾਸ	-11.6423
▁ਬ੍ਰਿਗੇਡੀਅਰ	-11.6423
▁ਜੂਲੀਅ	-11.6424
▁ਕੰਸੋਲ	-11.6424
▁ਚਿੱਕਡ਼	-11.6425
▁ਰੁਕਿਆ	-11.6427
▁ਸਾਇ	-11.6429
▁ਤਾਰਿਆਂ	-11.643
▁ਪੂਰਤੀ	-11.6431
▁ਅਫਵਾਹਾਂ	-11.6431
▁1849	-11.6431
ਾਵ	-11.6435
ac	-11.6435
▁ਮਹਿੰਗਾ	-11.6437
▁ਕਰਾਂਗੇ	-11.6439
▁ਬੇਸਲ	-11.644
ਬਿਸ	-11.6442
▁ਨਾਮਜ਼ਦਗੀਆਂ	-11.6444
▁ਸ਼ੁਭ	-11.6445
▁ਸਟ੍ਰੈ	-11.6446
ਮਿ	-11.6449
▁ਹਿੰਦੀ	-11.645
▁ਖੰਭੇ	-11.6455
▁ਮੰਦਰਾਂ	-11.6455
▁ਦਾਇਰੇ	-11.6458
▁ਰੱਖਦੀਆਂ	-11.646
▁ਫਾਈਨਲਿਸਟ	-11.6461
▁ਕ੍ਰੈ	-11.6464
-27	-11.6464
▁4-	-11.6464
▁ਰੋਥ	-11.6467
▁ਕਮੀਜ਼	-11.6469
▁ਬੋਅਰ	-11.647
▁ਓਨ	-11.647
▁ਢਾਲ	-11.6474
▁3-3	-11.6478
▁ਚੀਕਾਂ	-11.6481
ਗੋਰ	-11.649
ਡ਼ੇ	-11.6492
▁ਕੂ	-11.6494
▁ਮਹਾਂ	-11.6504
ਜੌਨ	-11.6505
ਰਮਨ	-11.6505
ੀਕ	-11.6507
ਗੀਤਕਾਰ	-11.6507
▁ਨੇਵੀ	-11.6507
▁ਰਿਆ	-11.6513
ੇਰ	-11.6513
ਾਮਾ	-11.6519
ਵੀਅਨ	-11.6521
ਲਕ	-11.6526
▁ਬੈਟ	-11.6527
ੀਵ	-11.6534
▁ਸੋਰ	-11.6534
▁240	-11.6536
▁ਖੇਡਦੀ	-11.6536
▁ਸਾਜ਼ਿਸ਼	-11.6539
▁ਕਾਰਡਾਂ	-11.6541
▁ਘੋਲ	-11.6542
▁ਬ੍ਰਾ	-11.6546
ਧਰਮ	-11.6546
▁ਚੈਟ	-11.6546
?'	-11.6548
▁ਚੈਲੇਂਜ	-11.6551
▁ਓਪ	-11.6552
▁ਈਰੀ	-11.6552
▁ਲੁਕਾਸ	-11.656
▁ਨਾਖੁਸ਼	-11.6562
▁ਸੁਪਰਵਾਈਜ਼ਰ	-11.6564
▁ਪੈਲੇਸ	-11.6564
ਰਿਚ	-11.6565
3,	-11.657
▁ਰੇਂਜਰ	-11.6572
▁ਸਤਹਾਂ	-11.6573
ਰੋਮ	-11.6575
▁church	-11.6575
▁ਧੋਖੇ	-11.6575
▁ਗੁਆਟੇਮਾਲਾ	-11.6576
▁ਟੈਡੋਸੈਕ	-11.6576
▁ਬੈਡਮਿੰਟਨ	-11.6576
▁ਮੁਸਕਰਾਹਟ	-11.6576
▁ਨੌਕਰਾਣੀ	-11.6576
▁ਕਾਰਥੇਜ	-11.6576
▁ਬਿਸਤਰਾ	-11.6576
▁ਸਮਾਨਾਰਥੀ	-11.6576
▁ਭਜਨ	-11.6576
▁ਕੰਪਿਊਟਿੰਗ	-11.6577
▁ਝਟਕਾ	-11.6577
▁ਨੀਵੀਂ	-11.6578
▁there	-11.6578
▁brother	-11.6578
▁ਪਰਛਾਵੇਂ	-11.6578
▁ਵਸਿਆ	-11.6579
▁ਸੱਭਿਅਤਾ	-11.6581
▁1852	-11.6583
▁ਮਾਰਥਾ	-11.6583
▁ਡੰਡੇ	-11.6583
ਨੋਵ	-11.6585
▁ਚੇਤੰਨ	-11.6586
ੋਲਡ	-11.6586
▁ਮੋਡੀਊਲ	-11.6588
▁ਕਾਰਗੋ	-11.6588
▁ਮਹੋਨੀ	-11.6589
▁ਮਸ਼ੀਨਰੀ	-11.659
ਕੋਵਿਕ	-11.6593
▁ਜੁਡ਼ਦਾ	-11.6594
▁ਵਿੰਟਰ	-11.6596
▁ਫਟ	-11.6599
▁ਸ਼ੇਖ	-11.6599
▁ਡੈਮੋ	-11.6599
▁ਮੌਰਿਸਨ	-11.6601
ਮਾਂ	-11.6603
▁ਮੇਸਨ	-11.6605
▁ਜਾਰਜੀਅਨ	-11.6608
▁2:	-11.6609
▁ਸ਼ਾਸਕਾਂ	-11.6611
▁ਉੱਚਾਈ	-11.6613
ਰੋਲਿੰਗ	-11.6622
:1	-11.6626
▁3-	-11.6626
▁ਮੁਡ਼ਿਆ	-11.663
ਮਕ	-11.6631
▁ਨੈਨੋ	-11.6636
08	-11.6645
▁ਕਾਕਸ	-11.6649
▁ਦੇਵੀ	-11.6651
ਮਾਲ	-11.6654
▁ਲੀਗਾਂ	-11.6656
ਨੀਜ਼	-11.6662
ਬ੍ਰਿਟਿਸ਼	-11.6663
ਪਹਿਲੇ	-11.6663
ਸਥਾਪਨਾ	-11.6663
ਸੱਭਿਆਚਾਰਕ	-11.6665
ਮਾਡਲ	-11.6666
▁ਅਲਮਾ	-11.6666
ਦੋਵੇਂ	-11.6669
▁ਪਾਕਿਸਤਾਨੀ	-11.6671
▁ਮੈਡਮ	-11.6672
▁ਕ੍ਰਾਈ	-11.6674
▁ਪਛਾਣਨ	-11.6675
▁ਹੈਂਡ	-11.6688
ਮਾਲਕ	-11.6691
ਟਿਨੋ	-11.6692
ੇਕਾ	-11.6693
▁ਸਾਲਟ	-11.6694
ਇਡ	-11.6696
▁ਬਾਰ੍ਨ	-11.6698
▁ਬੈਰੋ	-11.6702
ਐਂਟੀ	-11.6709
ੰਜ	-11.671
5)	-11.6711
▁ਡਿਵੈਲਪਰ	-11.6711
▁ਅਸਹਿਮਤ	-11.6715
▁ਪਡ਼੍ਹਾਉਣ	-11.6715
ਾਓ	-11.6719
ਬੇਰੀ	-11.6721
▁ਸੋਮਾਲੀਆ	-11.6721
▁ਪ੍ਰਿੰਟਰ	-11.6721
ੇਰੀਆ	-11.6721
▁ਠੇਕੇਦਾਰ	-11.6723
▁ਪਿਕਚਰ	-11.6723
▁ਸੌਂਪਣ	-11.6723
▁ਚੌਕੀ	-11.6731
▁ਤਿਕਡ਼ੀ	-11.6732
▁ਧੂੰਏਂ	-11.6732
▁ਨਾਰਕੋਲੇਪਸੀ	-11.6732
▁ਪਿੱਤਲ	-11.6732
▁ਪੋਰਟਸਮਾਊਥ	-11.6732
▁ਬਾਦਸ਼ਾਹ	-11.6732
▁ਮਾਰਗਦਰਸ਼ਨ	-11.6732
▁ਸ਼ੰਘਾਈ	-11.6732
▁ਤਲਛਟ	-11.6732
▁ਕੀਟਨਾਸ਼ਕ	-11.6732
▁ਨਸਬੰਦੀ	-11.6732
▁ਲਿਸਬਨ	-11.6732
▁ਗੂਗਲ	-11.6732
▁ਚਲਾਉਂਦੀ	-11.6732
▁ਅਵਿਸ਼ਵਾਸ	-11.6732
▁ਕੁਈਨਜ਼ਲੈਂਡ	-11.6733
▁ਪਿਕਸਲ	-11.6733
ੁਨ	-11.6733
ਅਮ	-11.6733
▁ਤੀਰਥ	-11.6733
▁ਚੱਲਦੀ	-11.6734
▁ਜ਼ਾਰ	-11.6735
ਕਲੇ	-11.6736
▁ਖਾਤਿ	-11.6736
▁ਦਿਲੋਂ	-11.6737
▁ਸਪੈਕਟ੍ਰਮ	-11.6737
▁ਇੰਪੁੱਟ	-11.6738
▁ਫ੍ਰੀਮੈਨ	-11.6738
▁ਜਾਰਡਨ	-11.6738
▁ਨਿਕਲਦੇ	-11.6738
▁ਰੇਨਮੈਨ	-11.6738
▁93	-11.6739
▁ਜਿੰਮੀ	-11.6739
▁ਹੱਥੋਂ	-11.674
▁ਸਮਾਨਤਾਵਾਂ	-11.674
▁ਚੱਲਦੀਆਂ	-11.6742
▁ਨੋਟਰੇ	-11.6744
▁ਚੇਨਈ	-11.6744
▁ਪਹਿਲਕਦਮੀਆਂ	-11.6745
▁ਪਾਬੰਦੀਸ਼ੁਦਾ	-11.6746
▁ਕਾਮੇਡੀਅਨ	-11.6746
▁ਭੱਜਿਆ	-11.6747
ਕਾਨ	-11.6748
▁ਮੱਛਰਾਂ	-11.675
▁ਮੁਖੀਆ	-11.6751
▁ਕੁਈਨ	-11.6756
▁ਰਸੂਲਾਂ	-11.676
▁ਮਹ	-11.6763
▁ਬਲੀ	-11.6764
▁ਰੇਮ	-11.6765
▁ਰੋਮਾ	-11.6773
ਕਿਰ	-11.6775
▁ਡਰਨ	-11.6777
▁ਪ੍ਰਸਤਾਵਾਂ	-11.6781
▁ਲੰਘਣਾ	-11.6783
▁ਉਪਨਗਰਾਂ	-11.6783
▁ਟੇਨ	-11.6786
ਪੀਸ	-11.6787
.”	-11.6793
ਨੋਸ	-11.6794
ਸਮੂਹ	-11.6796
▁ਲਾਟ	-11.6799
▁ਸੋਚੋ	-11.6805
ਖੇਤਰ	-11.6807
▁ਲੋਂਗ	-11.6807
▁ਮਿਸਾਲ	-11.6811
ਭਰਾ	-11.6813
ਅਯਾਮੀ	-11.6819
ਵਜੋਂ	-11.6821
ਅੰਤਰਰਾਸ਼ਟਰੀ	-11.6821
ਦੂਜਾ	-11.6822
ਜ਼ੀਓ	-11.6822
▁ਪਰਤਾਂ	-11.6822
▁ਦਿੱਤੀਃ	-11.6826
▁ਯਾਨੀ	-11.6827
▁ਸਿਰਲੇਖਾਂ	-11.6829
ਏਡਜ਼	-11.683
ਆਕਾਰ	-11.6833
▁ਬੀਤ	-11.6838
▁ਗਰੋਵ	-11.6839
ਪਾਰ	-11.6843
ਗੀਤ	-11.6847
▁ਸ਼ਾਰਟ	-11.685
▁ਟ੍ਰੋ	-11.6852
ੇਰੇ	-11.6859
ਹਵਾ	-11.6859
▁ਕੇਕ	-11.6861
ਫਿਸ਼	-11.6864
▁ਕਰਤੱਵ	-11.687
▁ਜਵਾਨ	-11.6882
▁ਅਮੂਰਤ	-11.689
▁ਦੁਖਾਂਤ	-11.689
▁ਨਿਭਾਇਆ	-11.689
▁ਬ੍ਰਸਲਜ਼	-11.689
▁ਮਲਿਆਲਮ	-11.689
▁ਯੂਨੈਸਕੋ	-11.689
▁ਵਿਰੋਧਾਭਾਸ	-11.689
▁ਸਮਲਿੰਗਤਾ	-11.689
▁ਨੇਬਰਾਸਕਾ	-11.689
▁ਰਿਸ਼ਵਤ	-11.6891
▁ਗਾਰਾਕੋਂਟੀ	-11.6891
▁ਐਲੀਅਟ	-11.6891
▁ਭੇਸ	-11.6891
▁ਸਮਝਾਉਣ	-11.6891
ਸ਼ਰ	-11.6892
▁ਵਾਈਡ	-11.6893
▁ਮਰਫੀ	-11.6893
▁ਇਬਰਾਹਿਮ	-11.6893
▁ਲਡ਼ਿਆ	-11.6894
▁ਮੁੰਬਈ	-11.6894
▁ਅਲਬਾਨੀਅਨ	-11.6896
▁ਹੱਥੀਂ	-11.6898
▁ਸ਼ਿਲਰ	-11.6899
▁ਕ੍ਰਾਈਸਟ	-11.6899
▁ਲੱਭਦੇ	-11.6901
▁ਸੇਲਟਿਕ	-11.6901
ੁਤਾ	-11.6902
ਸ਼ਰਨਾਰਥੀਆਂ	-11.6902
▁ਬੀਟੀ	-11.6903
▁ਰੀਡਿੰਗ	-11.6903
ਟਾਂ	-11.6904
▁ਹਾਈਡ	-11.6905
▁2,4-	-11.6908
ੀਸ਼	-11.6912
▁ਅਨੁਕੂਲਿਤ	-11.6912
▁ਟ੍ਰੇਨਰ	-11.6912
▁ਲਿੱਪ	-11.6917
▁ਦਸਵੇਂ	-11.6919
ਟ੍ਰੀ	-11.6919
▁ਐਂਜਲ	-11.6923
ਸਟਾਈਨ	-11.6927
▁ਲੱਗੀਆਂ	-11.6931
▁ਐਰੇ	-11.6933
ਅੰਤ	-11.6944
ਜ਼ਿ	-11.6949
▁ਪ੍ਰਯੋਗਾਂ	-11.6952
▁ਹਾਂਃ	-11.6953
ਚਰਚ	-11.6953
▁ਮੈਸ	-11.6956
▁ਹਵਾਲ	-11.6957
▁ਪੁੱਛ	-11.6959
▁ਰਿਪੋਰਟਿੰਗ	-11.6961
ਡੁ	-11.6962
▁104	-11.6966
▁ਗ੍ਰਾਫ	-11.6966
▁ਅਸਮਰੱਥਾ	-11.6974
ਆਪਣੀ	-11.6974
▁ਟੈਡ	-11.6976
ਚੈਨਲ	-11.6983
ੈੱਟ	-11.6983
ਦੂਜੇ	-11.6983
▁ਪੈਟਰਨਾਂ	-11.6984
▁ਪਡ਼੍ਹਨਾ	-11.6984
ਪ੍ਰਜਾਤੀਆਂ	-11.6988
▁ਵਿਕਾਰ	-11.6997
▁ਡਾਇਰੀ	-11.7001
ਟਰਨ	-11.7003
ਬੀਅਸ	-11.7003
ਬੋਰ	-11.701
ਔ	-11.7021
ਸਵੈ	-11.7025
▁ਕਰੀਬ	-11.7025
▁ਮੰ	-11.703
▁ਗ਼ਰੀਬ	-11.7031
▁ਖੂਹ	-11.7031
▁ਕਣ	-11.7034
▁ਵਜਾਉਣ	-11.7035
▁ਪੀਲੀ	-11.7037
ਸ਼ੀਮਾ	-11.704
▁ਸਾਕੀ	-11.7042
▁ਰੱਸੀ	-11.7043
▁ਹੋਲਡਿੰਗ	-11.7044
▁ਹਿਲਾਉਣ	-11.7045
ੋਏ	-11.7046
ਿਸਟਾ	-11.705
ਅੰਡਲਸ	-11.7052
▁ਆਡਿਟ	-11.7052
▁ਐਕਸਟੈਂਸ਼ਨ	-11.7052
▁ਤਕਨਾਲੋਜੀ	-11.7052
▁ਭੈਡ਼ੀ	-11.7052
▁ਰੈਜ਼ੋਲੂਸ਼ਨ	-11.7052
▁ਹਿਡਾਲਗੋ	-11.7052
▁ਮੇਲਕਾਈਟ	-11.7052
▁ਹੈਂਡਰਸਨ	-11.7052
ਖ਼ਤਮ	-11.7052
▁ਹਫ਼ਤਾਵਾਰੀ	-11.7052
▁ਰੀਮੇਕ	-11.7052
▁ਬੁਝਾ	-11.7052
▁ਸਟ੍ਰੈਟਫੋਰਡ	-11.7052
▁ਸਾਰਜੈਂਟ	-11.7052
▁ਚੀਡ਼	-11.7052
▁one	-11.7053
▁ਭੇਟ	-11.7053
▁ਪ੍ਰਮਾਣ	-11.7053
ਨਵੇਂ	-11.7054
▁ਆਧੁਨਿਕੀਕਰਨ	-11.7054
▁ਵੈਲੇਸਲੀ	-11.7054
▁ਟ੍ਰਾ	-11.7057
▁ਗੇਡ਼	-11.7057
▁ਸਪੈਂਸਰ	-11.7058
▁ਚੈਟੋ	-11.7059
▁ਸੁਣਦਾ	-11.7059
▁ਧੂਡ਼	-11.7059
ਲੈਂਡਜ਼	-11.706
▁ਗ੍ਰੇਸ	-11.706
▁ਖੰਭਿਆਂ	-11.7062
ਨੈੱਸ	-11.7062
▁ਆਈਸਲੈਂਡ	-11.7063
▁ਵਿਚਾਰਧਾਰਾ	-11.7063
▁ਅਪਾਹਜਤਾ	-11.7064
▁ਕਤਰ	-11.7065
▁ਟਿਊਬ	-11.7065
▁ਕਾਸਟਿੰਗ	-11.7066
ਸਿਕ	-11.7071
▁ਖੱਡੇ	-11.7074
▁ਐਂਡਰੀਆ	-11.7075
▁ਨਿਕੋ	-11.7076
▁ਖੁਦਮੁਖਤਿਆਰੀ	-11.7076
ਨੁ	-11.7078
ਸਟੇ	-11.7078
ਡਲੀ	-11.7078
▁ਛੂਹਣ	-11.7079
▁ਪਿਘਲਣ	-11.7081
ਮੌਲੇ	-11.7081
▁ਧੁਨਾਂ	-11.7082
ਨੇਲ	-11.7083
ੱਖ	-11.7083
▁ਉੱਠ	-11.7087
▁ਸਟੂ	-11.7088
▁ਰਹੱਸਾਂ	-11.7088
▁ਜਿਆਂਗ	-11.709
ਫਨ	-11.7092
▁ਅਪਰੇਟਰ	-11.7093
ਵੈਂਟ	-11.7093
▁ਮੈਕਰੋ	-11.7094
▁ਕੌਂਸਲਰਾਂ	-11.7095
▁ਜੈਮੀ	-11.7097
▁ਬਾਗਾਂ	-11.7099
▁ਕਮਾਂਡਿੰਗ	-11.71
▁ਸਕਾਟਸ	-11.7102
▁ਵਿਸ਼ੇਸ਼ਣ	-11.7105
▁ਐਂਜਲਸ	-11.7106
▁ਫੋਰਕ	-11.7108
▁ਕ੍ਰਿਸਟੀ	-11.7112
▁ਕੈਨੋ	-11.712
▁ਵਾਦੀ	-11.7124
ਮਸ਼ੀਨ	-11.7125
is	-11.7128
▁ਭੀਮ	-11.7129
ਰੋਪ	-11.7132
ਾਰਟ	-11.7138
▁ਰੈਸਟੋਰੈਂਟਾਂ	-11.7139
▁ਫੰਕਸ਼ਨਾਂ	-11.7141
ਬਸ਼ਰਤੇ	-11.7146
▁ਮਾਸਟਰਜ਼	-11.7146
ਜ਼ੌ	-11.7148
ਧੀ	-11.7154
▁ਬੋਲਡ	-11.7161
ਾਈਲ	-11.7162
ਛੇ	-11.7164
ਭਗਤੀ	-11.7165
ਸੀਓ	-11.7169
ੈਂਸੀ	-11.7174
ਮੌਂਟ	-11.718
▁ਲਿਪੀ	-11.7181
ਸ਼ਾਫਟ	-11.7185
▁ਹਾਇ	-11.7187
▁ਸੈਲੇ	-11.7189
▁ਕੈਰ	-11.7191
▁ਬ੍ਰਾਂਡਾਂ	-11.7194
▁ਪੁਸ਼ਾਕ	-11.7195
ਬਰੂਕ	-11.7196
▁ਹਾਰਡੀ	-11.7198
▁ਸਪੈਨ	-11.72
▁ਪੁਨਰਗਠ	-11.7201
▁ਪ੍ਰਸਾਰਕ	-11.7204
▁ਇਲੈਕਟ੍ਰੌਨਿਕ	-11.7205
▁ਉਦਾਹਰਨ	-11.7214
▁ਸਿਆਸਤ	-11.7216
▁twelve	-11.7216
▁ਐਸੋਸੀਏਟ	-11.7216
▁ਨਿਪੁੰਨ	-11.7216
▁ਫਰਡੀਨੈਂਡ	-11.7216
▁ਬੇਰੁਜ਼ਗਾਰੀ	-11.7216
▁ਸ਼ਿਸ਼ਟਾਚਾਰ	-11.7216
▁ਜੇਨੇਵਾ	-11.7216
▁ਕੈਬੀਫਾਈ	-11.7216
▁ਰਿਐਲਿਟੀ	-11.7216
▁ਐਟਲਾਂਟਾ	-11.7216
▁ਪੋਟੋਮੈਕ	-11.7216
▁ਕਿਓਸਕ	-11.7216
▁ਨਿਹਚਾ	-11.7216
▁ਮੈਨੂਅਲ	-11.7216
▁ਅਣਅਧਿਕਾਰਤ	-11.7216
▁ਟ੍ਰਾਂਸਮੀਟਰ	-11.7216
▁ਐਕਸਪ੍ਰੈਸ	-11.7216
▁ਕਾਨਵੈਂਟ	-11.7216
▁ਸਾਇੰਸਿਜ਼	-11.7216
▁ਪਿਤਰੀ	-11.7216
▁ਗਾਉਂਦੇ	-11.7217
▁ਬਰੈਕਟ	-11.7217
▁so	-11.7217
▁ਨੈਨਸੀ	-11.7217
▁ਵੇਲਸ਼	-11.7217
ਡੀਸੀ	-11.7218
▁ਡੈਨਵਰ	-11.7218
▁ਸਦਭਾਵਨਾ	-11.7221
▁ਰੋਗੇਰੀਅਨ	-11.7222
▁ਗੁੱਟ	-11.7222
▁ਨਿਕਲਦਾ	-11.7223
▁ਅਟਲਾਂਟਾ	-11.7225
▁ਯੂਨੀਵਰਸਲ	-11.7226
▁ਇੰਡੀਆਨਾਪੋਲਿਸ	-11.7226
ਿਕੋ	-11.7229
▁ਮਾਈਕ੍ਰੋ	-11.723
▁(26	-11.7231
▁ਲਿਓਨਾਰਡੋ	-11.7231
▁ਵੇਚੀਆਂ	-11.7234
▁ਹਿਊ	-11.7236
▁ਪ੍ਰੋਟੋ	-11.7238
ਸ਼ਾਮ	-11.7238
▁ਪੈਰੋਕਾਰਾਂ	-11.7239
▁ਬੂਟੀ	-11.7239
▁ਚੱਲਦਾ	-11.7239
▁ਕਾਰਡੀਨਲਜ਼	-11.724
▁ਸਪੈਕਟ੍ਰ	-11.724
▁ਰਾਡ	-11.7242
▁ਪੈਦਾਵਾਰ	-11.7242
96	-11.7242
25,000	-11.7243
▁ਸੈਮਨ	-11.7244
▁ਬੰਬਾਰਾਂ	-11.7247
▁ਸਿਨ	-11.7247
▁ਕਰੰਟ	-11.7249
▁ਯੂਨੀਅਨਾਂ	-11.7249
▁ਟੈਟ	-11.7252
▁ਵਾਇਰ	-11.7254
ਸ਼ੂ	-11.7258
ਡੇਲੀ	-11.726
▁ਐਕਸਲ	-11.7261
▁ਰਹਿੰਦੀਆਂ	-11.7262
ਦੇਵ	-11.7262
▁ਰੋਜ਼ੀ	-11.7268
▁ਲਾਈਨਰ	-11.727
▁ਵਿਟ	-11.7271
▁ਰਾਲਫ	-11.7277
▁ਡੇਵਨ	-11.7277
▁ਹੋਸਟ	-11.7279
ਡੈਂਸ	-11.7284
▁ਉਡਾਉਂਦ	-11.7284
ਬਿਨਾਂ	-11.7284
▁ਬੱਗ	-11.729
▁ਧਨ	-11.729
▁ਹੇਲਨ	-11.729
▁ਨਾਟਕਕਾਰ	-11.729
▁ਬਣਦੀ	-11.7292
ਸ਼ੀਆ	-11.7295
▁ਸਿਫਾਰਸ਼ਾਂ	-11.7296
ਕਾਨੂੰਨ	-11.7298
ਵੋਨ	-11.7304
▁ਲਿਆਉਣਾ	-11.7304
▁ਪੰਚ	-11.7308
ਟੋਸ	-11.731
▁vi	-11.7312
ਨਿਰਧਾਰਤ	-11.7313
▁ਅੰਬਰ	-11.7315
1%	-11.7318
▁ਕਾਰਟਰ	-11.732
-29	-11.7321
▁ਬਾਹਰਲੇ	-11.7329
▁(0	-11.7331
ਢੇ	-11.7333
▁ਝਿਜਕ	-11.7335
▁ਪਤੇ	-11.7339
▁ਫਾਸ	-11.7346
▁ਸ਼ੈਲਫ	-11.735
ਫ਼ਰ	-11.7352
▁ਕਾਮੇ	-11.7361
ੌਫ	-11.7364
▁ਵਿਵਸਥ	-11.7366
▁ਸਲੈਵ	-11.7367
▁ਭਟਕਣ	-11.7367
ਲੋਂਗ	-11.7367
▁ਸੁਸਤ	-11.7368
ਗੈ	-11.737
ਲਾਗ	-11.7373
▁ਫੇਲ	-11.7378
▁ਐਂਕਰ	-11.7381
▁ਬੇਘਰ	-11.7382
▁ਅਖੰਡਤਾ	-11.7382
▁ਅਣਗਹਿਲੀ	-11.7382
▁ਆਸ਼ਰਮ	-11.7382
▁ਕਬਾਇਲੀ	-11.7382
▁ਤਾਮਿਲਨਾਡੂ	-11.7382
▁ਧੂਮਕੇਤੂ	-11.7382
▁ਪਿਛੇਤਰ	-11.7382
▁ਬੋਹੀਮੀਆ	-11.7382
▁ਲੈਕਚਰ	-11.7382
▁ਵਿਲਕਿਨਸਨ	-11.7382
▁ਨੁਮਾਇੰਦਾ	-11.7382
▁ਭਾਂਡੇ	-11.7382
▁ਸ਼ਿਲਪਕਾਰੀ	-11.7382
▁ਢਾਹੁਣ	-11.7382
▁ਫੀਨਿਕਸ	-11.7382
▁ਸੱਤਾਧਾਰੀ	-11.7383
▁ਸਪੀਡਵੇਅ	-11.7383
▁ਦੂਰਬੀਨ	-11.7383
▁ਉਪਰਲੀ	-11.7383
▁ਪ੍ਰੇਮਿਕਾ	-11.7383
▁ਪ੍ਰਤੀਕਰਮ	-11.7383
▁ਇੰਦਰੀਆਂ	-11.7383
▁ਬਾਕੂ	-11.7383
▁ਮੇਪਲ	-11.7383
▁ਨਾਪਸੰਦ	-11.7383
ੇਟਾ	-11.7383
▁ਅਮੀਰਾਤ	-11.7384
▁ਮਿਊਂਸਪੈਲਟੀਆਂ	-11.7384
▁ਗਿਬਸਨ	-11.7385
▁ਪ੍ਰੀਮੀਅਰਸ਼ਿਪ	-11.7385
▁ਆਪਟੀਕਲ	-11.7385
▁ਵੇਰੀਏਬਲ	-11.7385
▁ਫੀਸਦੀ	-11.7387
▁ਉਬਾਲੇ	-11.7387
▁ਗ੍ਰੇਨਾਡਾ	-11.7388
▁ਬੁਏਨੋਸ	-11.7388
▁ਅੰਡਕੋਸ਼	-11.7389
▁ਬਾਸਿਸਟ	-11.739
▁ਬੂਥ	-11.739
ਸਿਮ	-11.739
▁ਫਿਰਦੌਸ	-11.739
▁ਸਰ੍ਹੋਂ	-11.739
▁ਚੀਕਦੇ	-11.7391
▁ਰੇਖਾਵਾਂ	-11.7395
▁ਵਿਆਖਿਆਵਾਂ	-11.7395
ਜੁ	-11.7396
ਲੋਟ	-11.7398
▁ਲੈਣਦਾਰ	-11.7398
▁ਹੋਗਲੈਂਡ	-11.7398
▁ਡੇਵਿਡਸਨ	-11.7399
▁ਥੀ	-11.7399
"")।	-11.7402
▁ਲੈਣਗੇ	-11.7406
▁ਕ੍ਰੇ	-11.7406
▁ਰੋਟ	-11.7408
▁ਲਾਇਬ੍ਰੇਰੀਅਨ	-11.7409
▁ਹੱਟ	-11.7411
▁ਬੁਆਏ	-11.7412
▁ਮੰਗਿਆ	-11.7413
▁ਝੂਠੀ	-11.7414
▁ਐਲਡਰ	-11.7414
▁ਕੋਡੀ	-11.7415
▁ਕੋਲੋਨ	-11.7415
▁ਬਾਰ੍ਨਸ	-11.7416
▁ਐਸਟਰ	-11.7418
▁ਬਦਲਦੀ	-11.7421
ਫਰੈੱਡ	-11.7423
▁ਪਲੈਟ	-11.7425
-26	-11.7427
ਕਾਰਾਂ	-11.743
▁ਰੋਚ	-11.7435
▁ਰੂਪਕ	-11.7437
ੂਰੀ	-11.744
▁ਵਰਕਰ	-11.7443
▁ਭਰਮ	-11.7444
▁ਸ਼ੇਰਾਂ	-11.7447
ਸ਼ੀਅਲ	-11.7448
ਲੌ	-11.7449
▁ਬੋਡੋ	-11.7453
▁ਸੈਮੀ	-11.7454
▁ਸ਼ੋ	-11.7454
▁ਮੈਲ	-11.7457
▁ਵਜਾਉਂਦ	-11.7457
▁ਵਿੰਡਰ	-11.7458
▁ਕੈਸੀ	-11.746
500,000	-11.7462
▁ਕੱਢੀ	-11.7465
ਕੰਮ	-11.7465
▁ਮਾਸਿਕ	-11.7468
▁ਇਮਿਊਨ	-11.7472
▁ਕੈਬ	-11.7473
▁ਪਰਚੇ	-11.7475
iv	-11.7477
▁ਨੂ	-11.748
ਕੈਨੇਡੀਅਨ	-11.7483
ਚਿੱਟੇ	-11.7483
ਅਮਰੀਕਾ	-11.7483
ਮਜ਼ਾਕ	-11.7483
▁ਟੋਮ	-11.7486
▁ਪੇਲ	-11.7488
▁160	-11.7489
▁ਆਨਰ	-11.7492
▁ਜਿਓ	-11.7493
▁ਓਜ਼	-11.7494
ਔਰਤਾਂ	-11.7498
▁1)	-11.7499
▁ਸ਼ੈ	-11.7502
ਕੈਮ	-11.7504
▁ਹੁਆ	-11.7507
▁ਨੋਡ	-11.7508
▁ਕੈਨੀ	-11.7509
▁ਵੈਰੀ	-11.7513
ਡੋਰਫ	-11.7515
ਸਿੰਗ	-11.7517
2008	-11.7518
▁ਹੋਪ	-11.7521
ਨਮ	-11.7523
▁ਐਡਰੀਅਨ	-11.7524
ਾਗ	-11.753
ੋਵਿਕ	-11.7532
▁ਡਿਫੈਂਡਰ	-11.7534
ਰਜ	-11.7536
▁ਮਿਲਾਉਣ	-11.7537
▁ਜੈਕੇਟ	-11.7538
▁ਡਨ	-11.754
▁ਚੋ	-11.754
ੋਵਸਕੀ	-11.7541
ਨੋਸ਼ੀ	-11.7545
▁ਯੂਰਪੀ	-11.7545
ਐਨੀ	-11.7552
▁ਅਟਕਲਾਂ	-11.7552
▁ਓਨੋਂਟੀਓ	-11.7552
▁ਚੈਪਮੈਨ	-11.7552
▁ਡਿਪਾਰਟਮੈਂਟ	-11.7552
▁ਬੰਦੋਬਸਤ	-11.7552
oseph	-11.7552
▁ਸਟੂਅਰਟ	-11.7552
▁ਕੰਬੋਡੀਆ	-11.7552
▁ਤੋਰਾਹ	-11.7552
▁ਗੰਢ	-11.7552
▁ਟ੍ਰਾਂਜਿਟ	-11.7552
▁ਸਨੋਸੁਕੇ	-11.7552
▁ਕੈਨਵਸ	-11.7552
▁ਗੋਰਡੀਅਨ	-11.7552
▁ਕਾਰਜਕ੍ਰਮ	-11.7552
▁ਕਿਊਬੇਕ	-11.7553
▁ਕੋਸੋਵੋ	-11.7553
▁ਪਾਈਪਲਾਈਨ	-11.7553
▁ਸਲਮਨ	-11.7553
▁ਗਲੋਵਰ	-11.7553
ਕਟੋਰਲ	-11.7554
▁ਛੂਹਿਆ	-11.7555
▁ਛਾਂ	-11.7555
▁ਰਾਜਪਾਲ	-11.7555
▁ਇਵਾਂਸ	-11.7556
ਪਲਾਈਡ	-11.7556
▁ਪ੍ਰਤੀਕ੍ਰਿਆਵਾਂ	-11.7557
▁ਥੱਪਡ਼	-11.7557
▁ਧੁੱਪ	-11.7558
▁ਅਨੁਮਾਨਾਂ	-11.756
▁ਗਰਲਜ਼	-11.756
▁ਮੰਗਲਵਾਰ	-11.7561
ਯੁ	-11.7564
▁ਮਾਲਟਾ	-11.7564
▁2""	-11.7566
▁ਗੈਂਗ	-11.757
▁ਸਮਰੱਥਾਵਾਂ	-11.7571
▁ਰੇਂਜਰਾਂ	-11.7577
▁ਬਿਟ	-11.7579
▁ਰੂਬੀ	-11.7579
▁ਟਰਬੋ	-11.7581
ਕ੍	-11.7586
▁ਇਰ	-11.7587
▁ਮੈਕਲ	-11.7587
▁ਸਮਰਥਿਤ	-11.7588
▁ਲਿੰਡਾ	-11.7589
ਬੇਸ	-11.7591
ਿਅਸ	-11.7592
▁ਜਾਦੂਗਰ	-11.7595
▁ਮੋਲਸਕ	-11.7596
▁ਖਾਰੇ	-11.7599
▁y	-11.7601
ਤਸੂ	-11.7602
3%	-11.7603
▁ਥਰਨ	-11.7604
▁ਉਤਾਰਨ	-11.7609
▁ਲੇਹ	-11.7624
▁ਖੱਬ	-11.7625
▁ਸਵਰਗੀ	-11.7635
ਜਰਮਨ	-11.7636
ਥਲ	-11.7639
▁ਡੀਲਰ	-11.7639
ਵਿਟ	-11.7639
ਾਈਡ	-11.764
▁ਭਡ਼ਕ	-11.765
ਪੇਸ਼	-11.765
ਨੋਰ	-11.7656
ਟਾਪੂ	-11.7658
▁ਕਾਨ	-11.7658
ਨਾਥ	-11.7659
▁ਪਿਆਰੀ	-11.7661
▁105	-11.7661
▁ਫਲੈਸ਼	-11.7663
ਲਿਖਤਾਂ	-11.7664
ੇਹ	-11.7664
ਮਨੁੱਖੀ	-11.7668
ਕੁੱਝ	-11.7671
▁ਟ੍ਰੈਵਲ	-11.7688
▁ਗੈਲੀ	-11.7692
▁ਹਿੱਟਾਂ	-11.7692
▁ਕੀਵ	-11.7696
▁ਮਿਲਣਾ	-11.7699
▁ਜ਼ੇਨ	-11.77
at	-11.77
▁ਘੁੰਮਦ	-11.7706
▁ਸ਼ਾਰਕ	-11.7707
▁ਹੈਨਸ	-11.7709
▁ਓਟ	-11.7713
ਰੂਮ	-11.7716
▁ਦੇਣਦਾਰੀ	-11.7718
ਰਾਕ	-11.7719
▁ਰਾਇ	-11.7724
▁ਭਿਕਸ਼ੂ	-11.7724
▁ਫਰਗੂਸਨ	-11.7724
▁ਰੁਚੀਆਂ	-11.7724
▁ਲੰਬਿਤ	-11.7724
▁ਵੋਇਵੋਡੋਸਪਿਸ਼	-11.7724
▁ਫ੍ਰੀਡਰਿਚ	-11.7724
▁ਸ਼ਿਪਯਾਰਡ	-11.7724
▁ਸਟ੍ਰਾਬੇਰੀ	-11.7724
▁ਹੈਕਟੇਅਰ	-11.7724
▁ਸਕੱਤਰੇਤ	-11.7724
▁ਫ੍ਰੈਂਕਫਰਟ	-11.7724
▁(21	-11.7724
▁ਪੈਸਿਵ	-11.7724
▁ਪਰੇਸ਼ਾਨ	-11.7725
▁ਗੁੰਝਲਤਾ	-11.7725
▁been	-11.7725
he	-11.7725
▁ਰਸਾਲਾ	-11.7725
▁ਮੋਟਾ	-11.7725
▁ਅਕਬਰ	-11.7725
▁ਡੈਲਟਾ	-11.7725
▁ਅਲਪਾਈਨ	-11.7725
▁ਵੇਖਦਿਆਂ	-11.7725
▁ਵਿੱਕੀ	-11.7725
▁ਸਤਿਕਾਰਯੋਗ	-11.7725
▁ਡੈਨਿਸ਼	-11.7726
▁ਸਟ੍ਰੈਚਰ	-11.7726
▁ਏਕਾਧਿਕਾਰ	-11.7727
▁ਸਾਪੇਖਿ	-11.7727
▁ਜਣ	-11.7728
▁ਆਯਾਤ	-11.7728
▁ਸੈਕਟਰ	-11.7729
▁ਆਬਜੈਕਟ	-11.773
▁ਮਿਲਵਾਊਕੀ	-11.773
▁2015-16	-11.773
▁ਰੋਵਰਜ਼	-11.773
▁ਬਾਲਕਨ	-11.7731
▁ਵੈਲਸ਼	-11.7731
▁ਅਲਬਰਟਾ	-11.7733
▁ਇਨਰਸ਼ੀ	-11.7733
▁ਉਪਦੇਸ਼ਕ	-11.7734
▁ਡੇਵੀਜ਼	-11.7734
▁ਸੌਕਸ	-11.7737
▁ਲੌਰਾ	-11.7738
▁ਫਿਸ਼ਰ	-11.7738
▁ਸੰਮੇਲਨਾਂ	-11.7739
▁ਅਨੁਕੂਲਣ	-11.7739
▁ਪੀਟਰਸਨ	-11.774
▁ਹੈਰਲਡ	-11.774
▁ਬੁਰਾਈਆਂ	-11.7741
▁ਕੱਢਦਾ	-11.7742
▁ਯੁਆਨ	-11.7744
▁ਸੰਗਮ	-11.7748
▁ਟ੍ਰ	-11.7751
▁ਫਿਲਟਰ	-11.7751
ਤਾਵਾਂ	-11.7752
ੰਡੇ	-11.7752
ਛ	-11.7753
▁ਫਾਇਲ	-11.7755
▁ਅਵ	-11.7755
▁ਰੇਖਿਕ	-11.7757
▁ਬੋਲਟ	-11.7758
▁ਔਡ	-11.7761
▁ਬਰੂ	-11.7764
▁ਵਰਕਸ਼ਾਪਾਂ	-11.7766
ੂਆ	-11.7771
ਬਿੰਗ	-11.7771
▁ਸੋਚਣਾ	-11.7771
se	-11.7779
ਸਿਆ	-11.778
ਰੈਂਡਵਿਕ	-11.7787
ਮਿਕਸ	-11.779
▁ਟੌ	-11.7791
ੀਆਨਾ	-11.7791
ਵੋਲ	-11.7792
▁ਆਫ਼ਤਾਂ	-11.7804
▁ਲੌਰੀ	-11.7809
▁ਵੀਟੋ	-11.781
▁ਰੈਕ	-11.7818
▁ਓਲੇ	-11.7822
ਸ਼ਮ	-11.7826
▁ਲਈਆਂ	-11.7827
8)	-11.7827
▁ਸੰਸਕ੍ਰਿਤ	-11.7829
ਸਟਿਕ	-11.7829
ਕੰਟਰੀ	-11.783
ਡਿਵੀਜ਼ਨ	-11.7831
ਅਕਸਰ	-11.7831
▁ਪਹੁੰਚਦੀ	-11.7833
ਸਥਾਨਕ	-11.7833
▁ਅਨੁਭਵੀ	-11.7833
▁ਸਫ਼ਾ	-11.7833
▁me	-11.7834
▁ਐਲਮ	-11.7835
▁ਗੁਆਮ	-11.7843
▁ਪੇਸ਼ਕਸ਼ਾਂ	-11.7857
ch	-11.786
ਕਿਸ	-11.7866
ਪੇਲ	-11.787
▁ਲਿਪ	-11.7873
ਡੇਟ	-11.7874
ਜਾਣ	-11.7875
▁ਅਯੋਗਤਾ	-11.7878
▁ਖਿੱਚੇ	-11.7881
ਫੇਲਡ	-11.7881
▁ਯੂਟਾ	-11.7883
▁ਬੁੱਧ	-11.7885
▁ਰੁਕਣ	-11.7886
▁ਪ੍ਰੈ	-11.7888
▁ਮੈਥਯੂ	-11.7891
▁ਕਿਰਕ	-11.7892
▁ਬ੍ਰੌਨ	-11.7896
▁(23	-11.7896
▁ਡੋਰੋਥੀ	-11.7898
▁ਡਿਫੈਂਸ	-11.7898
▁ਆਰਡੀਨੈਂਸ	-11.79
▁ਆਲ੍ਹਣਾ	-11.79
▁ਪੋਰਟਫੋਲੀਓ	-11.79
▁ਯੂਗਾਂਡਾ	-11.79
▁ਟੇਸਲਾ	-11.79
ਮਸ਼ਵਰਾ	-11.79
▁ਰੀਜੈਂਟ	-11.79
▁ਰਿਮੋਟ	-11.79
▁ਐਨਾਲਾਗ	-11.79
▁ਅਲੇਪੋ	-11.79
▁ਦਿਖਾ	-11.79
▁ਟਾਊਨਸੈਂਡ	-11.79
▁ਕਲਿਫੋਰਡ	-11.79
▁ਬਾਈਪਾਸ	-11.79
▁ਵਸੂਲੀ	-11.7901
▁ਬੇਲੋਡ਼ੀ	-11.7901
ਡੋਮ	-11.7902
▁ਸਵਾਨਾ	-11.7902
ਵੀਅਰ	-11.7902
▁ਦਰਅਸਲ	-11.7902
▁ਡੈਂਟਲ	-11.7903
▁ਗੁਫਾਵਾਂ	-11.7904
▁1790	-11.7905
▁ਇੰਕੋਡਿੰਗ	-11.7905
▁ਲੈਨਿਨ	-11.7905
▁ਯੂਗੋਸ੍ਲੇਵੀਆ	-11.7907
▁ਰੋਕਦੀ	-11.7907
▁ਬ੍ਰਾਇਟਨ	-11.7907
ਵਰਟ	-11.7907
▁ਸਵੀਕਾਰਯੋਗ	-11.7908
▁ਬੈਠਦਾ	-11.7908
▁ਮਰੀਨ	-11.7909
▁ਸਮਝਦਾਰੀ	-11.791
▁ਹੇਡਨ	-11.7913
▁ਟੀਨ	-11.7915
▁ਡੈੱਡ	-11.7918
▁ਕਾਊਂਟਰ	-11.7924
▁ਲੋਅਰ	-11.7925
▁ਅਮਰ	-11.7925
ਕਾਸ	-11.7928
▁ਹਮ	-11.7929
')	-11.7929
▁ਗੈਰਹਾਜ਼ਰੀ	-11.793
▁ਵਾਇਰਲ	-11.793
▁ਕੁਰੂਕ	-11.7933
ਲੀਅਰ	-11.7935
▁'(	-11.7935
ਕੈਲ	-11.7936
▁ਡੂੰਘੀਆਂ	-11.7939
ਕੋਵਾ	-11.7941
▁ਖੁਸ਼ਹਾਲੀ	-11.7942
▁ਜੇਫ	-11.7946
ਕੈਨ	-11.7947
ਾਸ਼ੀ	-11.7948
▁ਪ੍ਰਕਾਸ਼ਕਾਂ	-11.795
▁ਨਾਇਕਾਂ	-11.7953
ਟਾਈਮਜ਼	-11.7954
▁ਸਟ੍ਰ	-11.7958
▁ਚਾਪ	-11.7963
▁ਮਾਲੀ	-11.7965
▁ਬਸ਼ਰਤੇ	-11.7975
ਮਜ਼	-11.798
▁ਡੈਰੀ	-11.798
ਕਰੀ	-11.7986
ਵਜ਼	-11.7988
▁ਸੈਂਟੋ	-11.799
▁ਬਰਗਰ	-11.7993
ਸਟੇਟ	-11.7994
ਟੀਨਾ	-11.7999
ੂਕ	-11.7999
▁ਮੁਕੱਦਮੇਬਾਜ਼	-11.7999
ਨਾਹ	-11.8002
▁ਗ੍ਰਿ	-11.8005
ਵਿਸ਼ਵ	-11.8007
▁ਫਾਸ਼ੀਵਾਦੀ	-11.8008
ਪ੍ਰਤੀ	-11.8009
ਇਕੱਠੇ	-11.8009
ਸਿਸਟਮ	-11.801
ਕੋਨੋਰ	-11.8011
▁ਡਾਰ	-11.8012
ਕੁਦਰਤੀ	-11.8014
ਫ੍ਰੈਂਚ	-11.8014
ਨਟ	-11.8021
ਮੂਰ	-11.8021
▁ਬਚਣਾ	-11.8023
▁ਨਾਟੋ	-11.8027
▁1,0	-11.8028
▁ਅਪਰੇਸ਼ਨਾਂ	-11.8032
▁ਵਿਕਟ	-11.8033
ਗਿਲ	-11.8044
▁ਬਾਂਦਰ	-11.8057
▁ਮੱਛਰ	-11.8058
ਇੰ	-11.8062
▁ਘਬਰਾ	-11.8063
ਅਤ	-11.8063
▁ਪਾਬੰਦ	-11.8063
▁ਸੈਪ	-11.8063
▁ਢੋ	-11.8068
▁ਤੰਬੂ	-11.807
▁ਲਿਸਟ	-11.8072
▁(24	-11.8074
▁ਝੌਂਪਡ਼ੀ	-11.8076
▁ਪਰੀ	-11.8077
▁ਖਾਤਮੇ	-11.8078
▁ਚਸ਼ਮਿਆਂ	-11.8078
▁ਗਰੈਵਿਟੀ	-11.8078
▁ਕੈਟਾਪਲਟ	-11.8078
▁ਨਹਾਉਣ	-11.8078
ਿਪ੍ਰੈਜ਼ੈਂਟੇਟਿਵਜ਼	-11.8078
▁ਕੰਜ਼ਰਵੇਟਰੀ	-11.8078
▁ਮਾਨੀਟਰ	-11.8078
▁ਕਾਟੇਜ	-11.8078
▁ਢਾਕਾ	-11.8078
▁ਪ੍ਰਕੋਪ	-11.8079
▁ਕੈਟਰੀਨਾ	-11.8079
▁ਖਡ਼ੇ	-11.8079
▁ਫੇਰ	-11.8079
▁ਖਿਸਕ	-11.8079
▁ਬੈਕਅੱਪ	-11.8079
▁ਮਾਡ਼ਾ	-11.8079
▁here	-11.8079
▁ਚੁਣੌਤੀਪੂਰਨ	-11.808
▁ਫਾਰਮੈਟਾਂ	-11.8081
▁ਸ਼ੀਤ	-11.8082
▁ਨਿਕਸਨ	-11.8082
▁2014-15	-11.8083
▁ਨਬੀ	-11.8084
▁1838	-11.8084
▁ਇੰਸਟੀਟਿਊਟ	-11.8085
▁ਖਜ਼ਾਨਚੀ	-11.8085
▁ਇਕਾਂਤ	-11.8085
▁ਬੇਲਫਾਸਟ	-11.8085
▁ਸਟਾਲ	-11.8087
ਮਿਡ	-11.8089
▁ਜਿੱਲ	-11.8089
▁ਯਿੰਗ	-11.809
▁ਲਰਨਿੰਗ	-11.809
▁ਬਾਇਰਨ	-11.8091
▁ਲੀਨੀਅਰ	-11.8092
ਗਿ	-11.8092
▁ਵਿਜੈ	-11.8094
ੇਟੋ	-11.8094
▁ਲਿਬਰਟੀ	-11.8094
▁ਕੈਥੀ	-11.8095
▁ਰੂਕੀ	-11.8095
▁ਗੂ	-11.8096
▁ਲੈਂਜ਼	-11.8096
▁ਡਰਾਮੇ	-11.8097
ਲੁਕ	-11.81
ੂਮ	-11.81
▁ਇੰਨੂ	-11.8105
▁ਮੈਕਾਰਟੀ	-11.8105
▁ਨਾਵਿਕ	-11.8107
▁ਸਾਈਬਰ	-11.8109
▁ਡੈਲੀਗੇਟਾਂ	-11.8111
▁ਰੋਕਦੇ	-11.8111
▁ਜ਼ਖ਼ਮਾਂ	-11.8112
▁1812	-11.8115
ਹਿਰ	-11.8118
▁ਰੈਟਨ	-11.8121
▁ਤਰ	-11.8121
▁ਕਲੋਨ	-11.8121
▁ਬਿਤਾਉਂਦ	-11.8121
▁ਕ੍ਰਿ	-11.8121
ਕੋਮ	-11.8121
▁ਮੂਰਖਤਾ	-11.8123
▁ਜੈਫ	-11.8126
▁161	-11.813
ਜ਼ੁ	-11.8131
▁ਨਜ਼ਰਾਂ	-11.8132
▁ਮੂ	-11.8134
▁ਸਮਝਣਾ	-11.814
▁ਕਮਲ	-11.8144
▁ਵਾਪਰਦੀ	-11.8146
ੇਲੋ	-11.8147
▁ਸ਼ੌਕ	-11.815
ਗ੍ਰੇ	-11.8151
▁ਓਨੀ	-11.8153
ਤਨ	-11.8154
▁ਸ਼ਾਫਟ	-11.8155
▁8-	-11.8155
▁ਉੱਡਣ	-11.8155
ਗਜ਼	-11.8158
▁ਕਲਿ	-11.816
▁ਵਿਕਾਸਵਾਦੀ	-11.8162
ੰਡੀ	-11.8162
▁ਸਲੇਟ	-11.8164
ੰਬਾ	-11.8169
500	-11.8172
▁ਵਿਸ਼ਲੇਸ਼ਣਕਾਰ	-11.8173
ਰਿਫ	-11.8175
▁ਕਾਰਲੋ	-11.8176
▁ਸੁਸਾਇਟੀਆਂ	-11.8181
▁ਰਿਗ	-11.8182
100	-11.8186
ੂਲਰ	-11.8187
ਤਿਹਾਈ	-11.8191
ੈਸਲ	-11.8191
ਲਿਖੇ	-11.8191
ਸਿੱਖਿਆ	-11.8191
▁ਹੈਨਸਨ	-11.8196
▁ਲਿੰਗੀ	-11.8196
ਰਾਹ	-11.8197
▁ਮਾਈਨ	-11.8201
▁ਠੰਡ	-11.8205
▁ਕੋਇਲ	-11.8211
ਮੀਟਰ	-11.8212
▁ਨਿਊਰੋਨ	-11.8216
ਾਜ	-11.8218
ਸਟੇਡ	-11.8219
ਕੰਪਨੀ	-11.8219
▁ਇਲੈਕਟ੍ਰੋ	-11.8221
▁ਚਾਨ	-11.8223
ਨੈੱਟ	-11.8223
▁ਖੋਰ	-11.8226
▁ਹੀਥਰ	-11.8227
▁ਮੁਲ	-11.823
▁ਕ੍ਰਿਪਟ	-11.8231
ਾਉਣ	-11.824
▁ਦਬਦਬ	-11.8244
ਟਿ	-11.8245
▁ਨਿਕਲਣ	-11.8246
▁ਵਾਸ	-11.8248
ਲੇਮ	-11.8252
0%	-11.8254
▁ਨੇਮ	-11.8256
▁ਜਾਗਦ	-11.8258
▁ਸਕੁਏਅਰ	-11.826
▁ਕੈਲੂਮੇਟ	-11.826
▁ਕੰਢਿਆਂ	-11.826
▁ਡਿਫਾਲਟ	-11.826
▁ਡਿਵੈਲਪਮੈਂਟ	-11.826
▁ਤਸਦੀਕ	-11.826
▁ਪ੍ਰਵਿਰਤੀ	-11.826
▁ਬਾਰਥੋਲੋਮਿਊ	-11.826
▁ਭਾਈਚਾਰਕ	-11.826
▁ਰੋਟਰਡੈਮ	-11.826
▁ਛੋਹ	-11.826
▁ਕਰਿਆਨੇ	-11.826
▁ਆਊਟਲੈੱਟ	-11.826
▁ਹੀਥ	-11.826
▁ਦੁਰਹਮ	-11.826
▁ਅਲਮੀਨੀਅਮ	-11.826
▁ਘਾਨਾ	-11.826
▁ਮੋਢੇ	-11.8261
▁ਫਰੈਂਕਲੀਨ	-11.8261
▁ਪਹਿਨਾਇਆ	-11.8261
▁ਰਿਸਚ	-11.8261
ਚੇਤਨਾ	-11.8261
▁ਸਪਾਂਸਰਸ਼ਿਪ	-11.8261
▁ਗੋਲਕੀਪਰ	-11.8261
▁ਲਿੰਗਕਤਾ	-11.8262
▁ਫਿਜੀ	-11.8263
▁ਜੌਕੀ	-11.8263
▁ਪ੍ਰਦਾਤਾਵਾਂ	-11.8263
▁ਓਲਸਨ	-11.8263
▁ਕਹੋ	-11.8263
▁1839	-11.8264
▁1789	-11.8264
▁ਦਰਾਰ	-11.8264
▁ਪ੍ਰਯੋਗਸ਼ਾਲਾਵਾਂ	-11.8266
▁ਬਾਰਸੇਲੋਨਾ	-11.8266
▁ਐਡਵਾਂਸ	-11.8266
▁ਪਰਉਪਕਾਰੀ	-11.8267
▁ਡੱਬਾ	-11.8267
▁ਸਪ੍ਰਿੰਗਜ਼	-11.8267
▁ਫਲੋਟ	-11.8268
▁ਆਰੰਭਿਕ	-11.8268
▁ਸਿਸਿਲੀ	-11.8269
▁ਐਪਸ	-11.827
▁ਰਬਡ਼	-11.8271
▁ਸੀਅਰਾ	-11.8271
▁ਬਾਂਸ	-11.8273
▁30,000	-11.8276
ut	-11.8278
ਟੋਰ	-11.828
▁ਸਾਈਕਲਿੰਗ	-11.828
▁1500	-11.8281
▁ਲੀਚ	-11.8282
▁350	-11.8283
▁ਅੱਠਵਾਂ	-11.8285
▁115	-11.8285
▁ਬਰਤਨਾਂ	-11.8287
ਸਿਆਹੀ	-11.8289
ਕੇਲ	-11.8293
▁ਫੈਕਟਰੀਆਂ	-11.8296
ਪੋਸਟ	-11.83
▁ਹੋਸਟਲ	-11.8301
▁$3	-11.8303
▁ਨਿਊਰੋ	-11.8306
▁140	-11.8309
ਕੈਂਪ	-11.8313
ਸਿਡ	-11.8314
▁ਮੋਰਿਸ	-11.8314
▁now	-11.8317
▁ਉੱਪਰਲੀ	-11.8317
▁ਸਲਾਈਡ	-11.832
ੁੱਟ	-11.8321
ਬੇਕ	-11.8321
▁ਲਾਰ	-11.8322
ੰਨਾ	-11.8322
▁ਹੌਗ	-11.8323
▁ਅਲਾਨ	-11.8328
▁ਸਿਮੋਨ	-11.8329
▁ਏਅਰੋ	-11.8338
ਹਾਰਾ	-11.834
▁ਸੰਦੇਸ਼ਾਂ	-11.8342
▁ਸ਼ਿਆ	-11.8344
▁ਐਲੇਨ	-11.8352
ਰੋਟੀ	-11.8355
▁ਲੀਵਰ	-11.8355
▁ਬਿਰਤਾਂਤਾਂ	-11.8359
ੈਕਟ	-11.8364
▁ਬੁਰੋ	-11.8364
▁ਡਿਕਸ	-11.8369
▁ਗਿਆਃ	-11.837
▁ਸਕੋਰਰ	-11.8373
ਸੰਪੂਰਨ	-11.8374
ਬ੍ਰਾਇਨ	-11.8376
ਪਿਛੋਕਡ਼	-11.8376
ਵਿਆਹ	-11.8376
=	-11.8376
ਖੋਜ	-11.8377
82	-11.838
ਗੈਲ	-11.8382
▁ਆਰਕੀਟੈਕਟਾਂ	-11.8384
▁ਹੁਣੇ	-11.8387
ਐਫ	-11.8388
▁ਰੌਬ	-11.8389
▁ਜਾਪਾਨ	-11.839
▁ਮੋਹ	-11.8395
▁ਮਨਾਉਂਦ	-11.8397
▁ਕਾਕ	-11.8403
▁ਮੁੰ	-11.8405
▁ਫਲਾਂ	-11.8408
▁ਫਰਨ	-11.841
▁ਰੋਸਾ	-11.8411
700	-11.8411
▁ਨਾਸਰ	-11.8413
ਾਦ	-11.8413
ਂਡਾ	-11.8414
▁ਇਟ	-11.8415
5%	-11.8424
▁ਨਜਿੱਠਦ	-11.8427
▁ਉੱਕਰ	-11.8429
▁ਅਠਾਰ	-11.8431
ਾਈੰਗ	-11.8431
ਬਿਟ	-11.8434
▁ਸ਼ੌ	-11.8444
▁ਵਿਤਕਰਾ	-11.8445
▁ਸੁਲੇਮਾਨ	-11.8445
▁ਹਾਦਸਾ	-11.8445
▁$4	-11.8445
▁ਜੇਫਰਸਨ	-11.8445
▁ਕਾਂਸਟੇਬਲ	-11.8445
▁ਇੰਟਰਚੇਂਜ	-11.8445
▁ਇੰਟਰਐਕਟਿਵ	-11.8445
▁ਵਰਤਾਰੇ	-11.8445
▁ਤੰਤੂ	-11.8445
▁ਮਨੁਏਲ	-11.8445
▁ਹੌਂਡਾ	-11.8445
ਐਨੋਫਿਲੀਜ਼	-11.8446
▁ਸਈਦ	-11.8446
▁ਪੱਤਾ	-11.8446
▁ਫਰੈਂਜ਼	-11.8446
▁ਟੋਯੋਟਾ	-11.8446
▁ਟਰਾਇਲ	-11.8446
▁ਨਿੰਦਿਆ	-11.8446
▁ਚਾਚਾ	-11.8446
▁ਮੈਕਮੈਨਸ	-11.8446
▁ਮੈਕੇਰਲ	-11.8446
ਕਾਸਟ	-11.8446
▁ਵੀਰਵਾਰ	-11.8446
▁ਬਾਇਲਰ	-11.8446
▁ਮਹੀਨਾਵਾਰ	-11.8447
▁ਬੇਸਮੈਂਟ	-11.8447
▁ਖੱਬੇਪੱਖੀ	-11.8447
▁ਉਂਗਲੀ	-11.8449
▁ਨੁਕਤੇ	-11.8449
▁ਮਹਿੰਗਾਈ	-11.845
▁ਅੱਸੀ	-11.845
▁ਅਲਟਰਾ	-11.845
▁ਖੁੱਲ੍ਹਿਆ	-11.8451
▁ਬਰਮਨ	-11.8452
▁ਚਾਲਾਕ	-11.8452
▁ਫ਼ਲਸਫ਼ਾ	-11.8453
▁ਅਜਨਬੀ	-11.8453
ਪੂਰੀ	-11.8454
▁ਬੋਲਦੀ	-11.8454
ਓਕ	-11.8454
ਥੀਮ	-11.8454
▁ਆਤਮਵਿਸ਼ਵਾਸ	-11.8454
▁ਅਸ਼ਾਂਤੀ	-11.8455
▁ਢਕ	-11.8455
▁them	-11.8456
▁ਏਥਲ	-11.8456
▁ਡੇਵੀ	-11.8456
ੈਟ	-11.8457
▁ਗਾਏ	-11.8458
▁ਬੀਜਾਂ	-11.8458
▁ਲਾਈਨਅਪ	-11.8459
▁ਜਾਗਣ	-11.8465
▁ਨਿਵੇਸ਼ਕਾਂ	-11.8465
▁ਲਿਮਾ	-11.8466
ਪੈਰ	-11.8467
▁ਬਾਹਰੋਂ	-11.8467
▁1400	-11.8469
▁ਸਕੀਅਰ	-11.847
ਪੀਆ	-11.8475
▁ਫਿਸ਼	-11.8476
▁ਟਾਇਰ	-11.8479
▁ਐਂਟਨ	-11.8481
▁ਗੇਅ	-11.8483
▁ਰਿਕੋ	-11.8485
▁ਸਿਪਾਹੀਆਂ	-11.8486
▁ਕਪਤਾਨਾਂ	-11.8486
▁ਬਿੱਲੀਆਂ	-11.8488
▁ਘਾਤ	-11.8489
ਹੌਪ	-11.849
ਲਾਹ	-11.8492
ੰਨ	-11.8493
▁ਵਾਲਵ	-11.8498
▁ਹੇਜ਼	-11.8498
▁ਕ੍ਰਾ	-11.85
ad	-11.8506
ਸਬ	-11.8508
ਿਥ	-11.851
ੋਗ	-11.8513
▁ਲਿੰਡਨ	-11.8513
▁ਹੈਂ	-11.8516
▁ਲੰਘੇ	-11.8517
▁ਬਾਜ਼ਾਂ	-11.8517
▁ਪਿਨ	-11.8521
▁ਪੂਰੀਆਂ	-11.8521
▁ਕਿਸ਼ੋਰਾਂ	-11.8522
▁ਸੈਕਸਨ	-11.8525
ੇਵ	-11.8527
▁ਦੁ	-11.8531
ਬਲੂ	-11.8538
ਐਚਐਮਐਸ	-11.8542
▁ਗੁਲ	-11.8542
ਗਨਾ	-11.8546
▁ਸੈਂਡ	-11.8547
ਟ੍ਰੌਨ	-11.8548
ਮਨੁੱਖ	-11.855
▁xi	-11.855
▁ਕਲੀ	-11.855
▁ਲਿਮ	-11.8554
▁ਕਵਾ	-11.8556
।..""	-11.8558
ਚਿੰਗ	-11.8562
ਸ਼ੀਅਨ	-11.8562
ਬ੍ਰਾਂਡ	-11.8565
ਡਾਕਟਰ	-11.8566
ੌਟ	-11.8567
▁ਸੌਂਪੇ	-11.8571
ਰੂਸੀ	-11.8572
▁ਵਿਲੀਸ	-11.8572
ੋਰੀ	-11.8572
ਾਜ਼	-11.8574
ਕੋਆ	-11.8574
ਓਲ	-11.8575
ੰਬਰ	-11.8584
▁ਉਲ	-11.8586
ਮੀਰ	-11.8587
▁ਪੋਸਟਰ	-11.859
▁ਸਦਾ	-11.8595
ਾਉਂਦੇ	-11.8596
▁ਮਨਾ	-11.8596
▁ਚਮਕਦੀ	-11.8598
ਲੋਡ	-11.86
▁ਫੀਡ	-11.8601
ਮੋਲ	-11.8601
▁ਆਪਸ	-11.8604
ਮੇਅਰ	-11.8607
ਪਾਰਟੀ	-11.861
▁ਕਾਸ	-11.8616
▁ਇੰਟੈਲ	-11.8617
▁ਉਡਾਉਣ	-11.8617
ਪੀਅਰ	-11.8618
▁ਦਮ	-11.8619
▁ਲੇਵ	-11.8627
▁ਜੋਨਜ਼	-11.8627
ੈਪ	-11.8628
ਸਲਾਵ	-11.8631
▁ਅਗੁਲਹਾਸ	-11.8634
▁ਕੁਵੈਤ	-11.8634
▁ਤਬਾਦਲਾ	-11.8634
▁ਪੇਚੀਦਗੀਆਂ	-11.8634
▁ਫਰਿੱਜ	-11.8634
▁ਬਤਖ	-11.8634
▁ਮੋਂਟੇਨੇਗਰੋ	-11.8634
▁ਵਾਢੀ	-11.8634
▁ਵਿਸਕਾਉਂਟ	-11.8634
▁ਐਡਜਸਟ	-11.8634
▁ਕਾਰ੍ਲ	-11.8634
ਮਸ਼ਵਰੇ	-11.8634
▁ਅਲਜਬਰਾ	-11.8634
▁ਬੁਝਾਉਣ	-11.8634
▁ਰੁਮਾਲ	-11.8634
▁ਬਰਫਬਾਰੀ	-11.8634
▁ਬਰਕਸ਼ਾਇਰ	-11.8634
▁were	-11.8634
▁ਕੈਟਾਲਾਗ	-11.8634
▁ਡੋਮੀਨੀਅਨ	-11.8634
ion	-11.8634
▁ਕੈਸਿਨੋ	-11.8635
▁ਐਂਗਲੀਆ	-11.8635
▁their	-11.8635
▁ਐਸਟੋਨੀਆ	-11.8635
▁ਬੈੱਲ	-11.8635
▁ਕੈਡਿਟ	-11.8635
▁ਲਾਈਟਹਾਊਸ	-11.8635
▁ਵਾਪਰਦਾ	-11.8636
▁ਲੀਬੀਆ	-11.8636
▁ਟ੍ਰਿਮ	-11.8637
40,000	-11.8638
▁ਤਹਿਸੀਲ	-11.8639
▁ਬਰੁਕਲਿਨ	-11.8639
▁ਲੈਂਡਫਿਲ	-11.8639
▁ਐਡਵੈਂਚਰ	-11.864
▁1845	-11.864
▁ਬੋਰਿਸ	-11.8641
▁ਰੱਖੇਗਾ	-11.8641
▁ਬੁੱਢੀ	-11.8641
▁ਇਲੈਕਟ੍ਰੌਨ	-11.8646
▁ਪੁੱਛੇ	-11.8646
ਮੋਰੀ	-11.8649
▁ਪੈਕਿੰਗ	-11.8649
▁1846	-11.8652
▁ਏਜ	-11.8652
ਕੌ	-11.8653
▁ਵਿਦਿਅਕ	-11.8655
▁ਸਕ੍ਰੀਨਿੰਗ	-11.8655
ਤਰੰਗੀ	-11.8656
▁ਪਹੁੰਚਣਾ	-11.8657
▁ਪਿਸ਼ਾ	-11.8658
▁ਟਿਊਬਾਂ	-11.8658
▁ਵਿਨਾਇਲ	-11.8662
▁ਐਲਬਾ	-11.8662
▁ਸਪੈਲ	-11.8673
▁ਨਿਆ	-11.8675
▁ਦਾਅ	-11.868
▁ਕ੍	-11.8687
ਿਫ	-11.869
ਨਨ	-11.869
ੀਯ	-11.869
▁ਮੋਟੀ	-11.8693
▁ਵਧੋ	-11.8702
▁ਚੇਜ਼	-11.8702
ਿੰਗਜ਼	-11.8707
ਸਿੰ	-11.8713
ੋਰਾ	-11.8714
▁ਅਮਾ	-11.8714
it	-11.8716
▁ਅਫ਼	-11.8717
▁ਨਾਰ	-11.8723
▁ਤ੍ਰਿ	-11.8724
▁3:	-11.8724
▁ਬੈਜ	-11.8725
▁ਅੰਡਰਲ	-11.8725
▁ਸੁਆਦੀ	-11.8726
▁ਵਧਾਉਂਦੀ	-11.8726
▁ਹਸਪਤਾਲਾਂ	-11.8728
▁ਸੂਰਾਂ	-11.8733
ਮੀਨ	-11.8735
ਡੇਰ	-11.8738
▁ਲੀਨਾ	-11.874
▁ਟੈਂਪਲ	-11.8742
ਬਾਦ	-11.8745
▁ਅਕ	-11.8747
▁ਵਾਰਡਾਂ	-11.875
ਭੌਤਿਕ	-11.8757
ਸਕ੍ਰੀਨ	-11.8757
▁ਨਿਨ	-11.8761
▁ਪਿਘਲ	-11.8764
▁360	-11.8767
ਧਾ	-11.8769
ਸ਼ੇ	-11.877
▁ta	-11.8777
▁ਵੈਬ	-11.8782
ਕੁਆ	-11.8785
▁ਕੋਬ	-11.8786
▁ਜੈਨ	-11.8786
▁ਲਟਕ	-11.8786
ਨੀਅਰ	-11.8788
ਟੋਕ	-11.8788
ਅਸਤ	-11.8793
▁ਬੋਨਾ	-11.8798
ਵੇਅਰ	-11.8802
▁ਤੇਰੇ	-11.8802
ਸਪੋਰ	-11.8805
▁ਸੈਕਸ	-11.8806
▁ਰਕਮਾਂ	-11.8817
▁ਤੈਰਾਕ	-11.8818
▁ਖਾਂਦੀ	-11.8818
▁ਫਾਸਟ	-11.8819
▁ਚੌਕਸ	-11.882
▁ਮੁਨ	-11.8821
▁ਕਾਰਲਿਸਟ	-11.8823
▁before	-11.8826
▁people	-11.8826
▁shall	-11.8826
▁ਅਲੌਕਿਕ	-11.8826
▁ਐਜੂਕੇਸ਼ਨ	-11.8826
▁ਕਨਵੈਨਸ਼ਨ	-11.8826
▁ਗੋਲਿਸਫਾਇਰ	-11.8826
▁ਜਮੈਕਾ	-11.8826
▁ਜੀਵਾਸ਼ਮ	-11.8826
▁ਨਿਸ਼ਚਤ	-11.8826
▁ਬੈਲੀਗਨਰ	-11.8826
▁ਸਿਮੂਲੇਸ਼ਨ	-11.8826
▁when	-11.8826
▁ਤਰਖਾਣ	-11.8826
▁ਹਿਸਾਬ	-11.8826
▁ਥੇਮਸ	-11.8826
▁ਡਿਸਕੋਗ੍ਰਾਫੀ	-11.8826
ਕੋਰਡੋਬਾ	-11.8826
▁ਜਸਟਿਨ	-11.8826
▁ਭਡ਼ਕਾਇਆ	-11.8827
▁ਟਿਊਮਰ	-11.8827
▁ਰਨਵੇਅ	-11.8827
▁ਮੁਨਸਟਰ	-11.8827
▁ਸਪੈਕਟਰ	-11.8827
▁ਸ੍ਰੀ	-11.8828
▁ਐਗ	-11.8828
▁ਟ੍ਰਿਪ	-11.8828
▁ਸ਼ਟਲ	-11.8828
▁ਪ੍ਰੀਸਟਨ	-11.8829
ੇਸਨ	-11.8829
▁ਹਰਕਤਾਂ	-11.8831
▁ਟਰਕੀ	-11.8831
▁ਹੇਲੇਨਾ	-11.8832
▁ਰੋਮੀਓ	-11.8832
▁ਅਰਥਸ਼ਾਸਤਰੀ	-11.8833
▁ਵੈਂਡ	-11.8835
▁ਸ਼ੀ	-11.8836
▁1857	-11.8837
▁ਅਦਿੱਖ	-11.8837
▁ਨੌਵੀਂ	-11.8837
▁ਹੋਲਡਿੰਗਜ਼	-11.8838
▁ਗਵਰਨਰੇਟ	-11.8838
▁ਸਟੀਰੀਓ	-11.8839
▁108	-11.8839
▁1836	-11.8839
▁ਭਰਪੂਰਤਾ	-11.8839
▁1808	-11.8841
▁ਕੰਟਰੋਲਰ	-11.8842
▁ਫਲੀਟ	-11.8842
▁ਟ੍ਰਿਪਰ	-11.8842
▁ਕੱਢਦੇ	-11.8845
▁1842	-11.8847
▁ਇਮੈਨੁਅਲ	-11.8849
ਨਵਜੰਮੇ	-11.8852
▁ਨੋਵੋ	-11.8852
▁ਭੇਜੀਆਂ	-11.8853
▁1821	-11.8856
▁ਕ੍ਰਿਸਟੋ	-11.8863
ਤਰੀ	-11.8864
▁ਨੋਆ	-11.8864
ਵੁ	-11.8865
ਸੂਚੀ	-11.8865
▁ਕੈਬਲ	-11.8868
▁ਸ਼ਿਨ	-11.8868
▁ਪ੍ਰੋਡਕਸ਼ਨਜ਼	-11.8869
▁ਜੈਕਸਨਵਿਲ	-11.887
▁ਮਿਲਦੀਆਂ	-11.887
▁ਰੈਂਕਾਂ	-11.8871
ਗੁਰ	-11.8872
ਸਰੀ	-11.8873
▁ਸੰਸਾਰਕ	-11.8874
ਸੋਮ	-11.8875
▁ਡਾਲ	-11.8879
▁ਪਥਰੀਲੀ	-11.8885
▁ਤੈਰਦ	-11.8886
ਾਗਾ	-11.8894
▁ਬੋਰਡਾਂ	-11.8894
▁ਸਰਾਂ	-11.8896
▁ਯਾਂਗ	-11.8897
▁ਐਂਗਸ	-11.891
▁ਸੱਤਰ	-11.8911
▁ਬੈਸਟ	-11.8913
ਲਾਨ	-11.8915
▁4-1	-11.8917
ਅਜੇਤੂ	-11.8919
▁ਰੁਝਾਨਾਂ	-11.8923
▁ਵਿਗਾਡ਼ਾਂ	-11.8923
▁ਫਰਮਾਂ	-11.8924
ੁਮ	-11.8926
ii	-11.8935
▁ਮਸ	-11.8937
▁ਹਦੀ	-11.894
ਲੰਬਾਈ	-11.8944
ਰਾਊਂਡ	-11.8953
ਖੱਬੇ	-11.8953
ਤਕਨੀਕੀ	-11.8953
ਆਖਰੀ	-11.8953
▁ਫਿਟਜ਼	-11.8957
ਫੁ	-11.8959
ਸਪੇਸ	-11.897
▁ਤਰਜੀਹਾਂ	-11.8971
ਰੇਜ਼	-11.8981
ਬੀਰ	-11.8988
ਟਾਪ	-11.8988
▁ਬੱਲੇਬਾਜ਼	-11.8995
▁ਬੈਲ	-11.8997
▁ਕੁਇ	-11.9004
▁ਅਸ਼ੁੱਧ	-11.9004
ਤਰਾ	-11.9007
▁ਲੀਕ	-11.9008
ਜਿੰਗ	-11.9011
▁ਅਪਣਾਈ	-11.9015
ਯਾਂਗ	-11.9018
▁ਕੱਛੂ	-11.9018
▁ਲੂੰਬਡ਼ੀ	-11.9019
▁ਸੰਘਰਸ਼ਾਂ	-11.9022
ਮਕੌਡ਼ਿਆਂ	-11.9022
▁ਕੂਹਣੀ	-11.9022
▁ਜਲਡਮਰੂਮੱਧ	-11.9022
▁ਦੁਵੱਲ	-11.9022
▁ਪ੍ਰੂਸ਼ੀਅਨ	-11.9022
▁ਬਰੰਸਵਿਕ	-11.9022
▁ਰਾਮਿਰੇਜ਼	-11.9022
▁ਸਫੋਲਕ	-11.9022
▁ਸ਼ਾਕਾਹਾਰੀ	-11.9022
▁ਸੁਚਾਰੂ	-11.9022
▁ਹੋਬਾਰਟ	-11.9022
▁ਖਾਧੀ	-11.9023
▁ਅਫਸਰ	-11.9023
▁ਐਡਲਾਈਡ	-11.9023
▁ਰਗਡ਼	-11.9023
▁ਕੁੱਤਾ	-11.9023
▁ਬਿਹਾਰ	-11.9023
▁ਐਸਟੋਨੀਅਨ	-11.9023
▁ਸੋਲੋਮਨ	-11.9024
▁ਸਲੇਮ	-11.9024
▁ਨਾਰਾਜ਼ਗੀ	-11.9025
▁ਲਿਆਉਂਦੀ	-11.9025
▁ਸਪੰਜ	-11.9025
▁ਫ੍ਰੀਡਮੈਨ	-11.9025
▁ਪਾਲਿਸ਼	-11.9026
▁ਬਰੂਨੋ	-11.9026
▁ਕੀਡ਼ਿਆਂ	-11.9026
▁ਡੈਮੋਕਰੇਟਸ	-11.9026
▁1794	-11.9027
▁ਵਿਰਸੇ	-11.9027
▁ਲਟਕਦੇ	-11.9028
ਵੀਡ	-11.9028
▁ਹੈਰੀਸਨ	-11.903
▁ਸਟ੍ਰੀਮਿੰਗ	-11.903
▁ਡਾਕੂਆਂ	-11.903
▁ਨਿਰਦੇਸ਼ਾਂਕ	-11.9031
▁ਕੰਪਿਊਟੇਸ਼ਨਲ	-11.9031
▁ਮਾਸਕਟ	-11.9032
▁ਅਬਦ	-11.9032
▁ਅਟੱਲ	-11.9033
▁ਕੁਈਨਜ਼	-11.9034
▁ਬੁਣਾਈ	-11.9034
▁ਵਿਰਾਮ	-11.9038
▁ਡਰਾਈਵਿੰਗ	-11.9038
▁ਸਮੋਆ	-11.904
▁ਚੌਡ਼ੀਆਂ	-11.904
▁ਨਿਕਲਦੀ	-11.9042
ਗਰਮ	-11.9042
▁ਸੈਂਟੋਸ	-11.9043
▁ਬਾਇ	-11.9044
ਸੋਰਯੂ	-11.9049
▁ਉਠਾਉਂਦ	-11.905
ੈਂਕ	-11.9053
▁ਸੱਤਵਾਂ	-11.9054
▁ਲਿਫਟ	-11.9056
ਾਡ	-11.9062
▁an	-11.9069
ਮੇਰਿਕ	-11.9071
▁ਬ੍ਰਹਿਮੰਡੀ	-11.9072
▁ਸਟਰਾਈਕਰ	-11.9076
ਨਾਈ	-11.9078
▁o	-11.9078
▁ਪਾਰੀਆਂ	-11.9078
▁ਰਮ	-11.9079
▁ਪੂੰਜੀਵਾਦ	-11.9082
ਰੋਇ	-11.9084
ਬੰਦੀ	-11.9089
▁ਗੌਲ	-11.9092
▁ਰੋਗਰ	-11.9093
ਾਈਟਸ	-11.9094
ਢਾਈ	-11.9095
▁ਵਫ਼ਾਦਾਰਾਂ	-11.9098
▁ਲੁੱਟਣ	-11.9103
ੌਲ	-11.9105
▁ਨਾਗ	-11.911
ਮੀਅਰ	-11.9111
ਹਰਸਟ	-11.9117
ਮੇਡ	-11.912
▁ਨਸ	-11.9121
▁ਦੇਵ	-11.9123
ਕੇਸ	-11.9123
▁ਡੇਰਾ	-11.9125
▁ਈਕੋ	-11.9127
▁ਟੇਡ	-11.913
▁ਐਨੀਮੇਟ	-11.9131
▁ਵਾਦੀਆਂ	-11.9132
▁ਪੈਟਰੋ	-11.9144
ਾਂਗੇ	-11.9145
▁ਉਲਟਾ	-11.9146
▁ਮੈਗੀ	-11.9148
▁ਫਲੈਗ	-11.915
ਸਰਬੋਤਮ	-11.9153
ਤੁਹਾਨੂੰ	-11.9153
ੇਂਗ	-11.9157
-28	-11.9161
ਸਟੈਟ	-11.9163
▁ਫੂ	-11.9166
▁ਆਜ਼ਾਦੀਆਂ	-11.917
ਰੋਕ	-11.9173
▁ਛੱਡਦਾ	-11.9173
ਵਿਊ	-11.9182
ਅੰਤਰ	-11.9195
▁ਮੇਲਾ	-11.9197
▁ਬੁਰਜ	-11.9203
▁ਕੋਕ	-11.9203
▁ਉਠਾਉਣ	-11.9206
▁ਗਾਂ	-11.9208
▁men	-11.9209
0)	-11.9211
▁ਹੈਲੀਕਾਪਟਰ	-11.9212
ਸਵਰਥ	-11.9212
ਬੈਟ	-11.9213
▁ਤਿਕੋਣ	-11.9216
▁ਛੱਡੀ	-11.9217
▁ਟ੍ਰੇਨ	-11.9219
ਜ਼ੇਲ	-11.922
▁ਨਿਬੰਧ	-11.9222
▁ਰਾਖਵਾਂ	-11.9222
ਸਪਾਟੇ	-11.9222
▁ਕਾਰਜਕੁਸ਼ਲਤਾ	-11.9222
▁ਟੰਪਾ	-11.9222
▁ਠੁਕਰਾ	-11.9222
▁ਨੈੱਟਫਲਿਕਸ	-11.9222
▁ਪਰਮਾਣੂ	-11.9222
▁ਲਚਕਦਾਰ	-11.9222
▁ਸ਼ਰਮਿੰਦਗੀ	-11.9222
▁ਹੋਲੋਕਾਸਟ	-11.9222
▁ਆਰਸੇਨਲ	-11.9222
▁ਕਾਰਕੁੰਨ	-11.9222
▁ਅਨੀਮੀਆ	-11.9222
▁ਸਲੂਕ	-11.9223
▁ਧਾਗੇ	-11.9223
▁ਵਾਰਬਲਰ	-11.9223
▁ਮਿਰਗੀ	-11.9223
▁ਪਲਾਜ਼ਮਾ	-11.9223
▁ਸਰਵੇਅਰ	-11.9224
▁ਸੋਨੀਨੋ	-11.9224
▁ਬਿਤਾਈ	-11.9225
▁ਲੇਜ਼ਰ	-11.9225
▁ਰਜਿਸਟਰਾਰ	-11.9226
▁ਅਲੈਗਜ਼ੈਂਡਰੀਆ	-11.9226
ਕ੍ਰਾਸ	-11.9227
▁ਲੰਬਰ	-11.9227
▁ਗੁਰੀਲਾ	-11.9227
▁ਪੈਟਰਸਨ	-11.9228
▁ਰੇਤਲੀ	-11.9229
ੇਨਸ	-11.923
▁1814	-11.9231
▁ਬੁਣਕਰ	-11.9232
▁ਆਰਗਨ	-11.9234
▁ਓਕਲੈਂਡ	-11.9234
▁1853	-11.9234
▁ਆਈਕਾਨ	-11.9235
▁1837	-11.9235
▁15,000	-11.9235
▁ਪੇਨਾ	-11.9236
▁ਥੈਰੇਪੀ	-11.9237
▁ਰੇਂਜਰਜ਼	-11.9238
▁ਬੁਰੇਨ	-11.9239
ਇੰਟ	-11.924
▁ਐਟਲਸ	-11.9241
ਜ਼ਿਪ	-11.9241
▁ਕਾਂਟ	-11.9242
▁ਕ੍ਰਾਕੋ	-11.9243
▁ਫੋਰਬਸ	-11.9244
▁ਤੁਰਿਨ	-11.9244
ਗ੍ਰਸਤ	-11.9246
▁ਈਸਾ	-11.9248
▁ਵਾਚ	-11.9249
ਰੋਧਕ	-11.925
▁1835	-11.925
▁ਸੁਣੀਆਂ	-11.9254
▁ਏਅਰਲਾਈਨਾਂ	-11.9259
▁5.	-11.9262
ੀਨੀ	-11.9262
ਵਾਇਰ	-11.9264
ਐਟ	-11.9265
▁ਝੂਠਾ	-11.9267
ਪਿਕ	-11.9272
ਕ੍ਰਮ	-11.9273
▁(29	-11.9274
▁ਸੰਧੀਆਂ	-11.9275
▁ਰਸਾਇਣਾਂ	-11.9278
▁ਮਿਕ	-11.9281
▁ਨਾਵਲਕਾਰ	-11.9281
ਅਨੁਕੂਲ	-11.9283
▁ਅਮ	-11.9285
▁ਅੱ	-11.9287
ਲਿਕਸ	-11.9288
▁201	-11.9297
▁ਸਟੈਫਨ	-11.9301
ਸਾਨ	-11.9302
▁ਹੈਂਡਲ	-11.9305
ਜ਼ਿਨ	-11.931
▁ਟੁ	-11.9317
ਗਰੀ	-11.9319
ਰਥ	-11.9321
▁ਅਸਥਿਰਤਾ	-11.9325
▁ਚੁੱਪੀ	-11.9325
▁ਤੱਟਾਂ	-11.9325
ੀਰ	-11.933
▁ਭੂਤਾਂ	-11.9336
▁ਛਿੱਲ	-11.9338
ਰੀਅਰ	-11.9338
ਪੈਂ	-11.9338
ਅਸੁਰੱਖਿਅਤ	-11.9343
ੀਆਨੋ	-11.9347
ਸ਼ੋਰ	-11.9351
ਾਇਲ	-11.9353
▁ਡਾਇਨਾ	-11.9356
ਰੱਖਿਆ	-11.9357
ਲੰਬੇ	-11.9357
ਐਤਵਾਰ	-11.9357
ਵਾਸ਼ਿੰਗਟਨ	-11.9357
ਐਕਸ਼ਨ	-11.9358
ਸਿਰਫ਼	-11.9358
▁ਮੋਮ	-11.9359
ਆਤਮਾ	-11.936
ਟਾਈਪ	-11.9361
▁ਜਾਦੂਗਰੀ	-11.9361
▁ਮੈਰੋ	-11.937
ਸਟੈ	-11.9384
▁ਨਗ	-11.9391
▁ਸਿੰਡੀ	-11.9392
▁ਐਵਰ	-11.9394
▁3)	-11.9396
▁ਔਖ	-11.94
▁ਨਿਓ	-11.9407
▁ਮੁੱਕੇਬਾਜ਼	-11.9416
ਰੂਟ	-11.9421
ਚੀਨੀ	-11.9421
ਟ੍ਰਾ	-11.9422
▁ਮਾਰੂ	-11.9422
▁ਸੰਪਰਦਾ	-11.9425
▁ਉਤੇਜਨਾ	-11.9425
▁ਕਲੇਮੈਂਟ	-11.9426
ੈਟਿਕ	-11.9426
▁ਸਭਿਅਤਾ	-11.9426
▁what	-11.9426
▁ਉਪਰੰਤ	-11.9426
▁ਮਿਖਾਇਲ	-11.9426
▁ਸ਼ੁਕ੍ਰਾਣੂ	-11.9426
ਮੌਖਿਕ	-11.9426
▁ਸਹਿਪਾਠੀ	-11.9426
▁ਸੈਲਸੀਅਸ	-11.9427
▁ਸੌਦੇਬਾਜ਼ੀ	-11.9427
▁ਬਰਲਿੰਗਟਨ	-11.9427
▁ਵਿਜ਼ਿਟ	-11.9427
▁ਕੈਮਬ੍ਰਿਜ	-11.9427
▁ਅੰਗੋਲਾ	-11.9427
▁ਭਾਵੁਕ	-11.9427
▁ਕੋਡ਼ੇ	-11.9427
▁ਗਲੈਕਸੀ	-11.9427
▁ਝਟਕੇ	-11.9428
▁ਗਰੱਭਸਥ	-11.9428
▁ਡਰੈੱਸ	-11.9428
▁ਗਿਟਾਰਿਸਟ	-11.9429
▁ਲਾਡ਼ੀ	-11.9429
▁ਵਿਕਰੇਤਾਵਾਂ	-11.9429
▁ਨੇਪਚਿਊਨ	-11.943
▁ਮਛੇਰਿਆਂ	-11.943
▁ਦੇਸ਼ਵਾਸੀਆਂ	-11.943
▁ਡਾਕੂ	-11.9431
▁ਬੁਰਸ਼	-11.9433
▁1844	-11.9435
▁1804	-11.9435
▁ਜੀਵਣ	-11.9435
▁ਵਿੱਤੀਕਰਨ	-11.9435
▁ਬਰਥ	-11.9436
▁ਬੋਲਚਾਲ	-11.9436
▁ਵਰਸੈਸਟਰਸ਼ਾਇਰ	-11.9436
▁1841	-11.9437
▁ਕ੍ਰਿਸਟੀਨਾ	-11.9437
▁ਸਿਗਮਾ	-11.9438
▁ਆਕਸੀਜਨ	-11.9439
ਨੇਨ	-11.944
▁ਬੇਵਕੂਫ	-11.9443
▁ਇੰਡੀਜ਼	-11.9443
▁ਨਿਵੇਸ਼ਕ	-11.9444
▁ਚਾਰਲਸਟਨ	-11.9445
▁ਆਰਚ	-11.9446
▁ਅਲਸਟਰ	-11.9446
▁ਅੰਦਰੋਂ	-11.9447
▁ਆਲੂ	-11.9449
▁ਪਾਰਾ	-11.9449
▁ਚਾਰੇ	-11.9449
▁ਸਟਰੋਕ	-11.9453
ਹੌ	-11.9453
▁(2014)	-11.9453
▁ਅਨੁਪਾਤਕ	-11.9454
ੈਂਗ	-11.9455
▁ਬੈਟਲ	-11.9458
▁ਸੈਟਿੰਗਾਂ	-11.946
▁ਕਾਇਲੇ	-11.9462
ਮਿਟ	-11.9462
▁ਚੈਸਟਰ	-11.9463
ਡਾਉਨ	-11.9467
▁ਵੇਰਾ	-11.9473
▁ਟੋਕ	-11.9474
▁175	-11.9477
ੀਨੀਆ	-11.9478
▁ਉੱਭਰੀ	-11.9481
▁ਗੈਲਰੀਆਂ	-11.9487
▁000	-11.9503
▁ਇਮ	-11.9506
▁ਕ੍ਰਮਃ	-11.9509
▁ਕੁਆ	-11.9513
▁ਜਾਪ	-11.9514
ਬਾਜ਼	-11.9517
▁ਏਪੀ	-11.9521
▁ਗੇਂਦਾਂ	-11.9521
ਂਦਾ	-11.9524
▁ਬਲੇਕ	-11.9528
ਕੋਰਸ	-11.9533
▁ਮਾਇ	-11.9535
5,000	-11.954
▁ਹੋਮਰ	-11.9541
▁ਹਨੇਰਾ	-11.9542
ਭਾਸ਼ਾ	-11.9542
▁ਸ਼ਾਰ	-11.9543
▁ਮੇਕ	-11.9546
▁ਮਿਨੀ	-11.9551
ਫਾਈਟ	-11.9552
▁ਟਾਲ	-11.9556
on	-11.9558
▁ਲੰਗ	-11.9561
ਸੋਨਿਕ	-11.9563
4%	-11.9563
ਸੰਚਾਲਿਤ	-11.9566
ਰਵਾਇਤੀ	-11.9566
ਗੁਪਤ	-11.9566
ਸਮਿਥ	-11.9566
ਮਾਰਸ਼ਲ	-11.9566
ਚੀਫ਼	-11.9568
ਲੰਡਨ	-11.9568
ਸ਼ਾਮਲ	-11.9576
▁ਕੈਮਿਸਟ	-11.9584
ਟਰਸ	-11.9587
▁ਚੇਰ	-11.959
▁ਗੰਧ	-11.9592
▁ਯੂਵੀ	-11.9595
▁ਹੁਗ	-11.9599
▁ਚੰਦ	-11.96
▁ਸਪ੍ਰਿੰਟ	-11.9602
ਤਾਲ	-11.9603
ਰਟਨ	-11.9607
▁ਜੂਆ	-11.961
ੈਗ	-11.9613
▁ਬੁੱਲ੍ਹ	-11.9614
▁0.0	-11.9616
ਸੈਂਡ	-11.9617
▁ਡ੍ਰਾਈ	-11.9621
ਏਪੀ	-11.9625
▁ਕੱਟਡ਼	-11.9625
▁ਵਿਸਫੋਟ	-11.9631
▁ਅਖਾਡ਼ਾ	-11.9635
▁ਆਗਸਟਾ	-11.9635
▁ਚਸ਼ਮੇ	-11.9635
▁ਟ੍ਰਾਂਸਕ੍ਰਿਪਸ਼ਨ	-11.9635
▁ਥਵੈਟਸ	-11.9635
▁ਚੁੰਘਾਉਣ	-11.9635
▁ਪੈਟਰੋਲੀਅਮ	-11.9635
▁ਵਜਾਇਆ	-11.9635
▁ਬਾਗਬਾਨੀ	-11.9635
▁ਰੀਬਾਊਂਡ	-11.9635
▁ਗੇਰਾਲਡ	-11.9635
▁ਝਾਂਗ	-11.9635
▁ਨਿਆਂਪਾਲਿਕਾ	-11.9635
▁ਖਮੀਰ	-11.9635
▁ਫਰੈਡ	-11.9635
▁ਦੁਹਰਾਓ	-11.9635
▁ਕੈਮਿਓ	-11.9635
▁ਕਿਨਾਰਾ	-11.9635
▁ਦੇਵਾਂਗੇ	-11.9635
▁ਕੰਪਾਸ	-11.9636
▁ਹਟਾਇਆ	-11.9636
▁ਮੈਕਿਨਲੇ	-11.9636
ra	-11.9636
▁ਪੋਰਟੇਜ	-11.9637
▁ਅਰੁਣ	-11.9637
▁ਕਿੰਗਸਟਨ	-11.9637
▁ਧੁੰਦਲੇ	-11.9639
▁ਮੰਗੋਲ	-11.9639
▁ਕਾਵਿਕ	-11.964
▁ਹਾਰਲੇਮ	-11.964
▁ਦੁੱਗਣੀ	-11.9641
▁ਵਿਜ਼ਟਰ	-11.9641
▁ਵਰਕਸ	-11.9641
▁ਅਸਾਈਨਮੈਂਟ	-11.9643
▁ਦੋਹਰਾ	-11.9643
▁ਹੈਬਸਬਰਗ	-11.9643
ਿਆਂਗ	-11.9646
▁ਪੋਤਾ	-11.9647
▁ਰੰਗਦਾਰ	-11.9649
▁ਬੱਜਰੀ	-11.9651
▁ਲਿਆਉਂਦੇ	-11.9651
▁ਮਾਵ	-11.9654
▁ਫਿਲੀਪ	-11.9655
2016	-11.9655
▁ਲਗਾਓ	-11.9656
ਕਟਰ	-11.9657
▁ਵੁੱਡਜ਼	-11.9657
▁ਸ਼ੈਨ	-11.9659
▁ਮੂਡੀ	-11.9661
ਸਪੋਰਟ	-11.9662
▁ਨਕਾਰ	-11.9672
▁ਡਾਇਲ	-11.9673
▁ਛੱਡੋ	-11.9673
▁ਸਟੇਨ	-11.9674
ਉਲ	-11.9675
▁ਗਡ਼੍ਹ	-11.968
▁ਕਾਵ	-11.9684
▁ਆਰੋਨ	-11.9687
▁ਓਮਾਨ	-11.969
▁ਸ਼ਿਫਟ	-11.9695
▁ਇਰਾਕੀ	-11.9697
▁ਖੰਡਨ	-11.9699
ਬਿੱਲ	-11.97
▁ਐੱਕਸ	-11.97
ਵਸ	-11.9703
▁ਰਹੇਗੀ	-11.9704
▁ਬੇਅਰ	-11.9708
▁ਪੱਧਰਾ	-11.971
▁ਹੈਲੇਨ	-11.9714
▁ਫੁਲ	-11.9716
▁ਸਮੀਕਰਨਾਂ	-11.9718
▁ਜੈਵ	-11.9719
▁1,2	-11.972
▁ਮੁਸਕਰਾ	-11.9724
ਮੀਡੀਆ	-11.9727
▁ਮਾਰਦਾ	-11.9731
▁ਸੁਣਨਾ	-11.9732
▁ਫੋਲਡ	-11.9732
ਫੈਸਟ	-11.9735
ਰੋਨੀ	-11.9736
▁ਸਟੌਟ	-11.9738
▁ਹਾਰਪ	-11.9738
▁ਪੋਟ	-11.974
▁ਸਤਹੀ	-11.9743
ਬੁਲ	-11.9744
▁ਤੋ	-11.9747
ਨਿਰਦੇਸ਼	-11.9752
ਿਨਜ਼	-11.9752
▁ਹੈਮੋਂਡ	-11.9753
ਪਟ	-11.9758
▁ਹੋਮੋ	-11.9769
▁ਕੇਲੇ	-11.977
ਡਬਲਿਊ	-11.9771
ਮਹਾਭਾਰਤ	-11.9777
ਡਿਨ	-11.9778
▁ਹੋਏਃ	-11.978
▁ਸਟੀਨ	-11.9784
ਸੰਘੀ	-11.9785
ਲੈਗ	-11.9785
ੇਟਿਕ	-11.9792
ਫੈਲ	-11.9797
▁ਸ਼ੇ	-11.9801
▁ਹੈਮਰ	-11.9805
▁ਕਲਾਨ	-11.9809
▁ਹਸ	-11.9809
▁ਵੈਂਟ	-11.9811
▁ਚੌ	-11.9813
ਮਾਈਨ	-11.9813
ਫਾਇਰ	-11.9817
ਇਮ	-11.9818
▁ਮੈਮੋ	-11.982
▁ਮੈਸ਼	-11.9821
ਮਿੰਗ	-11.9824
▁ਫੈਲਣ	-11.9825
▁ਰੀਓ	-11.9825
ਿਨਸ	-11.9827
ਇੰਟਰ	-11.9829
▁ਮਦਰੱਸਾ	-11.983
▁ਥੰਮ੍ਹ	-11.983
▁ਧੋਣ	-11.9832
▁ਓਲਾ	-11.9832
▁ਕੈਂਡਲ	-11.9834
▁ਆਇ	-11.9836
▁ਗੇਂਦਬਾਜ਼	-11.984
▁do	-11.984
▁ਕਾਰਮੇਲ	-11.9842
▁ਕਾਠੀ	-11.9843
▁ਪੁਰਾਤਨ	-11.9845
▁ਰਿਚ	-11.9846
▁ਇਲਜ਼ਾਮ	-11.9848
▁ਕੋਪਨਹੈਗਨ	-11.9848
▁ਛੁਟਕਾਰਾ	-11.9848
▁ਪ੍ਰਤਿਸ਼ਠਿਤ	-11.9848
▁ਬੱਤਖਾਂ	-11.9848
▁ਮੈਮਫਿਸ	-11.9848
▁ਯਾਕੂਬ	-11.9848
▁ਹਾਨੀਕਾਰਕ	-11.9848
▁ਗੁਸਤਾਵ	-11.9848
▁ਛਿਡ਼ਕਾਅ	-11.9848
▁ਡਾਈਆਕਸਾਈਡ	-11.9848
▁ਕੈਥਲੀਨ	-11.9848
▁ਇੰਟਰਨੈਟ	-11.9848
▁ਕੋਰੀਡੋਰ	-11.9848
▁ਟ੍ਰਾਮਵੇਅ	-11.9848
▁ਸ੍ਰਾਵ	-11.9848
▁ਕਾਗਜ਼ਾਤ	-11.9848
▁ਸ਼ੈੱਡ	-11.9848
▁ਤੋਬਾ	-11.9848
▁ਪੱਗ	-11.9848
▁ਬਾਰ੍ਹਵੀਂ	-11.9848
▁ਬਾਲਡੇਲੀ	-11.9848
▁ਲਾਕਰੋਸ	-11.9848
▁ਰੂਬੇਨ	-11.9848
▁ਸਕ੍ਰੌਲ	-11.9849
▁ਮੋਨਿਕਾ	-11.9849
▁ਓਵਰਟਾਈਮ	-11.9849
ਯਾਤ	-11.985
▁ਐਸਟਰੋਇਡ	-11.9851
▁ਬੇਸਬਰੀ	-11.9851
▁ਜੌਹਨਸਟੋਨ	-11.9851
▁ਯਾਕ	-11.9852
▁ਸੌਂਦੇ	-11.9852
2,000	-11.9853
▁ਕਾਊਂਟੇਸ	-11.9853
▁ਵਰਨਰ	-11.9854
▁ਮੈਥਿਊ	-11.9854
▁ਵੈਟਰਨਰੀ	-11.9854
▁ਵਿੰਚੀ	-11.9854
▁ਪਹਿਰਾਵੇ	-11.9856
▁ਰਾਈਡਿੰਗ	-11.9858
▁ਗੇਟਸ	-11.9858
▁ਡਾਇਨਾਮੋ	-11.9859
▁ਮੂਜ਼	-11.986
ੌਸ	-11.986
▁ਬਨ	-11.9863
ਹਿਮ	-11.9863
▁ਟੁੱਟਿਆ	-11.9865
▁ਤਿੱਬਤੀ	-11.9865
▁ਉਪਦੇਸ਼	-11.9865
▁ਵਜਾਉਂਦਾ	-11.9869
ਫਸ	-11.9872
ਸੰਨ	-11.9873
▁ਕਣਾਂ	-11.9875
▁ਚਾਂਸਲਰ	-11.9876
▁ਬੈਂਕਰ	-11.9878
▁ਅਨੀ	-11.9879
▁ਬੀਟਲਾਂ	-11.988
▁ਜਾਪਦੀਆਂ	-11.9882
▁ਕਠੋਰਤਾ	-11.9884
▁ਫਡ਼ਦੇ	-11.9884
▁ਘਡ਼ਿਆ	-11.9885
▁ਸਮਕ	-11.9886
▁ਰੂਥ	-11.9886
▁ਮਿਜ਼ਾਈਲਾਂ	-11.9887
▁ਅਖ	-11.9888
ਗੁਏ	-11.9891
▁ਮਿਟ	-11.9891
▁ਜੈਸ	-11.9891
▁ਕਰਟਿਸ	-11.9893
▁ਗੁੱਡ	-11.9894
▁ਏਅਰਕ੍ਰਾਫਟ	-11.9896
▁ਫਿਰਕੂ	-11.9896
▁ਅਪੀਲਕਰਤਾ	-11.9898
▁ਸਰੀਰਾਂ	-11.99
ਹੋਰਨ	-11.9901
▁ਗੇਮਿੰਗ	-11.9904
▁ਯਥਾਰਥਵਾਦੀ	-11.9908
▁ਡੋਂਗ	-11.991
ਲਾਈਵ	-11.9912
4-0	-11.9918
ਪਿਨਾ	-11.9919
▁ਯਕੀਨਨ	-11.992
ਨੇਜ਼	-11.9922
▁ਸੁੱਕ	-11.9923
▁ਸਕੂਟਰ	-11.9924
▁ਅਸ਼	-11.9924
▁1,500	-11.9925
▁ਕੀਲ	-11.9926
[	-11.9926
ਜੀਵ	-11.9927
▁ਨੀਲਸ	-11.9928
▁ਘਟਾਉਣਾ	-11.9929
▁138	-11.9932
▁ਮੋਨ	-11.994
ਟਿਕਸ	-11.9948
▁ਲੋਰੀ	-11.9949
▁ਇੰਟਰਨ	-11.995
▁up	-11.9951
▁ਵਾਹ	-11.9953
▁ਸਿਡ	-11.9962
▁ਡਰਾ	-11.9965
▁ਐਡਰ	-11.9985
▁ਜੈਨੀ	-11.9985
ਸੁਤੰਤਰ	-11.9993
ਬਿਜਲੀ	-11.9996
ਏਰ	-11.9997
ਸਮਾਜਿਕ	-11.9997
ਵਾਲੀਅਮ	-11.9998
ਸਡੇਲ	-12.0001
▁ਪਾਉਣਾ	-12.0007
.5%)	-12.0011
ਵਿਦੇਸ਼ੀ	-12.0012
▁ਕੈਮਰ	-12.0013
▁ਵੇਵ	-12.0015
▁116	-12.0015
ਜ਼ੀਓਨ	-12.0016
▁ਵੈਸਟਨ	-12.0017
▁ਆਮਦ	-12.0019
▁ਮਦਰ	-12.0022
▁ਕੋਲਡ	-12.0027
▁ਟ੍ਰੈਪ	-12.0027
ਡੇਕ	-12.0028
ੇਟਿਡ	-12.0035
▁ਵਿੰ	-12.0036
▁ਬੰਨ੍ਹੀ	-12.0037
▁ਫੈਟ	-12.0041
▁106	-12.0043
▁ਡੈਲ	-12.0044
▁ਨੁਕਸ	-12.0045
ਂਡਰ	-12.0046
▁ਸਟੱਡ	-12.005
▁ਵੱਕਾਰ	-12.005
ਗ੍ਰੇਡ	-12.0053
ਕੀਕ੍ਰਿਤ	-12.0054
▁ਥਰ	-12.0054
ਬ੍ਰੇਕ	-12.0057
▁ਤਖ਼ਤੀ	-12.0057
▁ਉਰਫ	-12.0058
ਲੀਗਾ	-12.0059
▁ਪਾਓ	-12.0061
ਵੰਡ	-12.0061
▁ਅਲਮਾਰੀ	-12.0061
▁ਗਰਲ	-12.0061
▁ਪਾਰਦਰਸ਼ਤਾ	-12.0065
▁ਫੁੱਟਪਾਥ	-12.0065
▁ਬਾਈਕਾਟ	-12.0065
▁ਵੈਧਤਾ	-12.0065
▁ਆਡੀਸ਼ਨ	-12.0065
▁ਲਾਈਕੇਕਸੈਂਥੋਨ	-12.0065
▁some	-12.0065
▁ਉਗਾਉਣ	-12.0065
▁ਝਲਕ	-12.0065
▁ਕਿਰਾਇਆ	-12.0065
▁ਲਟਕਾਇਆ	-12.0065
▁ਗਾਉਂਦਾ	-12.0065
▁ਏਅਰਵੇਜ਼	-12.0065
▁ਸਸਤੇ	-12.0066
ਹਜੁੱਕ	-12.0066
▁6127	-12.0066
▁ਓਬਰਲਿਨ	-12.0067
▁ਕੈਪਚਰ	-12.0067
▁ਪੇਡਰ	-12.0069
▁ਐਬਸਟਰੈਕਟ	-12.007
▁ਗਿਰਵੀ	-12.0071
ਰਾਈਟ	-12.0071
▁ਰੋਗਾਣੂ	-12.0072
▁ਸੁਲਿਵਨ	-12.0072
▁ਵਾਪਰੀਆਂ	-12.0073
▁1832	-12.0073
▁ਰਗ	-12.0073
▁ਓਰਲੈਂਡੋ	-12.0073
▁ਰਸ਼	-12.0074
ਗੇਨ	-12.0075
▁ਰੀਫ	-12.0076
▁ਸੋਮਾਲੀ	-12.0079
▁ਨਾਥਨ	-12.008
▁ਆਵੇਗੀ	-12.008
ਵਾਰਾ	-12.0081
▁ਪਿੰਜਰੇ	-12.0081
▁(2000)	-12.0082
▁ਪਰਮਿਟ	-12.0082
ਸ਼ਾਟ	-12.0086
▁ਸਟ੍ਰੋਕ	-12.0086
▁ਜੇਰੋਮ	-12.0087
ਕੋਮਾ	-12.0088
▁ਸਮਝਦਾ	-12.0088
▁ਐਕਟਿਵ	-12.009
▁ਬਚੀਆਂ	-12.0091
▁ਖਿਲਾਫ	-12.0091
▁ਜ਼ਾਬ	-12.0093
▁ਸੀਰੀ	-12.0094
▁210	-12.0097
▁ਐਮਾ	-12.0098
▁ਸ਼ੀਲਡ	-12.0099
▁ਜੁਲਦਾ	-12.0104
▁ਚੁੱਕੀਆਂ	-12.0104
ਏਕ	-12.0105
ਉਰ	-12.0107
▁ਧਾਤਾਂ	-12.0109
▁ਕਵੀਆਂ	-12.0111
ਤਾਡ਼ੀਆਂ	-12.0112
ੱਥ	-12.0112
▁ਸੇਵਕਾਂ	-12.0114
▁ਕਾਢਾਂ	-12.0117
▁ਕਲੀਨ	-12.012
ਕੈਸਲ	-12.0121
ਨਸਲੀ	-12.0121
ਵਤ	-12.0122
ੈਸ਼	-12.0125
▁ਕਰਨਗੀਆਂ	-12.0125
ੇਟੀ	-12.0126
▁ਪ੍ਰੋਫਾਈਲਾਂ	-12.0133
ਿਅਨ	-12.0133
▁ਜੇਲ੍ਹਾਂ	-12.0134
ਚਿੱਤਰ	-12.0137
ਟਰੈਕ	-12.014
▁ਸੌਂਪੀ	-12.0141
▁ਯਾਦਵ	-12.0143
▁ਸ਼ੈਲ	-12.0144
▁ਮਾਰੀਓ	-12.0153
ਹਾਰਡ	-12.0154
▁ਰਾਗ	-12.0155
▁ਜੂਲੀ	-12.0155
▁ਵੌ	-12.0156
▁ਇਰਾ	-12.016
▁ਇੰਗ	-12.0166
ੁਤ	-12.0167
ੀਰੀਅਨ	-12.0167
▁de	-12.0168
ਰੋਮਨ	-12.0169
▁ਫਰੈ	-12.0171
.]	-12.0176
ਮਾਨਤਾ	-12.0179
▁ਕਟ	-12.0181
▁ਬੈਠੀ	-12.0182
▁ਓਮ	-12.0183
▁ਸਿੰਥ	-12.0185
ਕੈਡ	-12.019
▁('	-12.0192
ਦੂ	-12.0194
▁ਕੁਇਨ	-12.0197
▁ਚੱਕਰਾਂ	-12.0197
ੇਨੀ	-12.0199
ੋਇਰ	-12.0202
ਹੋਮ	-12.0202
ਘੇ	-12.0203
ਬੌ	-12.0203
ੇਥ	-12.0204
▁ਕੈਥ	-12.0209
▁ਸਬਰ	-12.0214
ਵ੍ਹੀਲ	-12.0217
ਚਮਡ਼ੀ	-12.0218
ਪੁਰਾਣੇ	-12.0218
ਉੱਥੇ	-12.0218
ਰੈਫਰੀ	-12.0219
▁ਪ੍ਰੈਸ	-12.022
▁ਵੇਅ	-12.0221
ਜ਼ਾਨ	-12.0224
ਡੱਚ	-12.0225
ਰਸਟ	-12.0228
▁ਸਕੇਟ	-12.0228
▁ਕੱਪਾ	-12.0228
ਬਰਕ	-12.0234
ਕਰੋ	-12.0236
▁ਅਲਡ	-12.0242
ਫੋਰਸ	-12.0247
▁1""	-12.0248
ਕੁਇ	-12.0248
ਵਾਹਕ	-12.0252
ਵਿਸ਼ਵਾਸ	-12.0252
ਦਾਸ	-12.0254
ੁਮਾ	-12.0255
▁ਕਮਾਉਣ	-12.027
▁ਟਿੱਪਣੀਕਾਰ	-12.0274
▁ਸਕਾਰ	-12.0274
ਪਰੀ	-12.0274
▁ਮਾਰਟ	-12.028
▁ਬੇਨੇਡਿਕਟ	-12.0281
2012	-12.0282
▁ਲਿੰਚ	-12.0284
▁ਪੌ	-12.0285
▁ਅਤਿਆਚਾਰ	-12.0287
▁ਕੰਜ਼ਰਵੈਂਸੀ	-12.0287
▁ਗ੍ਰੀਨਹਾਉਸ	-12.0287
▁ਪਾਸਪੋਰ੍ਟ	-12.0287
▁ਫਾਰਮਾਸਿਊਟੀਕਲ	-12.0287
▁ਵੈਬਸਾਈਟਾਂ	-12.0287
▁ਹੌਪਕਿਨਜ਼	-12.0287
▁ਬਾਈਨਰੀ	-12.0287
▁ਆਟੋਮੋਟਿਵ	-12.0287
▁ਮੈਕਰਮਿਕ	-12.0287
▁ਡਰੇਨੇਜ	-12.0287
▁ਬਾਥਰੂਮ	-12.0287
▁ਸਿਟਕਾਮ	-12.0287
▁ਚਾਕਲੇਟ	-12.0287
▁ਸਬਸੈੱਕ	-12.0287
▁ਪਿਜ਼ਜ਼ਾ	-12.0287
▁ਯਤਿ	-12.0287
▁ਅਗੁਇਲਰ	-12.0287
▁ਲਿੰਡਸੇ	-12.0288
▁ਸੇਬਾਸਟੀਅਨ	-12.0288
▁ਮੱਖੀ	-12.0288
▁ਮੰਨਦਿਆਂ	-12.0288
▁ਸਟ੍ਰਿਪ	-12.0288
▁ਜੁਬਲੀ	-12.0288
▁ਸਬਵੇਅ	-12.0288
ੀਰੀਆ	-12.0288
▁ਓਨੀਡਾ	-12.0288
▁ਬਲੈਕਬਰਨ	-12.0289
ਟੇਪ	-12.0289
▁ਧੁੰਦਲਾ	-12.029
▁ਡਚੀ	-12.0291
▁ਸਿੰਕ	-12.0291
ਟਾਉਨ	-12.0291
▁ਚੌਵੀ	-12.0291
▁ਮੰਜੇ	-12.0291
ਸੁਬਾਰੂ	-12.0292
ਡੌਲਫ	-12.0292
▁ਕੋਰਟਹਾਊਸ	-12.0293
▁170	-12.0294
▁ਸੂਪ	-12.0294
▁ਬੰਡਲ	-12.0295
▁ਬੰਨ੍ਹਣ	-12.0295
ਵਰੀ	-12.0295
▁ਕਲਾਤਾਵਾ	-12.0296
▁ਲਲਿਤ	-12.0296
ਿਸਤਾਨ	-12.0297
▁ਕਿਊਰੇਟਰ	-12.0298
▁ਮੈਸੀ	-12.0299
▁ਕੈਥੋਲਿਕਵਾਦ	-12.0299
▁ਪ੍ਰੇਰਕ	-12.0299
▁ਚੌਕੀਆਂ	-12.03
▁ਪੀਐਚਡੀ	-12.03
▁ਜਿਮਨਾ	-12.0301
▁200,000	-12.0303
▁ਵੋਂਗ	-12.0305
iii	-12.0307
▁ਡਰੇਸਡਨ	-12.0308
▁ਡਰਾਉਣੇ	-12.0308
▁ਕਰਨਾਟਕ	-12.0309
▁ਵਿਕੀ	-12.031
▁ਪਣਡੁੱਬੀਆਂ	-12.0311
▁ਬੈਲੀ	-12.0311
▁ਸੂਡੋ	-12.0317
ਨੀਅਲ	-12.0319
.-1	-12.032
▁ਹੰ	-12.032
ਸ਼ਿਨ	-12.0322
▁ਰੀਸੈਪਟਰਾਂ	-12.0324
▁ਗ੍ਰੀ	-12.0324
▁ਬ੍ਰੈਨ	-12.0326
▁ਅੰਤਰਾਲਾਂ	-12.0327
▁ਐਂਡਰੇਸ	-12.033
▁ਸਕੇਟਰ	-12.0333
ੇਸ਼ਵਰ	-12.0333
ਕੌਨ	-12.0335
ਤਾਰ	-12.034
▁ਜੈਨੇਟਿਕਸ	-12.0341
▁ਆਵੇਗ	-12.0344
▁ਅਲਬਾ	-12.0344
ਟੋਰੀ	-12.0345
ਪੀਟਰ	-12.0346
▁ਜੀਜਾ	-12.0346
ਨੇਮ	-12.035
6)	-12.0352
ਹੁਆ	-12.0352
▁ਈਸਟਰ	-12.0362
▁ਕਮਾਂਡੋ	-12.0369
ਟ੍ਰੇ	-12.037
▁ਹੋਲੈਂਡ	-12.0378
▁ਯੂਈ	-12.0384
ਸਲੇ	-12.0384
ਿਮਾ	-12.0384
▁1.5	-12.0387
▁ਜੋਨ	-12.0387
ਿਕਲ	-12.0388
ਪਾਈ	-12.0389
▁ਹਾਲਤ	-12.0391
▁ਨੂਰ	-12.0392
ਵੇਕ	-12.0396
ਵਿਜ਼	-12.0396
▁ਹੱਸਣ	-12.0399
ਨੌਕ	-12.04
ੋਸ਼	-12.0403
ਏਸੀ	-12.0403
਼ੀ	-12.0403
ਐੱਲਐੱਮਐੱਸ	-12.0408
ਕੰਪਟਨ	-12.0409
ਨਿਆ	-12.0409
▁ਪਕਾ	-12.0411
੍ਸ	-12.0416
▁ਤਨਖਾਹਾਂ	-12.0416
ਚਿਤ	-12.0416
▁ਕੋਸਟਰ	-12.0418
▁ਲੈਂ	-12.0418
et	-12.0421
ੋਕੋ	-12.0423
▁ਉੱਭਰਦੀ	-12.0424
ਔਰਤ	-12.0426
▁ਰਾਓ	-12.043
▁ਬੋਲਣਾ	-12.0435
now	-12.0444
ਮਿਜ਼ਾਈਲ	-12.0445
▁ਲੂਨ	-12.0445
ਜ਼ਿਆਦਾਤਰ	-12.0445
▁(),	-12.0446
ਭੂਰੇ	-12.0446
ਲੌਗ	-12.045
ਪੈਡ	-12.0451
ਿਅਰ	-12.0455
ਸਰਕਾਰ	-12.0456
▁ਸਾਮਰਾਜਵਾਦ	-12.0456
ਟਾਸ	-12.0457
ਓਟ	-12.0462
▁ਟੁੱਟੀ	-12.0463
ਫੇਅਰ	-12.0465
▁ਕੋਪ	-12.0468
ਮੋਡ	-12.0471
ਟੇਰ	-12.0473
ੇਈ	-12.0479
ਾਡੋ	-12.048
▁ਗਿਰ	-12.0483
▁ਕੁੰ	-12.0484
▁ਟੈਲ	-12.0487
▁ਰੈਪੋ	-12.0487
▁ਸਮਰੂਪ	-12.0488
ਲੋਵ	-12.0497
ਤੀਤ	-12.0497
▁ਮੈਸਨ	-12.0498
▁ਪੈਨਸ਼ਨ	-12.0499
▁ਕੇਅਰ	-12.0501
ਥੂ	-12.0501
1,	-12.0501
▁ਸੰਤਾਨ	-12.0502
ਹਾਕਸ	-12.0504
▁ਰੈਪਿਡ	-12.0505
ਮਾਰਚ	-12.0513
▁ਵਿਲਹੈਮ	-12.0514
▁spirit	-12.0514
▁ਕਿੱਥੋਂ	-12.0514
▁ਖਿਡੌਣੇ	-12.0514
▁ਜ਼ਾਗਰੇਬ	-12.0514
▁ਪ੍ਰੋਵੀਡੈਂਸ	-12.0514
▁ਫੇਫਡ਼ਿਆਂ	-12.0514
▁ਮੈਮੋਰਿਯਲ	-12.0514
▁ਮੈਸੇਡੋਨੀਆ	-12.0514
▁ਲਾਹੌਰ	-12.0514
▁ਇੰਟਰਫੇਰੋਮੀਟਰ	-12.0514
▁ਡਿਪਰੈਸ਼ਨ	-12.0514
▁ਲਕਸਮਬਰਗ	-12.0514
▁ਇਗੁਆਨਾ	-12.0514
▁ਜਿਬਰਾਲਟਰ	-12.0514
▁ਪ੍ਰਤੀਕ੍ਰਿਤੀ	-12.0515
▁ਸ਼ੀਸ਼ੂ	-12.0515
▁ਪੈਡ੍ਰੋ	-12.0515
▁ਬੇਲਜੀਅਨ	-12.0515
▁ਬੀਬੀਸੀ	-12.0515
▁ਸਾਫਟਬਾਲ	-12.0515
▁ਨਿੰਬੂ	-12.0515
▁ਫਲਿੰਟ	-12.0515
▁ਸਟ੍ਰਾਸਬਰਗ	-12.0515
▁ਰੋਮਾਨੀਅਨ	-12.0515
▁ਸਟੀਵੰਸ	-12.0515
▁ਰੋਸੇਨਬਰਗ	-12.0515
▁ਗਲਾਈਡਰ	-12.0515
▁ਘੈਂਟ	-12.0515
▁ਡਾਰਵਿਨ	-12.0515
▁ਦੇਵਦਾਰ	-12.0515
▁ਸੇਸਿਲ	-12.0515
▁ਬ੍ਰੌਡਵੇਅ	-12.0515
▁ਬ੍ਰੈਡਫੋਰਡ	-12.0516
▁ਬੇਲਕਿਨ	-12.0516
▁ਸਪੈਨਿਅਰਡਜ਼	-12.0516
▁ਉਤਪ੍ਰੇਰਕ	-12.0516
▁(7)	-12.0516
▁4)	-12.0516
▁ਸੰਪਰਦਾਵਾਂ	-12.0516
▁ਹੋਵੋਗੇ	-12.0516
▁ਰਾਮਸੇ	-12.0516
▁ਠੇਕਾ	-12.0517
▁ਦਸਤਾਵੇਜ਼ੀਕਰਨ	-12.0518
▁ਜਿਓਵੰਨੀ	-12.0518
▁ਕਲੇਟਨ	-12.0519
▁ਮਿੰ	-12.0519
▁ਮਜ਼ਾਕੀਆ	-12.052
▁ਵਰਤਦਾ	-12.0521
▁ਪਿਰਾਮਿਡ	-12.0522
▁ਵਾਟਸ	-12.0523
▁ਸੋਫ਼ੀਆ	-12.0523
▁ਅਵਾਜ਼	-12.0523
▁ਰਿਟਾਇਰਡ	-12.0523
▁ਕੀਡ਼ੀਆਂ	-12.0524
▁1826	-12.0524
ਕ੍ਰਾਊਨ	-12.0525
ਗੋਨ	-12.0527
▁ਸੁਹਾਵਣਾ	-12.0528
▁ਆਗਿਆਕਾਰੀ	-12.0529
੍ਟ	-12.053
▁ਸਾਫਟ	-12.0531
ਲਡੇ	-12.0535
ਪਾਰਕ	-12.0535
▁ਵਰਨੀ	-12.0541
▁ਆਈਨੇਟ	-12.0542
ਿਓਨ	-12.0547
▁ਪਵਿੱਤਰਤਾ	-12.055
▁ਦਲਦਲੀ	-12.055
▁1810	-12.055
ਈਆ	-12.0557
▁ਗੇਮਪਲੇ	-12.0557
ਿਗਨ	-12.0558
ਬਾਡੀ	-12.056
ਬਕ	-12.0562
ਸੀਮਾ	-12.0562
ਐਫਲੈਕ	-12.0564
▁ਬੀਨ	-12.0564
▁ਮਿਲਟਨ	-12.0565
▁ਐਂਡਰਿਊਜ਼	-12.0566
▁ਸਿਆ	-12.0567
ਲਫ	-12.0567
▁ਛਾਲੇ	-12.0568
▁ਅਰਨ	-12.0568
ੰਮ	-12.0569
▁ਖਿੱਚਣਾ	-12.057
▁ਵ੍ਹੀਲ	-12.0572
▁ਤਮਗ	-12.0576
▁ਵਜਾ	-12.0578
▁ਸਟੌ	-12.0579
▁ਮਿਰ	-12.0582
▁ਰਾਈ	-12.0583
▁ਕ੍ਰੈਗ	-12.0585
ਉਮਰ	-12.0585
▁ਸ਼ਾਸਤਰੀਆਂ	-12.0586
,2011	-12.0588
▁ਕੰਡ	-12.0588
▁ਬਲੈਂਕ	-12.0592
▁ਫੈਲਦੀ	-12.0593
▁ਗੈਟੀ	-12.0599
▁ਰਾਈਡਰ	-12.0601
▁ਸੈਡ	-12.0603
▁ਬਸ	-12.0604
ਮਟ	-12.0604
▁ਪੋਰਟਲ	-12.0607
▁ਹੈਨੋਵਰ	-12.0607
▁ਉੱਭਰੇ	-12.0611
▁ਮੋਹਨ	-12.0614
▁ਕੁਚਲ	-12.0617
▁ਬੰਗਾਲੀ	-12.0617
▁ਜਨ	-12.062
ੇਨਬਰਗ	-12.0621
ਵਾਰਡ	-12.0623
▁ਗੇਜ	-12.0624
ਸੰਕਲਪਿਕ	-12.0625
ਗਰਾ	-12.0629
▁ਸ਼ੂ	-12.0629
ੌਪ	-12.063
▁ਕੁਨ	-12.0635
ਨੋਵਾ	-12.0642
ਨਾਈਨ	-12.0643
ਖਡ਼	-12.0646
▁ਤਜ	-12.0647
▁ਸੋਜਸ਼	-12.0647
ਾਈਜ਼	-12.0648
▁ਲੈਣੀ	-12.065
ਚੋਇਸ	-12.0653
ਪਾਨ	-12.0663
▁ਬੁਲਾਉਂਦ	-12.0665
▁ਉਮੀਦਵਾਰੀ	-12.0666
▁ਸਟਾਰਜ਼	-12.0666
ਆਉਟ	-12.0668
ਪ੍ਰਜਾਤੀ	-12.067
ਮੀਅਨ	-12.0671
ਪਵਿੱਤਰ	-12.0676
ੁਦੀਨ	-12.0677
ਸਾਰ	-12.0677
▁ਕਲੌਸ	-12.0678
ਅਨੁਸ਼ਾਸਨ	-12.0678
ਨਿਯੰਤਰਿਤ	-12.0678
ਰਾਜਨੀਤਿਕ	-12.0678
ਜ਼ਿਲ੍ਹੇ	-12.0678
ਅੱਠ	-12.0678
ਸਪੈਨਿਸ਼	-12.0678
ੂਡ	-12.0678
▁ਵਧਾਉਂਦ	-12.068
ਵਿਕਾਸ	-12.068
ੀਕਾ	-12.0685
ਚੀਕ	-12.0686
ਪਲੋ	-12.0687
▁ਸਕੁਐਡਰਨਾਂ	-12.0697
ੰਟੀ	-12.0698
▁ਵਾਰੰਟ	-12.07
ਸੈਕਸਨ	-12.0702
ਘਰਾਂ	-12.0704
ਸ਼ਾਨ	-12.0708
▁ਗਾਥਾ	-12.0709
▁ਫ੍ਰ	-12.071
ਲੋਸ	-12.071
ਕੁਮਾਰ	-12.0711
▁ਮਹਿੰਗੀ	-12.0712
▁ਦਰਬਾਰੀ	-12.0716
ਲਿਮ	-12.0717
▁ਬੇਲਾ	-12.0718
ਬਾਇਓ	-12.0718
ਡ਼ੀਆਂ	-12.0721
਼ਾਰ	-12.0724
▁ਕਿਊਬਿਸਟ	-12.0726
ਿਨਸਕੀ	-12.0727
▁ਨੱਚਣ	-12.0731
ਫੋਰਮ	-12.0732
▁ਬੇਲੋਡ਼	-12.0735
▁ਵਾਪਰੀ	-12.0739
ਬੀਅਨ	-12.0743
▁ਹਿਦਾਇਤ	-12.0747
ਗੁੰਮਰਾਹਕੁੰਨ	-12.0747
▁ਐਡਮਿਨਿਸਟ੍ਰੇਸ਼ਨ	-12.0747
▁ਕੈਲਹੌਨ	-12.0747
▁ਟਿਮੋਥੀ	-12.0747
▁ਨਕਸ਼ਿਆਂ	-12.0747
▁ਬੁਰੁਜ	-12.0747
▁ਬ੍ਰਾਡਵੇਅ	-12.0747
▁ਮਛੇਰੇ	-12.0747
▁ਮਣਕਿਆਂ	-12.0747
▁ਮੈਨੇਜਮੈਂਟ	-12.0747
▁ਰਿਹਰਸਲ	-12.0747
▁ਲੋਡ਼ੀਂਦਾ	-12.0747
▁ਵਹਿੰਦੇ	-12.0747
▁ਵੈਟੀਕਨ	-12.0747
▁ਸਿਆਣਪ	-12.0747
▁ਸਰਜੀਕਲ	-12.0747
▁upon	-12.0747
▁lord	-12.0747
▁ਕਟੋਰੇ	-12.0747
▁ਮੈਕਰਮੈਕ	-12.0747
▁ਸੋਡੀਅਮ	-12.0747
▁ਕੈਪੀਟਲ	-12.0747
▁ਧੱਬਾ	-12.0747
▁ਮਿੱਥ	-12.0747
▁ਵਿਸਥਾਪਿਤ	-12.0747
▁ਕੈਲਵਰਟ	-12.0747
▁ਮੈਨਚੈਸਟਰ	-12.0747
▁ਅਮੀਲੀਆ	-12.0747
▁ਫੇਲਿਕਸ	-12.0747
▁ਬੌਇਡ	-12.0748
▁ਇੰਟਰਸੈਕਸ਼ਨ	-12.0748
▁ਸਲੈਬ	-12.0748
▁ਰੀਬ੍ਰਾਂਡਿੰਗ	-12.0748
▁ਹਨੋਈ	-12.0748
▁ਵੰਸ਼ਵਾਦੀ	-12.0749
▁ਭਜਾ	-12.0749
▁ਕਾਮੁਕ	-12.0749
▁ਯੇਟਸ	-12.0749
▁ਪ੍ਰੀਸੀਜ਼ਨ	-12.0749
▁ਵਾਟਰਲੂ	-12.0749
▁ਗਲਿਆਰੇ	-12.0749
▁ਗੈਂਡੇ	-12.0751
▁ਰੈਂਪ	-12.0752
▁ਜ਼ਰੀਆ	-12.0752
▁ਪਾਰਕਵੇਅ	-12.0752
▁2020-21	-12.0753
▁ਸ਼ਰਮਾ	-12.0753
ੁਰਦਿਆਂ	-12.0753
▁ਲੂਕਾ	-12.0753
▁ਮਿਕਸਡ	-12.0754
▁ਇਗਨੇਸ	-12.0755
▁ਢਿੱਲਾ	-12.0755
▁ਤਖ਼ਤੀਆਂ	-12.0756
▁1817	-12.0756
▁ਝੱਲਣਾ	-12.0757
▁ਟੋਲਡੋ	-12.0757
▁ਟੌਡ	-12.0758
▁ਬਰਚ	-12.0758
ਪੇਨ	-12.0763
▁1796	-12.0763
▁ਕੈਮੀਕਲ	-12.0763
▁ਜੂਡੀ	-12.0764
▁ਸਿਲਵਾ	-12.0765
▁ਅਲੇਸੈਂਡਰ	-12.0766
▁ਬ੍ਰੋਕ	-12.0769
▁ਮੋਹਰੇ	-12.0769
▁ਕਰੈਸ਼	-12.077
▁ਮੱਕਡ਼ੀਆਂ	-12.077
▁ਪ੍ਰਚਾਰਕ	-12.0771
ਕਿਮ	-12.0772
▁ਬੇਹੋਸ਼ੀ	-12.0773
▁ਆਈਡੀ	-12.0773
▁ਹੁਈ	-12.0775
▁ਗੁਪਤਤਾ	-12.0777
ਇਰਾ	-12.0777
▁ਲੈਂਪ	-12.0784
▁ਥੀਓ	-12.0785
▁ਐਬੀ	-12.0786
▁ਬ੍ਰਿਟ	-12.0787
▁ਓਲੀਵ	-12.0789
▁ਘਡ਼ੀਆਂ	-12.079
▁ਚੱਕ	-12.0793
▁ਕਲਾਰਾ	-12.0798
▁ਬਿਲਟ	-12.08
▁ਸਟੈਡ	-12.0805
▁ਲਿਵ	-12.0806
▁ਅੰਤਰਾਂ	-12.0807
ਬਾਹਨ	-12.0807
ਿਯਰ	-12.0808
▁ਹਾਈਵੇ	-12.0813
▁ਐਲਟਨ	-12.0814
ਬਲੀ	-12.0816
3)	-12.0816
▁ਪਛਾਣਦੇ	-12.0819
▁ਬਰਾਕ	-12.0819
▁ਸੋਪ	-12.0823
▁ਸਟੋਰੀ	-12.0824
ਸੋਨੀਅਨ	-12.0824
▁ਆਰਚੀ	-12.0844
▁ਰੀਚ	-12.0845
▁ਕਲੋ	-12.0847
▁ਸ਼ੇਨ	-12.0847
▁ਰਿਬਨ	-12.0847
▁ਹੀਰੇ	-12.0849
▁ਪੇਪ	-12.0849
▁ਸਮਾਜਵਾਦ	-12.085
▁ਰਿਚਰਡਜ਼	-12.086
ਯੋਗਤਾ	-12.0861
ਰੀਆਂ	-12.0864
ੂਜ਼	-12.0866
▁ਡੇਲਾ	-12.0868
▁ਰਿੰਕ	-12.0875
▁ਕਰੇਨ	-12.0876
▁ਕੁਆਰਟਰਾਂ	-12.0878
ਰੇਜ	-12.088
▁ਰਾਜਮਾਰਗਾਂ	-12.0893
▁ਕਿਸਕੀ	-12.0903
▁ਲੋਰ	-12.0904
▁ਗਾਓ	-12.0906
▁ਬ੍ਰੇ	-12.0907
ਨਵਾਂ	-12.0912
ਕਰੇ	-12.0912
▁ਗੋਤਾਖੋਰ	-12.0913
ਗੌਡਫਾਦਰ	-12.0914
ਇੰਜਣ	-12.0916
ਪ੍ਰੋਜੈਕਟ	-12.0916
ਸਾਬਕਾ	-12.0916
ਅੰਦਰੂਨੀ	-12.0916
ਪੁਨਰ	-12.0918
ਹੱਥ	-12.0918
ਫੁੱਟਬਾਲਰ	-12.0918
▁$5	-12.0918
▁ਕਿਹਡ਼	-12.0919
▁(27	-12.0921
ਸਰੀਰ	-12.0921
ਖੇ	-12.0921
▁ਖੰਡਰ	-12.0923
ੀਅਰਜ਼	-12.0924
▁ਐਂਡੋ	-12.0924
▁ਪਰਿਵਾਰਃ	-12.0926
ਚੈ	-12.0931
ਗਾਸ	-12.0931
▁ਲਾਰਡਜ਼	-12.0931
▁(28	-12.0934
▁ਟੈਂਕਰ	-12.0937
▁ਲੇਵਿਸ	-12.0938
▁ਕਾਂਗੋ	-12.094
ਘੱਟੋ	-12.0941
ਰੇਡ	-12.0942
▁ਤਾਨਾਸ਼ਾਹ	-12.0949
▁ਟਾਵਰਾਂ	-12.0949
ਦੂਰ	-12.0959
▁ਕ੍ਰੈਨ	-12.0959
%)	-12.0962
▁ਕੁਰਟ	-12.0963
▁ਮਤਭੇਦ	-12.0964
▁ਡਾਟ	-12.0967
ਚੀਆ	-12.0968
▁ਟ੍ਰੈਂਟ	-12.0971
▁ਝੁਕਣ	-12.0972
!!	-12.0972
ੁਲੋ	-12.0972
ੋਰਮ	-12.0973
▁ਰੋਸ਼ਨ	-12.0975
ther	-12.0975
▁ਪਾਊਂਡ	-12.0976
▁ਕਾਰਜਕਾਲਾਂ	-12.098
▁ਓਵਰਲੈਪ	-12.0981
ਰੂਸ	-12.0982
ੈਕਸ਼ਨ	-12.0984
▁ਨੌਟਿੰਘਮ	-12.0985
▁ਅਗਾਊਂ	-12.0985
▁ਇਵੈਂਜੈਲੀਕਲ	-12.0985
▁ਐਸੀਟਿਲਕੋਲੀਨ	-12.0985
▁ਜ਼ੰਜੀਰਾਂ	-12.0985
▁ਜੁੱਤੇ	-12.0985
▁ਬਾਈਜ਼ੈਂਟਾਈਨ	-12.0985
▁ਮੋਜ਼ੇਕ	-12.0985
▁ਰੈਚੇਲ	-12.0985
▁ਲਾਈਸੈਂਡਰ	-12.0985
▁ਵ੍ਹੀਲਚੇਅਰ	-12.0985
▁ਈਸ਼ਵਰੀ	-12.0985
▁ਬਰੌਟਨ	-12.0985
▁ਸਾਮੰਤੀ	-12.0985
ਡੈਨਿਊਬ	-12.0985
ਪਾਰਦਰਸ਼ੀ	-12.0985
▁ਨਾਮਾਤਰ	-12.0985
▁ਟੀਕਾਕਰਣ	-12.0985
▁ਡਾਇਅਰਡੋਰਫ	-12.0985
▁ਯੈਲੋ	-12.0985
▁ਚੁੰਝ	-12.0985
▁ਪ੍ਰਮੋਟਰ	-12.0985
▁ਮਨੀਟੋਬਾ	-12.0985
▁ਰੁੱਝੀ	-12.0985
▁ਕ੍ਰੂਕ	-12.0985
▁ਬਰਸਾਤ	-12.0985
▁ਮਦਰਾਸ	-12.0985
▁ਵਰਮੌਂਟ	-12.0986
▁ਮੈਰਿਟ	-12.0986
▁ਮਸਾਲੇ	-12.0986
ਬੇਅਸਰ	-12.0986
▁ਟੈਂਡਰ	-12.0986
▁ਪਲਾਸਟਰ	-12.0986
▁ਸਟੈਫੋਰਡ	-12.0986
▁ਮੇਨਾਰਡ	-12.0986
▁ਗੱਦੀ	-12.0986
▁ਪਥਰੀਲੇ	-12.0987
▁ਬਲੇ	-12.0987
▁ਓਸਾਕਾ	-12.0987
▁ਸਟੋਕ	-12.0988
▁ਬਾਈਡਿੰਗ	-12.0988
▁ਡੱਬਿਆਂ	-12.0988
▁ਢਿੱਲੇ	-12.0988
▁ਡੇਂਗ	-12.0989
▁ਐਲਬੀਅਨ	-12.0989
▁ਚਿਲੀਅਨ	-12.0989
▁ਬੇਬੁਨਿਆਦ	-12.0989
▁ਚਮਕਦਾ	-12.099
▁ਇਕਸਾਰਤਾ	-12.099
▁ਡੋਮਿਨਿਕ	-12.099
▁ਸਿਓਲ	-12.0991
▁ਹਾਈਕਿੰਗ	-12.0992
▁ਹਾਈਡਰੋਜਨ	-12.0993
▁ਇੰਡਸਟਰੀ	-12.0993
▁ਲੈਨਨ	-12.0993
▁ਬਾਬੂ	-12.0994
▁ਚੁੱਕਦਾ	-12.0994
▁ਅਸਿਮੋਵ	-12.0994
▁(2011)	-12.0995
▁ਖਾਤਾ	-12.0995
▁ਜਾਣਗੀਆਂ	-12.0996
▁ਤਾਜਪੋਸ਼ੀ	-12.0996
▁ਸੋਟੀ	-12.0997
▁ਡਾਬੋਵ	-12.0998
▁ਮਿਲੇਗੀ	-12.0998
ੋਰੋ	-12.0999
▁ਬਹੁਵਚਨ	-12.0999
▁ਟ੍ਰੇਲਰ	-12.1
▁(2002)	-12.1003
ਹੀਡ	-12.1006
▁ਪਿੱਚਰ	-12.1007
ਗੇਜ	-12.1008
▁1811	-12.1011
ੀਅਨਜ਼	-12.1011
ਰਿਓ	-12.1012
▁ਮਾਲਕਣ	-12.1012
▁ਕੋਨਿਆਂ	-12.1012
▁ਜੰਪ	-12.1012
▁(2013)	-12.1013
▁ਸੁਣੋ	-12.1014
ਲੈਂਡਰ	-12.1015
▁ਪ੍ਰਸਤਾਵਨਾ	-12.1016
▁ਕੈਰੇ	-12.1017
▁ਅਡੇਲ	-12.1018
▁ਰਾਸ਼ਟਰੀਕਰਨ	-12.1021
▁ਜੰਮੀ	-12.1021
▁5-	-12.1022
▁ਠੰਡੀ	-12.1023
ਵੀਨ	-12.1024
▁ਪੈਣਾ	-12.1028
▁ਲਿਬਰ	-12.1031
▁ਰੁਕੇ	-12.1034
ਡੈਕ	-12.1035
▁ਬਸਤੀਵਾਦੀਆਂ	-12.1035
2%	-12.1035
▁ਚਰਚਿਲ	-12.1036
▁ਆਦਤਾਂ	-12.1037
▁ਪਡ਼੍ਹੀ	-12.1039
ਬਲੈਕ	-12.1049
▁750	-12.1049
ਿਜ	-12.105
ਕੋਕ	-12.1052
▁ਹੋਮਸ	-12.1054
▁ਵੰਡੀਆਂ	-12.1056
▁ਦਸਵੀਂ	-12.1057
▁ਪੇਸ	-12.1059
▁ਵੇਚਣਾ	-12.1069
▁ਬਾਸਕ	-12.1069
▁ਨਾਈਟਸ	-12.107
▁ਵੈਸ	-12.1071
▁ਹਿਊਮ	-12.1075
vi	-12.108
ਰਾਜਾ	-12.1084
▁ਵਿਗਿਆਪਨਾਂ	-12.1087
▁0.1	-12.1091
ਚੀਨ	-12.1092
▁ਕੈਂਟਰ	-12.1093
▁ਮੀਕ	-12.1095
▁ਪੋਟਰ	-12.1096
▁ਲਤ	-12.1097
ਾਉਟ	-12.1101
▁ਕਰਵਾਈ	-12.1102
▁ਲਿਆਓ	-12.1106
▁ਲੂਸ	-12.1112
▁ਤਵਾ	-12.1113
▁ਦਿਖਾਈਆਂ	-12.1122
▁ਕਤਲਾਂ	-12.1123
ਾਮੋ	-12.1123
▁ਗੌਡ	-12.1126
▁ਹੁਨਰਾਂ	-12.113
ਰਾਈਡ	-12.1132
▁ਸਰੋਤਃ	-12.1134
ਕੋਲਾ	-12.1134
as	-12.1137
▁ਰਾਜਕੁਮਾਰਾਂ	-12.1138
▁ਰੇਗ	-12.1139
▁ਲਿਸ	-12.1142
ਸਿਗ	-12.1143
▁ਸਾਹਸੀ	-12.1146
▁then	-12.1151
▁ਵਾਰੀ	-12.1154
ce	-12.1154
▁ਛੱਡਦੇ	-12.1158
ਜਿੱਤ	-12.1159
ਨਾਮਜ਼ਦ	-12.116
ਪੇਸ਼ੇਵਰ	-12.116
ਸਤੰਬਰ	-12.116
ਡੇਵਿਡ	-12.116
ਭਰਾਵਾਂ	-12.1162
ਭਾਵੇਂ	-12.1164
ਖੰਡਾਂ	-12.1168
ਬੰ	-12.1175
ਮਿਕ	-12.1181
▁ਕਠੋਰ	-12.1188
ਜੈੱਟ	-12.1192
▁ਐਕਟੀ	-12.1193
ਵਰਕਸ	-12.1197
▁ਐਂ	-12.12
▁ਮਹਾਨਤਾ	-12.12
▁ਰਿਬ	-12.1204
▁ਵੇਟ	-12.1207
▁ਕੋਪਾ	-12.1207
▁ਡੱਬ	-12.1207
▁ਵਾਸ਼	-12.1207
▁ਬੂੰਦ	-12.1208
▁ਕੋਰੋਨਾ	-12.1209
▁ਤੀਰਅੰਦਾਜ਼	-12.1214
▁ਗ੍ਰੇਹਾਊਂਡ	-12.1216
▁ਬਿਓ	-12.1217
▁(30	-12.1218
▁ਚਿਮਨੀ	-12.1221
▁ਲੱ	-12.1222
▁ਮਿਡਲੈਂਡ	-12.1222
▁ਲੂਥਰ	-12.1223
▁ਵਿਆਹਾਂ	-12.1225
੍ਯ	-12.1225
▁ਅਭਿ	-12.1226
ੰਡਾ	-12.1227
▁ਇੰਡੋ	-12.1227
▁ਬੇਬੀਲੋਨ	-12.1229
▁ਨੌਰਥੈਂਪਟਨ	-12.1229
▁ਉਰਸੂਲਾ	-12.1229
▁ਐਂਟਰਟੇਨਮੈਂਟ	-12.1229
▁ਐਸਕੌਰਟ	-12.1229
▁ਚਟਾਈ	-12.1229
▁ਚੈਂਡਲਰ	-12.1229
▁ਜ਼ਿੰਬਾਬਵੇ	-12.1229
▁ਨਿਊਫਾਊਂਡਲੈਂਡ	-12.1229
▁ਬੰਸਰੀ	-12.1229
▁ਸਟੱਟਗਾਰਟ	-12.1229
▁ਟਿੱਲੇ	-12.1229
▁ਐਕਸਲਰੇਸ਼ਨ	-12.1229
▁ਐਂਟੀਓਨੀਓ	-12.1229
▁ਸੈਂਡਵਿਚ	-12.1229
▁ਕੂਡ਼ਾ	-12.1229
▁ਸੰਦੇਸ਼ਵਾਹਕ	-12.1229
ਬੇਨਕਾਬ	-12.1229
▁ਗਵਰਨੈਂਟ	-12.1229
▁ਹੈਲਮਟ	-12.1229
▁ਦੱਸਾਂਗਾ	-12.123
▁ਸਟਰਲਿੰਗ	-12.123
▁ਲਵਾਂਗਾ	-12.123
▁ਉਰੁਕ	-12.123
▁ਜੋਸ਼ੁਆ	-12.123
▁ਫਿਕਸਚਰ	-12.123
▁ਸਕੌਟ	-12.123
▁ਬ੍ਰੈਂਟ	-12.123
ਕਾਰਪ	-12.123
▁ਸਹਿਕਰਮੀਆਂ	-12.123
▁ਗੁਦਾ	-12.1231
▁ਦਹਿਸ਼ਤਗਰਦੀ	-12.1231
▁ਬ੍ਰਦਰਜ਼	-12.1231
▁ਮਲੇ	-12.1232
▁ਆਕਾਸ਼	-12.1232
ਗਰੀਬ	-12.1232
▁ਮਾਓ	-12.1232
▁ਨੈਪਲਜ਼	-12.1232
▁ਸਟੋਲਟ	-12.1232
▁ਜੀਉਣ	-12.1233
▁ਯੂਰੁਕ	-12.1235
▁ਅਪਾਚੇ	-12.1237
▁ਪਲੈਟੀਨਮ	-12.1237
ਨਵੀਂ	-12.1237
▁ਕੋਰੀਅਰ	-12.1238
▁ਓਲਗਾ	-12.1238
▁118	-12.1239
▁ਪੇਨ	-12.1239
▁ਸ਼ੈਨਨ	-12.124
▁ਟਾਇਲ	-12.124
ਮੈਂਬਰ	-12.1241
▁ਉਪਯੋਗੀ	-12.1242
▁ਐਸਟ੍ਰੋ	-12.1242
▁ਕੰਮਕਾਜੀ	-12.1243
ਤਾਰਾ	-12.1244
▁ਚੋਣਕਾਰਾਂ	-12.1244
▁ਪਿਕਚਰਜ਼	-12.1245
ਸਤਾਨ	-12.1245
▁1803	-12.1245
▁ਪ੍ਰਾਈਸ	-12.1246
▁ਜਾਨਸਨ	-12.1248
▁1824	-12.1249
ਰੈ	-12.125
▁ਇੰਪ	-12.1252
▁ਭਤੀਜੀ	-12.1254
ਕਲਰ	-12.1254
▁ਯੁ	-12.1255
▁ਸੈਮਸਨ	-12.1257
▁ਐਬੋਟ	-12.1257
"":	-12.1258
▁ਹੁੱਡ	-12.1258
▁ਆਗਸਟੀਨ	-12.126
sh	-12.1262
ਪੇਰ	-12.1262
▁ਗੋਲੇ	-12.1264
▁ਨੋਇਸ	-12.1267
ਚੁ	-12.1267
▁ਰੂਫਸ	-12.1268
▁ਵਰਦੀਆਂ	-12.127
▁ਸਪਾਰਟਨ	-12.127
▁ਸਲਾ	-12.1271
▁ਬੀਨਜ਼	-12.1276
ਮਰਦ	-12.1277
▁ਹੁੰਗਾਰ	-12.128
▁...	-12.1281
▁ਵੈਟ	-12.1283
▁ਮੇਅ	-12.1288
ਮੇਕਰ	-12.1294
ਗੌ	-12.1294
▁ਹਾਫ	-12.1295
▁ਫਰਾ	-12.1295
▁ਪਿਲ	-12.1304
▁ਟਿਪ	-12.1304
▁ਕਰੂ	-12.1304
▁ਸਥਾਪਨਾਵਾਂ	-12.131
▁ਖੋਲ੍ਹ	-12.1311
ਜਾਨ	-12.1314
▁ਓਬਰ	-12.1316
360	-12.1318
ਮੀਓ	-12.1321
.-2	-12.1324
ਫੇਨ	-12.1325
▁ਮਿਹ	-12.1325
▁ਆਰਡਨ	-12.1325
▁ਚੁੱਕਣਾ	-12.1328
▁ਘ	-12.133
ਬੋਰੋ	-12.1335
▁ਜਸ਼ਨਾਂ	-12.134
▁ਚਾਰਾ	-12.1342
▁""10	-12.1346
▁ਪਿਸ	-12.1348
ਕਾਲੇ	-12.1348
▁ਚਿੱਤਰਕਾਰਾਂ	-12.1352
ਦੇਹ	-12.1353
ਡ੍ਰਿਕ	-12.1354
▁ਯਿ	-12.1356
▁ਮੋਡ਼ਨ	-12.1356
ਕਸ਼	-12.136
▁ਕੋਨੀ	-12.136
▁ਪੁਟ	-12.1363
▁ਔਸ	-12.1371
▁ਕਮਿਸ਼ਨਰਾਂ	-12.1382
ਅਰਬੀ	-12.1386
ਬੰਦੂਕ	-12.1389
▁ਪੋਤੀ	-12.1392
ਟਿਕਾ	-12.1393
ਪੱਧਰ	-12.1395
ਅਰਬ	-12.1396
ਗਰੇ	-12.1398
ਕੋਲੋ	-12.1404
ਸੱਭਿਆਚਾਰ	-12.1405
▁ਥਾ	-12.1407
▁ਲੌਗਨ	-12.1407
▁ਦਿਮਾਗੀ	-12.141
ਨੈਸ਼ਨਲ	-12.141
ਬਿਸ਼ਪ	-12.141
ਨੌਜਵਾਨ	-12.141
ਸ੍ਰੀਮਾਨ	-12.141
ਜਨਵਰੀ	-12.141
ਆਵਾਜ਼	-12.1411
ਲੇਸ਼ਨ	-12.1412
▁ਬੈਕਸਟਰ	-12.1415
ਪ੍ਰਾਪਤ	-12.1415
ਹਰੇਕ	-12.1417
ਲੋਫ	-12.1418
ਮਾਰਕੀਟ	-12.1419
ਹੋਲਮ	-12.142
▁ਸਟਾਰਟ	-12.1423
▁1793	-12.1424
▁ਰਾਸ਼ਟਰਵਾਦ	-12.1424
▁ਖੁਆ	-12.1424
ਹੈਂਡ	-12.1425
ਵਰਨ	-12.1426
▁ਟੋਂਗ	-12.1426
▁ਬੰਗ	-12.1427
ਡ਼ਿਆਂ	-12.1433
ਨਿਰਦੇਸ਼ਾਂ	-12.1434
ਡਾਂਸ	-12.1435
ਭੂਤ	-12.1441
▁ਇੰਗਲ	-12.1448
▁ਸ਼ੈਕ	-12.145
ਰਿਲ	-12.1451
ਈਸਾਈ	-12.1451
ਜ਼ੀਆ	-12.1452
000	-12.1452
▁ਧਰਮਾਂ	-12.1454
ਕੋਰਟ	-12.1455
ਧਾਰੀ	-12.1455
ਬਰੂ	-12.1455
▁ਜਗਾ	-12.1456
▁ਸਵ	-12.1457
▁ਬਦਲੀ	-12.1458
▁ਝਡ਼ਪ	-12.1458
ਵੀਵ	-12.1462
▁ਗੈਬਲ	-12.1462
▁ਦੌਡ਼ਾਕ	-12.1462
▁ਇੰਟਰਾ	-12.1464
ੀਲੋ	-12.1467
ਗਲੇ	-12.1468
▁ਰਿਣ	-12.147
ੰਗਰ	-12.1473
▁ਚੈਂ	-12.1477
ਟ੍ਰਾਈਕੋਪਲੈਕਸ	-12.1479
▁ਕਹਾਂਗਾ	-12.1479
▁ਛੇਡ਼ਛਾਡ਼	-12.1479
▁ਟਿਊਨੀਸ਼ੀਆ	-12.1479
▁ਬਿਨੈਕਾਰ	-12.1479
▁ਹਾਸੋਹੀਣੇ	-12.1479
▁ਇਸ਼ਨਾਨ	-12.1479
▁ਲਿਓਪੋਲਡ	-12.1479
▁ਡੋਮਿੰਗੋ	-12.1479
▁ਨਾਮੀਬੀਆ	-12.1479
▁ਨਿਭਾਉਂਦੀ	-12.1479
▁ਵੌਕਸਹਾਲ	-12.1479
▁ਸਸਤਾ	-12.1479
▁ਕੈਸਕੇਡ	-12.1479
▁ਜਗਾਉਣ	-12.1479
▁ਹੈਰੀਟੇਜ	-12.1479
▁ਓਪਰੇਸ਼ਨ	-12.1479
▁ਪੂਰਵਵਰਤੀ	-12.1479
▁ਗਿੱਟੇ	-12.1479
▁ਬਾਰਬਾਰਾ	-12.1479
▁ਨੱਕਾਸ਼ੀ	-12.1479
▁ਬੱਚੀ	-12.1479
▁ਗਲੋਰੀਆ	-12.1479
▁ਕਟਾਈ	-12.148
▁ਕਲਾਈਡ	-12.148
▁ਲੌਰੇਲ	-12.148
▁ਲਗਾਉਂਦੀ	-12.148
▁ਮਾਲਦੀਵ	-12.148
▁ਸਟਲਿਨ	-12.148
▁ਜਿਮਨਾਸਟਿਕ	-12.148
▁ਅਲਬਰਟੋ	-12.148
▁ਨਜਿੱਠਿਆ	-12.1481
▁ਹਾਰਟਫੋਰਡ	-12.1481
▁ਨਾਸਕਰ	-12.1481
▁ਉਠਾਏ	-12.1481
▁ਸਕ੍ਰੀਨਪਲੇਅ	-12.1481
▁ਪ੍ਰਮਾਣਿਕਤਾ	-12.1481
▁ਪੈਰੋਲ	-12.1482
▁ਸੰਭਾਲ਼	-12.1482
▁see	-12.1482
▁ਆਈਸਲੈਂਡਿਕ	-12.1483
▁ਧੁੰਦਲੀ	-12.1484
▁ਉਭਾਰਿਆ	-12.1485
▁ਲਾਈਕੇਨ	-12.1485
▁1792	-12.1485
▁ਯਾਮਾ	-12.1485
▁1843	-12.1485
▁ਮਾਟਿਲਡਾ	-12.1485
▁ਸਿਮਪਸਨ	-12.1485
▁ਲੰਡ	-12.1486
▁ਮਨਾਂ	-12.1486
▁ਤਿਤਲੀ	-12.1487
▁ਉੱਭਰਦਾ	-12.1488
▁ਦਿਖਾਉਣਾ	-12.1488
▁1816	-12.149
▁ਸ਼ਾਸ	-12.1491
▁1798	-12.1491
▁ਟਰੰਕ	-12.1493
▁ਹਾਲੈਂਡ	-12.1495
▁ਪਟਕ	-12.1496
▁ਟਿਸ਼ੂਆਂ	-12.1497
▁out	-12.1497
▁ਵੋਲਵਰਿਨ	-12.1498
▁ਤਿਕੋਣੀ	-12.1498
▁ਰਿਫੰਡ	-12.1498
▁ਜਾਇਜ਼ਤਾ	-12.1498
▁ਪਾਰਸਲ	-12.15
▁ਅਲੇ	-12.1501
▁ਓਡੂ	-12.1502
▁ਵਾਈਲੀ	-12.1502
▁ਪ੍ਰਤੀਕਵਾਦ	-12.1502
▁ਮੂਸ	-12.1504
▁ਚਾਂਗ	-12.1504
▁ਪ੍ਰਸ਼ਨਃ	-12.1504
▁ਕਸਾਈ	-12.1505
▁ਕੂਲ	-12.1507
▁ਬਦਲਦੀਆਂ	-12.1507
▁ਵਧਦੀਆਂ	-12.1507
▁ਲਾਵਾ	-12.1512
▁ਹੂਰਨਾਂ	-12.1514
▁ਲੈਂਦੀਆਂ	-12.1514
▁165	-12.1515
▁ਘੰਟੀਆਂ	-12.1516
ਂਜ਼ਾ	-12.1517
▁ਮੈਗਨਸ	-12.1517
▁ਐਂਬ	-12.152
7,000	-12.152
ਸਕਿ	-12.152
▁ਖਰੀਦੀਆਂ	-12.1522
▁ਬੱਦਲਾਂ	-12.1523
▁1,4	-12.1523
ਿੰਡਾ	-12.1524
▁ਵਾਈਲਡਰ	-12.1524
ਸਟ੍ਰੋਮ	-12.1526
▁2,500	-12.1526
▁ਊ	-12.1531
▁ਪੀਟ	-12.1536
▁6,000	-12.1536
ੈਚ	-12.1538
▁ਉਤਪਾਦਕਾਂ	-12.1538
▁ਧੱਕਾ	-12.1539
ਣੇ	-12.1541
▁ਪੈਮ	-12.1547
▁ਸਟਿੱਕ	-12.1549
▁ਦੌਡ਼ਦਾ	-12.1552
00,000	-12.1555
▁ਵਿਗਡ਼	-12.1557
ਕਾਈ	-12.156
▁ਲਾਬੀ	-12.1564
।""""	-12.1567
ਟੈਟ	-12.1568
▁ਕਾਗਜ਼ਾਂ	-12.1573
ਡੈਮ	-12.1574
▁ਦਿਵਾਉਂਦੀ	-12.1577
▁ਗਿੱਲੀ	-12.1578
▁ਅਮਰਨਾ	-12.1585
▁ਗਲੋ	-12.159
▁ਹੌਕ	-12.1591
▁ਗਜ਼ਟ	-12.1592
ਫੈਕਟ	-12.1593
ੀਰੋ	-12.1595
ਨੌ	-12.1597
▁ਬਡ	-12.1597
ਮੈਟ੍ਰਿਕ	-12.1602
ਡਾਊਨ	-12.1604
▁ਲੋਸ	-12.1609
▁ਪ੍ਰੋਪ	-12.1609
ਟੀਸੀ	-12.161
ir	-12.1611
▁ਟੇਰ	-12.1611
2018	-12.1612
▁ਮੈਸੋ	-12.1614
▁ਲਿੰਡ	-12.1622
ੈਂਪਟਨ	-12.1624
▁ਤਰੱਕੀਆਂ	-12.1626
▁ਹੱਲਾਂ	-12.1627
▁ਬੋਰਡੋ	-12.1628
▁ਪੇਜੇਟ	-12.1631
ਮਨੀ	-12.1634
ਲਾਰਡ	-12.1638
ਘੁ	-12.1641
ੌਂਗ	-12.1645
▁ਪੁੱਟ	-12.1648
▁ਮਾਰੋ	-12.1651
▁ਇੰਤਜ	-12.1653
ਫੈਟ	-12.1659
▁ਬਿਮਾਰਾਂ	-12.1661
ਸੌ	-12.1664
ਕਾਨਫਰੰਸ	-12.1666
ਕੈਥੋਲਿਕ	-12.1666
ਉਤਸ਼ਾਹਿਤ	-12.1666
ਉੱਪਰ	-12.1666
ਪਿਛਲੇ	-12.1666
ਸਿਗਰਟ	-12.1666
ਗ੍ਰੈਂਡ	-12.1667
ਯੂਰਪੀਅਨ	-12.1667
▁ਹੰਟ	-12.1667
ਟਾਈਟ	-12.1668
ਨੀਲਸਨ	-12.1669
▁ਲਿਬ	-12.1669
ਬਲਾ	-12.1672
▁ਅਰਕ	-12.1672
▁ਚੋਟੀਆਂ	-12.1676
▁ਲੌਫ	-12.1678
ਸ਼ਾਲ	-12.1679
▁ਚਿਰ	-12.1683
▁ਉਤ	-12.1683
ਪਰਿਵਾਰਕ	-12.1685
▁ਕੁਰ	-12.1685
ਖੇਤਰੀ	-12.1691
ਪੈਥ	-12.1693
ਸੇਕ	-12.1694
ਕਿਹਾ	-12.1699
ਨਫੀਲਡ	-12.17
ਲੀਅਸ	-12.17
▁ਸਿਨੇ	-12.1703
▁ਬਾਲਾ	-12.1704
ਸਾਡੀ	-12.1707
▁2-2	-12.1709
▁ਗਵਰਨ	-12.1709
▁ਮੈਰ	-12.1711
▁ਪੇਰੇ	-12.1713
▁ਸੋਮ	-12.1714
ਟੈਕਸ	-12.1718
▁ਬੇਚੈਨ	-12.172
ਸੈਲ	-12.1721
ੋਟਲ	-12.1722
ਡੌਗ	-12.1723
▁ਸਪ੍ਰਿੰਗ	-12.1725
ਫਾਰ	-12.1726
ਟ੍ਰੇਨ	-12.1729
▁ਪੱਕੀ	-12.173
▁ਬ੍ਰੈਟ	-12.1732
▁ਇਡਾਹੋ	-12.1735
▁ਐਡਮੰਟਨ	-12.1735
▁ਘੁਟਾਲਾ	-12.1735
▁ਛਤਰੀ	-12.1735
▁ਟਰਿੱਗਰ	-12.1735
▁ਤਸੱਲੀ	-12.1735
▁ਦੁਰਯੋਧਨ	-12.1735
▁ਧਡ਼ਕਣ	-12.1735
▁ਪਰਿਵਰਤਿਤ	-12.1735
▁ਫੋਰੈਂਸਿਕ	-12.1735
▁ਬਗਾਵਤ	-12.1735
▁ਬੁਲੇਵਰਡ	-12.1735
▁ਬੇਅਰਾਮੀ	-12.1735
▁ਰਾਖਵੀਂ	-12.1735
▁ਵਾਪਰਿਆ	-12.1735
▁ਕੋਲੰਬੋ	-12.1735
▁ਚਟਨੀ	-12.1735
▁ਪਨੀਰ	-12.1735
▁ਬੰਪਰ	-12.1735
▁ਪੈਰੋਡੀ	-12.1735
▁ਮੱਖਣ	-12.1735
ਸ਼ਬਾਬ	-12.1735
▁ਬੈੱਡਰੂਮ	-12.1735
▁ਬੀਰਬਲ	-12.1735
▁ਇਸ਼ਾਰੇ	-12.1735
▁ਪਿਪਕਿਨ	-12.1736
▁ਕੂਡ਼ੇ	-12.1736
▁ਹਾਈਡ੍ਰੋਸਿਲ	-12.1736
▁ਪੈਨਗੁਇਨ	-12.1736
▁ਸਾਦਗੀ	-12.1736
▁ਹੈਂਡਬਾਲ	-12.1736
▁ਆਰਾਮਦਾਇਕ	-12.1736
▁ਨਿਊਜ਼ਕਾਸਟ	-12.1736
▁ਫੀਡਬੈਕ	-12.1736
▁ਪਕਾਇਆ	-12.1736
▁ਲਵੇਗੀ	-12.1736
▁ਸੇਵ	-12.1736
▁ਬੋਲੋਨਾ	-12.1737
▁ਮਤਰੇਏ	-12.1737
▁ਮੋਰਾਕੋ	-12.1737
ਅਟ	-12.1738
▁ਲੁਕਾਇਆ	-12.1738
▁ਓਸਲੋ	-12.1738
ਕਾਲਜ	-12.1739
▁ਗ੍ਰਿਲੋ	-12.1739
▁ਮਾਣਯੋਗ	-12.1739
ਪ੍ਰੇਤ	-12.1739
▁ਸ਼ੇਲਾ	-12.1739
▁ਅੰਤਡ਼ੀਆਂ	-12.174
▁ਚਿਡ਼ੀਆਘਰ	-12.174
▁ਮੁਸ	-12.174
▁ਵਹਾ	-12.174
▁ਅਬਰਾਹਮ	-12.174
▁ਹਿਲਾਉਂਦੇ	-12.1741
▁ਪ੍ਰੀਖਿਆਵਾਂ	-12.1742
2004	-12.1742
▁ਲਾਈਕਨ	-12.1743
▁ਕਾਹਲ	-12.1743
▁ਬਿਸ	-12.1744
▁ਐਂਜੇਲਾ	-12.1744
▁ਲੀਡੇਨ	-12.1744
ation	-12.1745
▁ਕਮਾਂਡੈਂਟ	-12.1745
▁ਬਕਸੇ	-12.1745
▁ਧਰੁਵੀ	-12.1746
▁ਪਡ਼੍ਹਦਾ	-12.1748
▁ਰੈੱਡਮੈਨ	-12.1748
▁ਪਸੀਨਾ	-12.1748
▁ਐਲਾਰਡ	-12.175
੍ਰੋ	-12.175
▁ਕਾਮਰਸ	-12.1751
▁ਬਿੰਗ	-12.1752
▁ਗੈਲਨ	-12.1752
▁ਤੋਡ਼ਿਆ	-12.1752
ਟੀਓ	-12.1754
ਬਰਗਰ	-12.1755
▁ਪਰਖ	-12.1756
▁($	-12.1757
▁ਨੱਬੇ	-12.1757
▁ਟੱਚ	-12.176
▁ਮਿਸ਼	-12.1761
▁ਕੈਨਾਲ	-12.1761
▁ਈਮੇਲ	-12.1763
-50	-12.1763
ਾਈਮ	-12.1763
▁ਟ੍ਰੇਨਾਂ	-12.1764
▁ਸਫ਼ੇ	-12.1764
ਸਟੈਂਡ	-12.1768
▁ਬੈਟੀ	-12.1768
▁ਅਣੂਆਂ	-12.1768
▁ਡਿਵੈਲਪਰਾਂ	-12.177
▁ਹਟਣਾ	-12.177
ਗਲਪ	-12.177
▁ਟਵੀਟ	-12.1771
▁ਨੰਗੀ	-12.1771
▁ਸਕੈ	-12.1771
▁ਛਾਪ	-12.1772
ਕਲਿਫ	-12.1772
▁ਬਰੇ	-12.1772
▁go	-12.1772
ਹਸ	-12.1776
-55	-12.1781
▁ਕਰਾਸਿੰਗ	-12.1782
ਰੀਕ	-12.1785
▁ਗਾਉਣਾ	-12.1788
ਯੇਵ	-12.179
▁ਐਚਪੀ	-12.1791
▁ਪੋਂਟਰੀ	-12.1797
▁ਰੇਨੋ	-12.1799
ੇਲਸ	-12.1803
▁ਰੈਟ	-12.1805
▁ਕੁਈਰ	-12.1806
▁ਬਰਗਨ	-12.1808
ਪੋਲਿਸ	-12.181
▁ਸਟਰਨ	-12.1812
ਨਿਨ	-12.1815
▁ਭੇਜਣਾ	-12.1815
▁ਵੱਜ	-12.1815
▁162	-12.1816
▁ਅਸ਼ਲੀਲਤਾ	-12.1819
ਖ਼	-12.1821
ਰਿਕਸ	-12.1825
▁ਪਾਰਸਨ	-12.1826
▁ਕਿਰਿਆ	-12.1827
▁ਫ੍ਰਾਈ	-12.1833
ਸੰਤ	-12.1834
ਸਪੋਰਟਸ	-12.1835
▁ਜੋਕਰ	-12.1835
ਡਾਰਕ	-12.1836
▁ਦੱਸਣਾ	-12.1836
46)	-12.1837
ਆਨਾ	-12.1841
ਫੰਕ	-12.1844
ਗ੍ਰੇਵ	-12.1844
▁ਕੋਕੀ	-12.1851
ਗਨੀ	-12.1852
▁ਸਿੱਖੀ	-12.1858
ਬਾਇ	-12.1859
▁ਮਾਮਾ	-12.1861
▁ਮੈਨੋਰ	-12.1862
▁450	-12.1863
▁ਗੰ	-12.1863
▁ਡੇਜ਼	-12.1864
▁ਇਟਾਲੀਆ	-12.1864
ਿਪ	-12.1865
▁ਪਾਇਸ	-12.1867
▁ਆਰੀ	-12.1867
ਾਕੀ	-12.1872
▁ਟ੍ਰੇਸ	-12.1873
ਲਾਈਜ਼	-12.1874
ap	-12.1875
▁1660	-12.1878
ਕਾਰਾ	-12.1879
ਲਾਈਫ	-12.188
▁ਸੇਧ	-12.1881
▁ਪਾਸਿੰਗ	-12.1882
ਰਾਡ	-12.1883
▁ਪੇਸਟ	-12.1885
▁ਪੀਣਾ	-12.1886
▁ਡੈਸ	-12.1886
▁ਬ੍ਰੋ	-12.1887
▁ਸਕ੍ਰ	-12.1889
ਟੇਬਲ	-12.1891
ਬੋਰਾ	-12.1893
ਕੋਪ	-12.1896
▁u	-12.1897
ਨਿਕਸ	-12.1898
▁ਸ਼ਾਰਟਸ	-12.1899
ਮੈਡ	-12.1899
▁ਹੈਂਗ	-12.1901
▁ਹਰੀਜ਼	-12.1905
ਐੱਸਐੱਮ	-12.1909
▁ਕੋਰਡ	-12.1909
▁ਸਮਾਜਾਂ	-12.1913
ਸ਼ੈ	-12.1914
▁ਏਵੀ	-12.1916
ਉਤਪਾਦ	-12.192
▁ਬਿਊ	-12.192
ਿੰਗਨ	-12.1924
ਨਸਟਾਈਨ	-12.1925
ਸੰਚਾਰ	-12.1927
▁2,3	-12.1928
▁ਸਰਦ	-12.1929
▁ਕੋਮਾ	-12.1929
ਹਸਤਾਖਰ	-12.1929
ਐਪੀਸੋਡ	-12.1929
ਵਿਆਪਕ	-12.1929
ਦੁਨੀਆ	-12.193
ਰੋਜ਼ਾਨਾ	-12.193
ਪਾਣੀ	-12.1931
▁ਲੁਟ	-12.1931
ਅਧਿਕਾਰਤ	-12.1932
ਚੰਗਾ	-12.1932
ਸ਼ੋਅ	-12.1934
▁ਹੰਗ	-12.1935
▁177	-12.1938
ਪਲੇਨ	-12.194
ਰੇਵ	-12.1941
▁ਮਿਟਾ	-12.1942
▁ਯੂਨੀਅਨਵਾਦੀ	-12.1944
▁ਡਿੰਗ	-12.1945
ਜਿ	-12.1945
ਸੈਂਸ	-12.1946
ਬੋਰਗ	-12.1947
ਸੀਨਾ	-12.196
ਰੈਂਡ	-12.1968
ਸ਼ਾਸਨ	-12.1972
ਸਟੌਕ	-12.1973
▁ਮਾਫ	-12.1973
ਸੇਵਾ	-12.1973
ਲੋਕਾਂ	-12.1977
▁ਮੈਸਲ	-12.1977
▁ਟਰਬਾਈਨ	-12.1978
ਬੀਟ	-12.1978
ਕਲਾਕਾਰ	-12.1979
▁ਪਰਚ	-12.1981
▁ਕੰਮਕਾਜ	-12.1983
▁ਮੋਰਾ	-12.1984
▁ਮੈਨਸ	-12.1986
▁ਇਰੋਕੁਆ	-12.1986
▁ਲਡ਼ੀਵਾਰਾਂ	-12.1989
▁ਪੁਸਤਕਾਂ	-12.1992
ਵਿਗ	-12.1997
▁ਜਿੱਤਣਾ	-12.1997
▁(8)	-12.1997
▁ਗੈਸਟ	-12.1998
▁ਅਗਾਂਹਵਧੂ	-12.1999
▁ਕੈਥੇਡ੍ਰਲ	-12.1999
▁ਗੇਰਹਾਰਡ	-12.1999
▁ਫ਼ੋਰੀਅਰ	-12.1999
▁ਭਰੂਣ	-12.1999
▁ਮਿਸ਼ੀਰੂ	-12.1999
▁ਮੈਕੇਂਜ਼ੀ	-12.1999
▁ਰੈਗੂਲੇਸ਼ਨ	-12.1999
▁ਵਿਸਥਾਪਨ	-12.1999
▁ਸ਼ੁਕਰਗੁਜ਼ਾਰ	-12.1999
▁ਹਥੌਡ਼	-12.1999
▁ਹਾਦਸਿਆਂ	-12.1999
▁ਹੇਲਸਿੰਕੀ	-12.1999
▁ਚਤੁਰਭੁਜ	-12.1999
▁ਚੈਪਟਰ	-12.1999
▁ਪਾਲਿਕਾਵਾਂ	-12.1999
▁ਰਿਦਮ	-12.1999
▁ਹੈਦਰਾਬਾਦ	-12.1999
▁ਲੋਪੇਜ਼	-12.1999
▁ਬਦਤਰ	-12.1999
▁ਇਰਾਦਿਆਂ	-12.1999
▁ਫ੍ਰਿਟਜ਼	-12.1999
▁did	-12.1999
▁ਸੈਕਸੋਨੀ	-12.1999
▁ਐਮੀਰੀਟਸ	-12.1999
▁ਹਲਚਲ	-12.1999
▁ਮੋਰਟਾਰ	-12.1999
▁ਰਾਖਵੇਂਕਰਨ	-12.1999
▁ਸਲੋਵੇਨੀਆ	-12.1999
▁ਸਿੱਕਿਆਂ	-12.1999
▁ਵੇਅਰਹਾਊਸ	-12.1999
▁ਚਾਹਵਾਨ	-12.1999
▁ਧਡ਼ਿਆਂ	-12.2
▁ਫਲਾਇਡ	-12.2
▁ਸਲੋਵਾਕੀਆ	-12.2
▁ਹੱਬ	-12.2
ਿਤਿਜ	-12.2
▁ਬ੍ਰੌਨਕਸ	-12.2
▁ਲਿਡੇਲ	-12.2
▁ਆਵਰਤੀ	-12.2
▁ਪੋਸਟਮਾਸਟਰ	-12.2
▁ਟੈਟੂ	-12.2001
▁ਹਿਲਾਇਆ	-12.2001
ਨਿਰਵਿਵਾਦ	-12.2001
▁ਸਟੋਰੇਜ	-12.2002
▁ਲੋਰੇਨ	-12.2002
▁ਢਾਲਿਆ	-12.2002
▁ਲਿਥੋਗ੍ਰਾਫੀ	-12.2002
▁1783	-12.2003
▁ਉਤਾਰਿਆ	-12.2003
▁ਮਿਡਲਟਨ	-12.2004
▁ਲੱਗੇਗਾ	-12.2004
▁ਬਚਾਓ	-12.2004
▁ਵਰਨਨ	-12.2004
▁ਵੈਨਕੁਵਰ	-12.2005
▁ਐਮਾਜ਼ਾਨ	-12.2005
▁1673	-12.2006
▁ਕੌਰਵਾਂ	-12.2006
▁ਲੌਜਿਸਟਿਕਸ	-12.2006
▁ਮਰਦਾਨਾ	-12.2006
▁1833	-12.2007
▁ਬਰਬਰ	-12.2007
▁ਚੇਲੇ	-12.2007
▁ਪੇਰੇਜ਼	-12.2009
▁ਪਲੇਗ	-12.201
▁ਲਿਗ	-12.2011
▁1250	-12.2012
ਕੋਲੇ	-12.2013
▁ਬ੍ਰੈਕ	-12.2013
▁ਬ੍ਰੌਡ	-12.2014
▁ਸ਼ਾਰਪ	-12.2015
▁ਡੀਕ	-12.2015
ਸਫ਼ਰ	-12.2015
▁ਮੈਰੀਅਨ	-12.2016
▁16-	-12.2016
▁ਆਇਤਾਂ	-12.2017
▁1819	-12.2019
▁ਬੋਲੇ	-12.2019
▁1823	-12.2021
▁ਦੰਡ	-12.2022
▁ਸ਼ਮਿਟ	-12.2026
▁ਖੂਹਾਂ	-12.2033
▁ਮੰਜ਼ਿਲਾਂ	-12.2039
ਐਕ	-12.2039
▁ਹੀਟਿੰਗ	-12.2042
▁ਸੋਧੀ	-12.2042
ੈਰ	-12.2042
ਵੀਰ	-12.2043
▁ਪੁਆਇੰਟ	-12.2043
▁ਗੇਟੇ	-12.2043
ਡੈਂਟ	-12.2044
▁ਡੱਲ	-12.2044
ਵਿੰਡ	-12.2045
▁ਨਿਕਲੇ	-12.2045
▁ਅਬਾ	-12.2045
▁ਕਮਜ਼ੋਰੀਆਂ	-12.2046
▁ਲੌਵਰ	-12.2048
▁ਕੇਰ	-12.2051
ਟੈਂ	-12.206
▁ਟੋਂਗਾ	-12.206
ਬ੍ਰੋ	-12.2061
▁ਤਾਨ	-12.2064
▁ਕਲੇਡ	-12.2067
▁ਮੱ	-12.2068
▁ਗੁਣਾਂਕ	-12.2068
ਰੇਕਸ	-12.207
▁ਪਾਇ	-12.2072
▁ਡਯੂਸ਼	-12.2073
il	-12.2076
▁ਨਾਅਰ	-12.2077
ਰੱਬ	-12.2079
▁ਚੀਤੇ	-12.2082
▁ਹੇਠਲਾ	-12.2083
ip	-12.2085
ਲਾਗੂ	-12.2087
▁ਬਕਰ	-12.2089
▁3.5	-12.209
▁ਸਕਾਂ	-12.2096
ਫਰੀ	-12.2096
ਮੁੱਲ	-12.2099
ੇਕਸ	-12.2099
ਕਾਰਡਿਫ਼	-12.21
ਯਾਮਾ	-12.2101
ੱਕੇ	-12.2107
ਮਾਰਟ	-12.2109
ਪਿਸ	-12.2113
ਸ਼ੇਰ	-12.2119
ਆਈਸ	-12.2123
ਘਨ	-12.2127
▁ਜੋਹਾਨਸ	-12.2137
ਸੀਓਨ	-12.2137
▁ਬੇਲਾਰੂਸੀ	-12.2138
ੇਰੀਅਨ	-12.2149
▁279	-12.215
▁ਨਿਸ਼ਾਨੀ	-12.2152
▁ਪਰੋਸ	-12.2153
▁ਸਪਾਈ	-12.2154
▁ਬ੍ਰਾਂਡਨ	-12.2156
▁ਗੈਟ	-12.2159
ਜੰਮੇ	-12.2166
▁ਗਰਾ	-12.2167
▁ਬੂ	-12.2169
ਓਪ	-12.2171
▁ਲਾਮਬੰਦ	-12.2173
▁ਕੰਪਲੈਕਸਾਂ	-12.2175
▁ਪੈਨੀ	-12.2176
▁ਐਟੀ	-12.2177
▁ਕੀਥ	-12.2178
ਅੰ	-12.2182
ਅਵੇ	-12.2185
▁ਜੈਨੀਫ	-12.219
▁ਜੈਕੀ	-12.2192
ੱਦ	-12.2193
ਰਡਨ	-12.2194
▁ਕੈਡ	-12.2199
▁ਵਸੇਬ	-12.2199
ਨਿਰਭਰ	-12.2199
ਸਿਲੰਡਰ	-12.2199
ਚੰਗੇ	-12.22
ਕੈਨੇਡਾ	-12.22
ਯੁੱਗ	-12.22
▁ਤਰਸ	-12.22
ਵੱਡਾ	-12.22
▁ਗਿੱਲਾ	-12.22
ਾਕੋ	-12.2201
ਮਾਰਟਿਨ	-12.2202
ਵਪਾਰਕ	-12.2202
ਤੁਰਕੀ	-12.2203
ਾਈਜ਼ਡ	-12.2205
ਪਾਵਰ	-12.2208
ਰਾਏ	-12.2209
ਰੀਡ	-12.2216
ਬਾਹਰੀ	-12.2217
▁ਪੋਲੋ	-12.222
▁ਕਾਊਂਟ	-12.2225
.50	-12.2229
ਵਰਲਡ	-12.2232
ਟਰੀਆ	-12.2232
▁ਟੈਮ	-12.2235
ਅਣ	-12.2235
▁ਪਿਛਲ	-12.2242
▁ਪੰਦਰ	-12.2249
▁$100	-12.225
ਪ੍ਰਿ	-12.2252
ਨਿਕਾ	-12.2254
ਪਹੀਆ	-12.2254
▁ਕੁਸ਼	-12.2254
▁ਅਯਾਮ	-12.2254
ਛੋਟਾ	-12.2257
▁ਬਰਨੀ	-12.2258
ਰਮੈਨ	-12.2259
ਸਮਰ	-12.2261
ਿਤਾ	-12.2262
▁ਉਗਾ	-12.2262
▁ਸਕ੍ਰੈਪ	-12.2265
ੇਬ	-12.2267
▁ਅਨੈਤਿਕ	-12.2267
▁ਸਕ੍ਰੀਨਪਲੇ	-12.2268
ਮਾਊਥ	-12.2268
▁ਅਧਰੰਗ	-12.2269
▁ਇਮੇਜਿੰਗ	-12.2269
▁ਇੰਡੋਚਾਈਨਾ	-12.2269
▁ਕੰਪਰੈਸ਼ਨ	-12.2269
▁ਖ਼ਰੀਦ	-12.2269
▁ਗੀਗਾਫੈਕਟਰੀ	-12.2269
▁ਚਮਗਾਦਡ਼	-12.2269
▁ਜੋਆਚਿਮ	-12.2269
▁ਨਿਕਾਰਾਗੁਆ	-12.2269
▁ਫਾਤਿਮਾ	-12.2269
▁ਮੁਨਾਫੇ	-12.2269
▁ਸੋਫੋਮੋਰ	-12.2269
▁ਹਾਸੋਹੀਣੀ	-12.2269
▁those	-12.2269
▁ਦੰਗੇ	-12.2269
▁ਧਨੁਸ਼	-12.2269
▁ਚੇਲਸੀ	-12.2269
▁ਸਹਿਕਾਰਤਾ	-12.2269
▁ਦੁਰਵਿਹਾਰ	-12.2269
▁ਬੰਗਲੌਰ	-12.2269
▁ਸਿਨਕਲੇਅਰ	-12.2269
▁ਏਅਰੋਸਪੇਸ	-12.2269
▁ਚੇਲਿਆਂ	-12.2269
▁ਨਿਪਟਾਰੇ	-12.2269
▁ਸਾਰਡੀਨੀਆ	-12.2269
▁ਐਕਸਪ੍ਰੈੱਸਵੇਅ	-12.2269
▁ਕੈਫ਼ੀ	-12.2269
▁ਤਪਸ਼	-12.2269
▁can	-12.2269
▁ਫਿਟਿੰਗ	-12.2269
ਟਰਜ਼	-12.227
▁ਅਲਾਟਮੈਂਟ	-12.227
▁ਡ੍ਰੀਮ	-12.227
▁ਓਸੇਜ	-12.227
▁ਸਿਲਵੀਆ	-12.227
▁ਅਬੇਲੀਅਨ	-12.227
▁ਸਟੀਅਰਿੰਗ	-12.227
▁ਤਿਰਛੇ	-12.227
▁ਮਾਡਰਨ	-12.227
▁ਬੋਲੀਵੀਆ	-12.227
▁ਜੰਗਾਲ	-12.227
▁ਬਾਇਸਨ	-12.2271
▁ਡਵਾਈ	-12.2271
▁ਉਲਟਾਉਣ	-12.2271
▁ਪੋਰਚ	-12.2271
▁ਅਲਫੋਂਸੋ	-12.2272
▁ਅੰਡਰਵੁੱਡ	-12.2273
▁ਸੂਈ	-12.2273
▁ਬਰਖਾਸਤਗੀ	-12.2273
▁ਗੰਨੀਸਨ	-12.2274
▁ਬੁੱਤ	-12.2275
▁ਗੈਰਾਜ	-12.2275
ਰਚਨਾ	-12.2276
▁ਵੇਸਵਾਵਾਂ	-12.2276
ਦਾਇਕ	-12.2277
▁ਚੀਤਾ	-12.2277
▁ਅਜ਼ੀਜ਼	-12.2277
▁ਨੰਗਾ	-12.2279
▁ਸਟੈਂਪ	-12.2279
▁ਸ਼ੂਟਆਊਟ	-12.228
▁ਲਾਟਰੀ	-12.228
▁ਪ੍ਰਤੀਕ੍ਰਿਆਸ਼ੀਲ	-12.228
ਕਿਊਬ	-12.2281
▁ਧੁਰਾ	-12.2281
▁ਨੀਨਾ	-12.2281
ਸਾਹ	-12.2282
▁1825	-12.2282
ਫੇਦਰਵੇਟ	-12.2282
▁ਪਰਸਪਰਤਾ	-12.2282
▁ਕੈਮਰਨ	-12.2282
▁1674	-12.2283
▁ਸਿੰਥੈਟਿਕ	-12.2283
ਕੈਸ	-12.2284
50,000	-12.2284
▁1818	-12.2285
▁ਇਸਾਬੇਲਾ	-12.2285
▁ਬੱਕਰੀਆਂ	-12.2286
▁ਪ੍ਰਮਾਣਿਕ	-12.2287
2013	-12.2287
▁ਵਾਦੇ	-12.2288
ਟਿਲ	-12.2289
▁ਮਾਸਪੇਸ਼ੀਆਂ	-12.2289
▁ਖੁਰ	-12.2289
▁ਘੁ	-12.229
▁(2006)	-12.2293
▁ਆਰਕਟਿਕ	-12.2295
▁ਡਿੱਗਿਆ	-12.2297
▁ਸਰਕਸ	-12.2297
▁ਨਾਜ਼ੀਆਂ	-12.2301
▁ਟੋਪੀਆਂ	-12.2301
ity	-12.2302
ੱਲਾ	-12.2304
▁ਮਾਫ਼ੀ	-12.2305
▁ਨੇਪਾਲੀ	-12.2306
▁ਥੱਕੇ	-12.2311
▁ਕਰਜ਼	-12.2313
ਟੀਕਲ	-12.2319
ਵਿਡ	-12.2321
▁ਬੱਲ	-12.2321
▁ਬੁਰ	-12.2322
▁ਪ੍ਰੋਸਰ	-12.2325
▁ਪਵੇ	-12.2326
▁ਐਲਵਿਨ	-12.233
▁ਰੀਡਰ	-12.2331
▁ਮਾਰਕਸਵਾਦੀ	-12.2334
▁ਇਵਾਨੋਵ	-12.2335
▁ਰੋਚੇ	-12.2335
13)	-12.2335
▁ਬ੍ਰੈਡੀ	-12.2337
▁8,000	-12.2338
ਲਿਬਰੇਸ਼ਨ	-12.2338
▁ਮੈਗਨਾ	-12.2339
▁ਸਕੂ	-12.2341
ness	-12.2342
ਰਾਓ	-12.2342
400	-12.2345
▁ਬਾਬ	-12.2346
ਤਿਰ	-12.2348
ਫੋਸ	-12.2349
ਬਾਹ	-12.2351
▁ਜੀਵਨੀਕਾਰ	-12.2351
▁ਹੁਲ	-12.2353
ਕਰਾ	-12.2355
▁ਵਾਲਸ਼	-12.2356
▁ਮਹਾਭਾਰਤ	-12.2359
▁ਚੀਅਰ	-12.2359
▁ਜਾਰਜੀਓ	-12.236
ਪੋਲੀ	-12.2365
.-3	-12.2366
ਕੋਰਨ	-12.2368
▁ਬਚਨ	-12.2369
▁ਟਰੱਕਾਂ	-12.237
▁112	-12.2373
ਗਾਹ	-12.2374
ੈੱਲ	-12.2375
▁[""	-12.2378
▁ਹੈਡਰ	-12.238
ਗਲੀਆ	-12.2381
ਤਕ	-12.2382
▁ਟਿਲ	-12.2388
▁ਕੂਪ	-12.2393
▁ਡਿਕੀ	-12.2393
ਵੋਗ	-12.2393
▁ਫ੍ਰੀਜ਼	-12.2394
▁ਬੈਟਨ	-12.2394
▁ਪੁੱਛੋ	-12.2395
▁ਪੇਪਰਾਂ	-12.2398
.2%)	-12.24
▁ਪੈਨਲਾਂ	-12.2402
▁ਫੂਜੀ	-12.2403
ਪ੍ਰੇਰਿਤ	-12.2404
▁ਚੈਂਬਰਾਂ	-12.2405
▁ਹੀਲੀ	-12.2407
▁ਰਿਕੀ	-12.2412
ਲੰਬੀ	-12.2414
ਕਾਰਨ	-12.2415
ਹੈਮਰ	-12.2416
ਟੇਸ	-12.2423
▁ਛੋਟਾਂ	-12.2425
ਕੀਪਰ	-12.2428
ੌਂਡ	-12.243
ਲਿਪ	-12.2431
▁ਰੰਗੇ	-12.2438
▁ਮਾਰਡੀ	-12.2438
▁ਬਲੇਜ਼	-12.2441
▁ਪਾਈਪਰ	-12.2441
▁ਐਂਟ	-12.2443
ਫਲਿਸ	-12.2449
▁ਐਂਪ	-12.2449
▁ਸੱਟਾ	-12.2454
ਉਨ	-12.2455
▁ਉਦਾਰਵਾਦ	-12.2458
ਡਿਸਕ	-12.2462
▁220	-12.2462
▁ਕੋਕੋ	-12.2464
▁ਕੱਟਣਾ	-12.2465
▁ਸਮਾਰਕਾਂ	-12.2466
▁ਡੋਰਾ	-12.2469
ੇਅਸ	-12.2471
ੀਨੇ	-12.2473
▁ਸਟੀਮ	-12.2474
ਸੰਭਵ	-12.2474
ਮਜ਼ਬੂਤ	-12.2477
ਸਾਹਮਣੇ	-12.2477
ਅਦਾਲਤ	-12.2477
ਰੁਕ	-12.2478
ਚੌਥਾਈ	-12.2478
ਕਮੇਟੀ	-12.2479
ਜੇਮਜ਼	-12.2479
ਸਟ੍ਰੀਟ	-12.248
▁ਮਾਸਟ	-12.2486
▁ਟ੍ਰੀ	-12.2486
ਘਾਤ	-12.2488
ਤੁਰ	-12.2494
▁ਬਾਰਬਰ	-12.2494
ਸੱਤ	-12.2495
▁1992)	-12.2497
▁320	-12.2501
ਯਾਰਡ	-12.2503
2-	-12.2507
▁107	-12.2509
age	-12.251
ੰਝ	-12.2511
ੇਸਿਸ	-12.2514
▁900	-12.2516
▁ਟ੍ਰਿਬਿਊਨ	-12.2521
▁ਜ਼ਬੂਰ	-12.2526
▁ਇਸਾਬੇਲ	-12.253
ov	-12.253
▁ਜਾਗ	-12.2532
▁ਤੇਜ਼ਾਬ	-12.2534
ਥੀਓ	-12.2537
▁ਗਣਤੰਤਰਵਾਦੀ	-12.2538
ੇਵਿਕ	-12.2541
ਭਟਕਦੇ	-12.2542
ਫੌਜੀ	-12.2542
▁ਮਨੁ	-12.2543
▁ਥੱਕਿਆ	-12.2544
▁ਡੈਪੂਟ	-12.2546
▁ਰੁਝੇਵ	-12.2546
ਇਨਫਰਾਰੈੱਡ	-12.2547
▁council	-12.2547
▁ਅਲਗੋਂਕੁਇਨ	-12.2547
▁ਐਕਟੀਵੇਸ਼ਨ	-12.2547
▁ਖਲੀਫ਼ਾ	-12.2547
▁ਚੈਸਟਨਟ	-12.2547
▁ਚੌਮੋਨੋਟ	-12.2547
▁ਡੋਹੇਨੀ	-12.2547
▁ਪਹੀਏ	-12.2547
▁ਪ੍ਰੋਪਲਸ਼ਨ	-12.2547
▁ਫੰਜਾਈ	-12.2547
▁ਬਰਾਊਜ਼ਰ	-12.2547
▁ਬਹਾਨੇ	-12.2547
▁ਬੁਲਾਰਿਆਂ	-12.2547
▁ਬੁਲੇਵਾਰਡ	-12.2547
▁ਆਸ਼ਾਵਾਦੀ	-12.2547
▁ਕਾਰਲਿਸਲ	-12.2547
▁ਜਨੇਇਰੋ	-12.2547
ਉਥਾਨ	-12.2547
▁ਆਡੀਟੋਰੀਅਮ	-12.2547
▁ਗਰਿੱਲ	-12.2547
▁ਡਿਆਜ਼	-12.2547
▁ਗੂਡ਼੍ਹੀ	-12.2547
▁ਸਟਰਜਨ	-12.2547
▁ਕੰਪਾਊਂਡ	-12.2547
▁ਟੈਨਜੈਂਟ	-12.2547
▁ਟੇਮੁਰ	-12.2547
▁ਵੂਲਵਿਚ	-12.2547
▁ਅਮੋਨੀਆ	-12.2547
▁ਪਿੰਚ	-12.2547
▁ਉਛਾਲ	-12.2547
▁ਟੈਲਬੋਟ	-12.2547
▁ਖਿਡ਼	-12.2547
▁ਗ੍ਰਿਫਿਨ	-12.2547
ਚੇਜ਼	-12.2547
▁ਕੈਬਰਲ	-12.2547
▁ਬ੍ਰੌਡਵਿਕ	-12.2547
▁ਸਰਵਉੱਚ	-12.2547
▁may	-12.2547
▁ਅਪਲੋਡ	-12.2547
▁ਅਜਗਰ	-12.2547
▁ਨਿਸਾਨ	-12.2547
▁ਵੈਲੇਨਸੀਆ	-12.2547
▁ਉਪਭਾਸ਼ਾਵਾਂ	-12.2547
▁ਕਮਿਊਨਿਜ਼ਮ	-12.2547
▁ਤਲਾਅ	-12.2547
▁ਵਰਤਾਰਾ	-12.2547
▁ਅਚੀਵ	-12.2547
▁ਹੈਕਸਾਗਨ	-12.2547
▁ਲੁਈਸਿਆਨਾ	-12.2548
▁ਮੁਲਡਰ	-12.2548
▁ਸੇਠ	-12.2548
▁ਬੇਸਹਾਰਾ	-12.2548
▁ਕਾਰਟੈਕਸ	-12.2548
▁ਠਹਿਰਾਏ	-12.2549
▁ਆਰਕੇਡ	-12.2549
▁ਕ੍ਰਿਓਲ	-12.2549
▁ਮੋਹਿਤ	-12.2549
▁ਚੈਕੋਸ੍ਲੋਵਾਕੀਆ	-12.255
▁ਬਾਰੋਕ	-12.255
▁ਕੁਰੂ	-12.255
▁ਸਲਕਸ	-12.255
▁ਖੁਰਦਰੇ	-12.2552
▁ਤਸੱਲੀਬਖਸ਼	-12.2552
▁ਮਾਈਕਰੋਸਕੋਪੀ	-12.2552
▁ਸਲੈਮ	-12.2552
▁ਪੋਕਰ	-12.2552
▁ਪ੍ਰਗਟਾਵਾ	-12.2553
▁ਧੱਕਿਆ	-12.2553
▁ਫੋਰਮੈਨ	-12.2554
▁ਰੇਡੀਅਸ	-12.2555
▁ਅੰਟਾਰਕਟਿਕਾ	-12.2555
▁ਟਰਾਈ	-12.2555
▁ਮਹਾਰਾਸ਼ਟਰ	-12.2556
▁ਲੁਈਸਵਿਲੇ	-12.2556
▁ਨੋਏਲ	-12.2556
ਨ੍	-12.2556
▁ਨੁਕਸਦਾਰ	-12.2556
▁1834	-12.2557
▁ਰੁਜ਼ਗਾਰ	-12.2558
▁1806	-12.2558
▁3000	-12.2558
▁ਬੀਟਲ੍ਸ	-12.2558
▁2016-17	-12.2558
▁ਪਲੋ	-12.2558
▁ਐਕਸਪੋਜਰ	-12.2558
▁ਛਾਪਾ	-12.2559
▁ਬਿਰਤਾਂਤਕਾਰ	-12.2559
▁ਪੈਟਰੀ	-12.2562
▁ਦਿੱਗਜਾਂ	-12.2563
▁ਨਿੱਜੀਕਰਨ	-12.2563
▁ਸੈਂਸਰਸ਼ਿਪ	-12.2564
▁ਅਗਿਆਨਤਾ	-12.2565
▁ਕਬੂਲ	-12.2568
▁ਡਿਕਸਨ	-12.2568
ਲੀਪ	-12.2571
▁ਹਿੰਦ	-12.2574
▁ਸੁੱਟੀਆਂ	-12.2574
ਮਾਉਂਟ	-12.2574
▁ਅਮੀਰਾਂ	-12.2575
▁1805	-12.2575
▁ਕੀਫੀ	-12.2576
▁ਖੰਡਰਾਂ	-12.2576
ੋਇਡ	-12.2576
2001	-12.2576
▁ਹੈਲੋ	-12.2577
▁ਲਿਵਿੰਗ	-12.2578
▁ਰਿਮ	-12.2578
▁(2012)	-12.2578
▁ਸਟਾਈਲ	-12.2582
▁ਲਹਿਰਾ	-12.2583
▁ਲੈਂਬ	-12.2583
▁ਮੌਡ	-12.2584
▁ਸੁਨ	-12.2584
▁ਨੈਸ਼	-12.2586
▁ਵੇਚਦਾ	-12.2587
▁ਰੋਥਰ	-12.259
▁ਖਰੀਦਦਾਰਾਂ	-12.2591
▁ਫ੍ਰੀਵੇਅ	-12.2591
▁ਸੰਭਾਲਦਾ	-12.2593
▁ਰੈਗੂਲੇਟਰ	-12.2594
▁ਗੈਲਵੇ	-12.2597
▁ਮਲਿਕ	-12.2599
▁ਲੁਬ	-12.2601
▁(;)	-12.2602
▁ਹੈਂਗਰ	-12.2603
ਧਾਮ	-12.2605
ੇਮਾ	-12.2605
▁ਟੋਂਗਨ	-12.2605
▁260	-12.2606
▁ਫੇਸ	-12.2607
ਰੈਕ	-12.2608
ਕੋਚ	-12.2609
ਦਸ	-12.2611
▁ਮਰਸਰ	-12.2615
▁ਗੁਇ	-12.2615
▁ਵੈਗਨਾਂ	-12.2617
▁168	-12.262
▁ਰਵੀ	-12.2623
▁ਦੌਡ਼ਦੇ	-12.2623
▁ਅਪਣਾਉਣਾ	-12.2623
ੋਲੋਜਿਸਟ	-12.2624
ਡੌਕ	-12.2631
▁ਢਿੱਲੀ	-12.2632
▁un	-12.2634
ਡੋਲ	-12.2635
ਕਾਰਾਬਾ	-12.2635
▁ਮੋਟਰਜ਼	-12.2636
2019	-12.2636
▁ਓਗ	-12.264
ਟ੍ਰੈਕਸ਼ਨ	-12.2641
ਗ੍ਰਾਸ	-12.2646
ਹੈਲੋ	-12.2647
ਪੋਤੀਆਂ	-12.2647
▁ਟ੍ਰੇਨੀ	-12.2647
ੇਸ਼ੀਅਨ	-12.2652
▁ਅਗਨੀ	-12.2652
ਟ੍ਰੈ	-12.2653
▁ਬ੍ਰੇਸ	-12.2654
▁ਅਫ	-12.2655
▁ਪਾਮਰ	-12.2655
▁ਫੀਸਾਂ	-12.2656
▁ਸਿਗ	-12.2657
▁ਉਦ	-12.2658
▁ਸਮਾਰਟ	-12.2659
ਹਰੇ	-12.2659
▁ਡੋਨ	-12.266
ਰਿਗਪਾ	-12.2661
▁ਸਟੀਕ	-12.2662
▁ਜੋਰਗ	-12.2671
▁ਬੈਕਸ	-12.2673
ਫਿਟ	-12.2675
11)	-12.2675
ਪੁਟ	-12.2677
7%	-12.2679
ਪ੍ਰੀ	-12.2683
▁ਕੈਪੀ	-12.2686
▁ਨਗਨ	-12.2692
ੋਨੋ	-12.2692
ੋਵਰ	-12.2694
ਓਲੀ	-12.2695
▁ਵਿਜ਼	-12.2696
ੁਏ	-12.2699
ਸੈਂਟਰ	-12.271
▁ਬਿਰ	-12.271
▁ਸਾਉ	-12.2715
ਸਟੋਰ	-12.2718
▁ਤਾਸ	-12.2718
▁ਡ੍ਰ	-12.2719
ਟ੍ਰਿਕ	-12.2723
ੈਂਚ	-12.2723
ਜਾਰ	-12.2724
2014	-12.273
ਸੇਫ	-12.2732
ਰਾਣੀ	-12.2735
▁ਇੰਟੀਗ੍ਰ	-12.2736
▁ਓਕਸ	-12.2737
▁ਸਰਵੇਖਣਾਂ	-12.2739
ਰਾਸ	-12.2741
▁ਸਨਮਾਨਾਂ	-12.2742
▁ਬੱ	-12.2745
▁ਲਿੰ	-12.2746
▁ਗਾਇ	-12.2748
▁ਐਲੀਨ	-12.2749
▁ਬੁੱ	-12.2751
ਾਈਡਿੰਗ	-12.2755
2000	-12.276
ਅਨੁਮਾਨ	-12.2761
▁ਸੀਮੈਂਟ	-12.2762
ਮੋਬਾਈਲ	-12.2763
ਇਲੈਕਟ੍ਰਿਕ	-12.2763
ਫਾਊਂਡੇਸ਼ਨ	-12.2763
ਦੇਖੋ	-12.2763
ਲੁਈਸ	-12.2763
ਕਾਰਜਕਾਰੀ	-12.2763
ਫੁੱਲ	-12.2763
ਤੋਡ਼	-12.2764
ੱਕਾ	-12.2764
▁ਵੇਸ	-12.2765
▁ਅਪੋ	-12.2766
▁ਕੋਟਾ	-12.2772
ਗ੍ਰਾਫਿਕ	-12.2773
ਮੌਜੂਦਾ	-12.2777
ਚਿਓ	-12.2778
▁ਗਡ਼ਬਡ਼ੀ	-12.2778
▁ਮੈਟ੍ਰਿਕ	-12.278
▁ਦਰਸਾਉਣਾ	-12.278
▁ਹੇਜ	-12.2781
ਫ਼ੀ	-12.2782
2006	-12.2782
▁ਗੋਟ	-12.2783
ਲੌਕ	-12.2785
ੁਅਲ	-12.2798
ਿਬ	-12.2798
▁ਟਾਕਲ	-12.2801
ਜੰਗਲ	-12.2803
ਫੈਨ	-12.2806
▁ਲਿੰਗਾਂ	-12.2811
ਯਾਨੀ	-12.2811
▁ਕਾਰੀਗਰ	-12.2812
▁ਕਾਉਂਟ	-12.2816
ਲੀਅਮ	-12.2819
▁ਸੂਡਾਨੀ	-12.2819
▁ਯੂਗਰ	-12.282
ਸੂਟ	-12.282
ਫਰੇਮ	-12.282
▁ਪਲਾਨ	-12.2822
▁ਮਸ਼ਰੂਮ	-12.2822
ਵਾਰੀ	-12.2823
▁ਹੌਕਸ	-12.2824
▁ਚੁੰਗ	-12.2828
ਾਰ੍ਹਵੀਂ	-12.2831
▁ਸਲੋਵਾਕ	-12.2831
▁ਰਾਖਵੇਂ	-12.2832
ਸੁਲਿਵਾਨ	-12.2832
▁time	-12.2832
▁ਡੋਹੀਨੀ	-12.2832
▁ਤਾਲਮੂਦ	-12.2832
▁ਪਛਤਾਵਾ	-12.2832
▁ਮਿਨੇਪੋਲਿਸ	-12.2832
▁ਮੈਕਗੁਆਇਰ	-12.2832
▁ਵਿੰਬਲਡਨ	-12.2832
▁ਹਾਈਪਰਗ੍ਰਾਫੀਆ	-12.2832
▁ਨਸਲਕੁਸ਼ੀ	-12.2832
▁ਮਾਊਸ	-12.2832
▁ਜਾਵੋਗੇ	-12.2832
▁ਨਿਹੱਥੇ	-12.2832
▁ਓਡੋਨੀਕ	-12.2832
▁ਟੈਕਨੀਸ਼ੀਅਨ	-12.2832
▁ਖਣਨ	-12.2832
▁ਕੈਰੇਬੀਅਨ	-12.2832
▁ਕੰਘੀ	-12.2832
▁ਮੈਕਿੰਟਾਇਰ	-12.2832
▁ਕਾਫ਼ਿਰ	-12.2832
▁ਬੈਰਿੰਗਟਨ	-12.2832
▁ਡੌਰਸਲ	-12.2832
▁ਮੋਂਟੇਵੀਡੀਓ	-12.2832
▁(2007)	-12.2832
▁ਮੈਕਾਰਥੀ	-12.2833
▁ਰੁਝੇਵੇਂ	-12.2833
▁ਖਿੰਡਾਉਣ	-12.2833
▁ਗਵਰਨੈਂਸ	-12.2833
▁ਬੇਸਾਲਟ	-12.2833
▁ਦਲਬਦਲ	-12.2833
▁ਬੇਰੋਜ਼ਗਾਰ	-12.2833
▁ਰਿੱਜ	-12.2833
▁(2008)	-12.2833
▁ਕੈਨੂਟ	-12.2833
▁ਦੇਵੋਗੇ	-12.2833
▁ਮੇਰਿਲ	-12.2833
▁ਮੂਰਤ	-12.2833
▁ਕੈਰਿਜ	-12.2833
▁ਸਵਿਮਿੰਗ	-12.2834
▁ਟਵੇਨ	-12.2834
▁ਫੋਸਟਰ	-12.2834
▁ਲਪੇਟਿਆ	-12.2834
▁ਰਿਪਲੀ	-12.2834
▁ਜਣੇਪਾ	-12.2834
▁ਕੁਇੰਟ	-12.2835
▁ਪਹੁੰਚਾਉਂਦਾ	-12.2835
▁ਤੇਲਗੂ	-12.2835
ਾਬਾਇਆ	-12.2835
▁ਗਾਬਾ	-12.2836
▁ਡਾਇਅਨ	-12.2836
▁ਸਕ੍ਰੈਪਿੰਗ	-12.2837
▁ਖੁਸ਼ਬੂ	-12.2837
▁ਬੰਦੂਕਧਾਰੀਆਂ	-12.2837
ਵਰੇਜ	-12.2837
▁ਝਿਜਕਦਾ	-12.2837
▁ਰੀਲ	-12.2837
▁ਕਾਰਪੇਟ	-12.2838
▁ਅਜਕ	-12.2838
▁1776	-12.2839
▁ਦੇਸ਼ਧ੍ਰੋਹ	-12.2839
▁ਸਵਿੰਗ	-12.284
▁ਕਰਲਿੰਗ	-12.2841
▁ਸਕੁਐਡ	-12.2841
▁ਸ਼ਾਅ	-12.2841
▁ਘੇਰਿਆ	-12.2841
▁ਰੋਵਰ	-12.2841
▁ਲੁੱਟਿਆ	-12.2842
▁ਪਰਿਪੱਕਤਾ	-12.2842
▁ਪਾਲੀਓ	-12.2842
▁ਖਿੱਚਦੇ	-12.2842
▁ਲਡ਼ਦਾ	-12.2842
▁ਆਗਸਟਸ	-12.2843
▁1822	-12.2843
tr	-12.2843
▁1828	-12.2843
▁1787	-12.2844
▁ਮਲਾਹਾਂ	-12.2844
▁ਹਿਲਟਨ	-12.2845
▁ਬਿਲਡਰ	-12.2845
▁ਐਟਲਾਂਟਿਸ	-12.2846
▁ਅੰਸ਼	-12.2847
▁ਮੌਸ	-12.2847
▁ਵਿਚੋਲੇ	-12.2848
▁1775	-12.2848
▁ਮਾਲਮੋ	-12.2848
▁ਸਟ੍ਰੀਟਕਾਰ	-12.2848
▁ਐਂਡਰੀ	-12.2849
ਘਾ	-12.2852
,800	-12.2853
▁ਅਧਾਰਾਂ	-12.2854
ਿਲੋ	-12.2854
▁ਤਿਆਗਣ	-12.2854
ur	-12.2855
93)	-12.2856
▁1802	-12.286
▁ਕੱਟਦਾ	-12.2862
ਗੈਸ	-12.2862
▁ਜਵਾਬਦੇਹੀ	-12.2863
▁ਸਲਟ	-12.2864
ਮੰਦ	-12.2865
▁ਪੁੱਛਣਾ	-12.2865
▁ਕ੍ਰੈਮ	-12.2866
▁ਘਟਾਉਂਦੀ	-12.2866
▁ਕਰਾਉਣ	-12.2867
▁ਦਲੇਰੀ	-12.2868
▁ਸਭਾਵਾਂ	-12.287
▁ਠੇਕੇਦਾਰਾਂ	-12.2871
ਦਾਦੀ	-12.2872
▁ਕਲਚਰ	-12.2874
▁ਪੰਜੇ	-12.2875
▁ਨੋਰਡ	-12.2875
▁ਤਾਲਾ	-12.2876
ਯੁਕ	-12.288
ਕੌਕ	-12.288
ਸਵਰਗ	-12.2881
ਨੀਕਾ	-12.2885
▁ਵੱਸ	-12.2893
▁ਗ੍ਰੋਵ	-12.2894
ਐੱਫਏ	-12.2896
▁ਮੇਨੀ	-12.2896
ਥੀਆ	-12.2897
▁ਜੌਨਸਨ	-12.2898
ਿਟਸ	-12.2898
ਗਲੂ	-12.2899
▁ਸਟੈਪ	-12.2901
ਪਾਗਲ	-12.2904
▁ਵੈਲਯੂ	-12.2906
ਮੌਨ	-12.291
ਫਿਕ	-12.2911
▁ਬੋਲੀਆਂ	-12.2913
▁ਥਿਊਰੀਆਂ	-12.2914
▁ਡੁਪ	-12.2918
▁ਪੈਟਰ	-12.292
▁ਰੰਗਿਆ	-12.2922
▁ਸੁੱਜ	-12.2923
▁ਆਦਰਸ਼ਾਂ	-12.2924
▁ਨੀਲਸਨ	-12.2932
▁ਐਸਟੇ	-12.2935
▁ਬਹੁਤਾ	-12.2937
▁ਕ੍ਰੋਨ	-12.2939
▁ਪੈਟਨ	-12.2941
▁ਸਿਧਾਂਤਕਾਰ	-12.2945
▁ਤਨ	-12.2946
ਖੀ	-12.2956
▁ਵਾਈਸ	-12.2957
ਨ੍ਹਾ	-12.2958
▁ਬ੍ਰੀ	-12.2958
▁ਪੋਸ	-12.2958
▁ਵਰਡੇ	-12.2959
ਕਾਲਾ	-12.2964
▁ਲੈਟਰ	-12.2975
ਪਾਰਟ	-12.2977
ਿਸਟਿਕ	-12.2978
ਿਧਾ	-12.2978
▁ਬੋਨੀ	-12.2978
▁ਆਰਗ	-12.2979
▁ਵੇਰੀ	-12.2981
ਬਰਡ	-12.2982
ਵਾਟ	-12.2983
▁1989)	-12.2983
▁ਕਾਰਟ	-12.2984
ਵੇਸ	-12.2987
▁ਵਾਰਡਨ	-12.2992
ਪੋਸ	-12.2996
▁sin	-12.2997
▁ਇਤਰਾਜ਼ਾਂ	-12.3004
ਡੋਨੇਲ	-12.3004
ਨੀਲਾ	-12.3005
▁ਡੋਨਾ	-12.3008
▁ਸੁਣੇ	-12.3012
▁ਕਲਿਨ	-12.3012
ਬਿਗ	-12.3016
ਬੁਆਏ	-12.3017
▁ਉੱਭਰਨ	-12.3018
ਗਲੋ	-12.3018
▁ਫੋਲ	-12.3019
▁ਲੂਮਿਸ	-12.3019
ੇਸੀਆ	-12.3021
▁ਭਾ	-12.3024
ਬਾਗ	-12.3031
ਅਧਿਕਾਰ	-12.3033
▁ਵਾਈਜ਼	-12.3034
ੱਨ	-12.3038
ਇਤਿਹਾਸ	-12.3041
▁$1,000	-12.3044
ਡਮੈਨ	-12.3047
▁ਹੋਟਲਾਂ	-12.3048
▁ਫਲਾਈ	-12.305
ਜਿਆਂਗ	-12.3053
ਮਾਊਂਟ	-12.3054
.8%)	-12.3055
ਾਅ	-12.3055
ਸ਼ਨੀਵਾਰ	-12.3057
ਬਾਹਰ	-12.3057
ਸ਼ਿਕਾਗੋ	-12.3057
ਲਡ਼ਾਈ	-12.3057
ਧਾਰਮਿਕ	-12.3057
ਸੰਸਾਰ	-12.3057
ਗੁੰਮ	-12.3057
ਆਬਾਦੀ	-12.3058
ਜੀਵੰਤ	-12.3058
ਟ੍ਰਾਂਸ	-12.3058
ਚੰਗੀ	-12.3059
▁ਇਲਾਜਾਂ	-12.3061
ਕੰਪਿਊਟਰ	-12.3061
ਫਰਾਂਸ	-12.3062
▁al	-12.3062
▁ਲੀਥ	-12.3063
ਨਿਰਦੇਸ਼ਕ	-12.3063
ਨੋਟਃ	-12.3069
ਗੁਆ	-12.307
ਾਰੇ	-12.3072
ਕੀਆ	-12.3074
ਿਟੋ	-12.3075
▁ਅਵਾ	-12.3077
▁ਪ੍ਰੈਟ	-12.3083
ਦਿਲ	-12.3084
ਵਰਸਿਟੀ	-12.3086
▁ਅਨੁਸੂਚ	-12.3088
ਪਿਟ	-12.3089
ਬੈਲ	-12.3089
ਕਾਊ	-12.309
▁ਗਾਰਡਨਰ	-12.3093
▁ਸੁਏ	-12.3093
▁ਹੇਮ	-12.3096
▁ਪਾਵ	-12.3099
▁ਰਾਈਡ	-12.3101
▁2019-20	-12.3101
▁ਅਲਟ	-12.3101
▁ਜਨਰੇਟਰ	-12.3105
▁ਉਦਾਰ	-12.3107
ਪਕ	-12.3107
▁ਐਕਸੀ	-12.3108
▁ਅਕਸ	-12.311
ਕੋਇਲ	-12.3111
▁ਪ੍ਰੋਸੈਸਰ	-12.3112
▁ਜ਼ਮਾਨਤ	-12.3112
▁ਹਡ	-12.3113
▁ਕੁੰਡ	-12.3114
ਠੇ	-12.3114
ਪਲੈਕਸ	-12.3115
▁ਚਲਦ	-12.3116
▁ਉਪਯੋਗ	-12.3118
ਫਲਾਈ	-12.312
▁ਸੰਵੇਦ	-12.3122
▁ਯੂਰੀ	-12.3122
▁ਭੱਠੀ	-12.3123
▁ਵਰਸੈਸਟਰ	-12.3126
ਕਿੰਡਰਗਾਰਟਨ	-12.3126
ਸੀਵੌਲਫ	-12.3126
▁ਕਮੋਡੋਰ	-12.3126
▁ਕੁਈਨਸਲੈਂਡ	-12.3126
▁ਖੋਖਲੇ	-12.3126
▁ਜਿਮਨੇਜ਼ੀਅਮ	-12.3126
▁ਟ੍ਰਿਟੈਨਸ	-12.3126
▁ਡਾਇਗਨੌਸਟਿਕ	-12.3126
▁ਡਾਇਰੈਕਟੋਰੇਟ	-12.3126
▁ਦੱਬੇ	-12.3126
▁ਧਮਾਕਿਆਂ	-12.3126
▁ਪੁਸਤਿਕਾ	-12.3126
▁ਮੈਕਾਰਟਨੀ	-12.3126
▁ਮੈਟਜਿੰਗਰ	-12.3126
▁ਲਾਫਾਯੇਟ	-12.3126
▁ਵੈਮਪਾਇਰ	-12.3126
▁ਵ੍ਲਾਡੀਸਲਾ	-12.3126
▁ਸਵਿਫਟ	-12.3126
▁ਸਿਰਾਕੂਸ	-12.3126
▁ਚਮਚ	-12.3126
▁ਬ੍ਰੌਡਕਾਸਟਿੰਗ	-12.3126
▁ਸਮੇਰਦ	-12.3126
▁ਤਾਈਪੇਈ	-12.3126
▁ਮੌਲਵੀ	-12.3127
▁ਡਿਸਆਰਡਰ	-12.3127
▁ਪ੍ਰੈਸ਼ਰ	-12.3127
▁ਮੋਜਾਰਟ	-12.3127
▁ਸਾਬਣ	-12.3127
▁ਕੈਨੋਇੰਗ	-12.3127
▁ਫੋਰੈਸਟ	-12.3127
▁ਵਾਘਨ	-12.3127
▁(1978)	-12.3127
▁ਲਾਂਕਾਸ਼ਾਇਰ	-12.3127
▁ਕਨਿੰਘਮ	-12.3127
▁ਗੈਲੀਸੀਆ	-12.3127
▁ਡਾਇਮੰਡ	-12.3127
▁ਡਰੱਮੰਡ	-12.3127
▁ਕੈਂਪਬੈਲ	-12.3127
▁ਆਇਰਸ	-12.3127
▁ਇਕਨਾਮਿਕਸ	-12.3128
▁ਠੇਕੇ	-12.3128
▁ਮਤਰੇਈ	-12.3128
ਸ਼ੁਦਾ	-12.3128
▁ਡਰੈਗ	-12.3128
▁ਫਾਰਮੇਸੀ	-12.3128
[...]
